/*
 * Quantization Aware Trained (QAT) CNN
 * SeparableConv2D and Depthwise2D convolutions only
 * Currently not working due to unbalanced quantization
 */

#ifndef TENSORFLOW_LITE_MICRO_MODEL_H_
#define TENSORFLOW_LITE_MICRO_MODEL_H_

extern const unsigned char model_data[];
extern const int model_data_len;

#endif  // TENSORFLOW_LITE_MICRO_MODEL_H_

const int model_data_len = 16744;

alignas(8) const unsigned char model_data[] = 
{ 
0x20, 0x00, 0x00, 0x00, 0x54, 0x46, 0x4C, 0x33, 0x00, 0x00, 0x00, 0x00, 0x14, 0x00, 0x20, 0x00, 0x1C, 0x00, 0x18, 0x00, 0x14, 0x00, 0x10, 0x00, 0x0C, 0x00, 0x00, 0x00, 0x08, 0x00, 0x04, 0x00, 0x14, 0x00, 0x00, 0x00, 0x1C, 0x00, 0x00, 0x00, 0x1C, 0x00, 0x00, 0x00, 0x4C, 0x00, 0x00, 0x00, 0x04, 0x0E, 0x00, 0x00, 0x14, 0x0E, 0x00, 0x00, 0x58, 0x40, 0x00, 0x00, 0x03, 0x00, 0x00, 0x00, 0x00, 0x00, 0x00, 0x00, 0x01, 0x00, 0x00, 0x00, 0x0C, 0x00, 0x00, 0x00, 0x08, 0x00, 0x0C, 0x00, 0x08, 0x00, 0x04, 0x00, 0x08, 0x00, 0x00, 0x00, 0x36, 0x00, 0x00, 0x00, 0x04, 0x00, 0x00, 0x00, 0x13, 0x00, 0x00, 0x00, 0x6D, 0x69, 0x6E, 0x5F, 0x72, 0x75, 0x6E, 0x74, 0x69, 0x6D, 0x65, 0x5F, 0x76, 0x65, 0x72, 0x73, 0x69, 0x6F, 0x6E, 0x00, 0x37, 0x00, 0x00, 0x00, 0xB4, 0x0D, 0x00, 0x00, 0xAC, 0x0D, 0x00, 0x00, 0x94, 0x0D, 0x00, 0x00, 0x78, 0x0D, 0x00, 0x00, 0x64, 0x0D, 0x00, 0x00, 0x50, 0x0D, 0x00, 0x00, 0x3C, 0x0D, 0x00, 0x00, 0x24, 0x0D, 0x00, 0x00, 0xF4, 0x0C, 0x00, 0x00, 0xDC, 0x0C, 0x00, 0x00, 0xC4, 0x0C, 0x00, 0x00, 0x6C, 0x0C, 0x00, 0x00, 0x3C, 0x0C, 0x00, 0x00, 0x24, 0x0C, 0x00, 0x00, 0xF4, 0x0B, 0x00, 0x00, 0x64, 0x0B, 0x00, 0x00, 0x14, 0x0B, 0x00, 0x00, 0xF4, 0x0A, 0x00, 0x00, 0xD4, 0x0A, 0x00, 0x00, 0x34, 0x0A, 0x00, 0x00, 0xE4, 0x09, 0x00, 0x00, 0xC4, 0x09, 0x00, 0x00, 0x74, 0x09, 0x00, 0x00, 0x64, 0x07, 0x00, 0x00, 0xD4, 0x06, 0x00, 0x00, 0xA4, 0x06, 0x00, 0x00, 0x74, 0x06, 0x00, 0x00, 0x64, 0x02, 0x00, 0x00, 0xD4, 0x01, 0x00, 0x00, 0x04, 0x01, 0x00, 0x00, 0xDC, 0x00, 0x00, 0x00, 0xD4, 0x00, 0x00, 0x00, 0xCC, 0x00, 0x00, 0x00, 0xC4, 0x00, 0x00, 0x00, 0xBC, 0x00, 0x00, 0x00, 0xB4, 0x00, 0x00, 0x00, 0xAC, 0x00, 0x00, 0x00, 0xA4, 0x00, 0x00, 0x00, 0x9C, 0x00, 0x00, 0x00, 0x94, 0x00, 0x00, 0x00, 0x8C, 0x00, 0x00, 0x00, 0x84, 0x00, 0x00, 0x00, 0x7C, 0x00, 0x00, 0x00, 0x74, 0x00, 0x00, 0x00, 0x6C, 0x00, 0x00, 0x00, 0x64, 0x00, 0x00, 0x00, 0x5C, 0x00, 0x00, 0x00, 0x54, 0x00, 0x00, 0x00, 0x4C, 0x00, 0x00, 0x00, 0x44, 0x00, 0x00, 0x00, 0x3C, 0x00, 0x00, 0x00, 0x34, 0x00, 0x00, 0x00, 0x2C, 0x00, 0x00, 0x00, 0x24, 0x00, 0x00, 0x00, 0x04, 0x00, 0x00, 0x00, 0x3E, 0xF2, 0xFF, 0xFF, 0x04, 0x00, 0x00, 0x00, 0x10, 0x00, 0x00, 0x00, 0x31, 0x2E, 0x31, 0x34, 0x2E, 0x30, 0x00, 0x00, 0x00, 0x00, 0x00, 0x00, 0x00, 0x00, 0x00, 0x00, 0xC8, 0xC1, 0xFF, 0xFF, 0xCC, 0xC1, 0xFF, 0xFF, 0xD0, 0xC1, 0xFF, 0xFF, 0xD4, 0xC1, 0xFF, 0xFF, 0xD8, 0xC1, 0xFF, 0xFF, 0xDC, 0xC1, 0xFF, 0xFF, 0xE0, 0xC1, 0xFF, 0xFF, 0xE4, 0xC1, 0xFF, 0xFF, 0xE8, 0xC1, 0xFF, 0xFF, 0xEC, 0xC1, 0xFF, 0xFF, 0xF0, 0xC1, 0xFF, 0xFF, 0xF4, 0xC1, 0xFF, 0xFF, 0xF8, 0xC1, 0xFF, 0xFF, 0xFC, 0xC1, 0xFF, 0xFF, 0x00, 0xC2, 0xFF, 0xFF, 0x04, 0xC2, 0xFF, 0xFF, 0x08, 0xC2, 0xFF, 0xFF, 0x0C, 0xC2, 0xFF, 0xFF, 0x10, 0xC2, 0xFF, 0xFF, 0x14, 0xC2, 0xFF, 0xFF, 0x18, 0xC2, 0xFF, 0xFF, 0x1C, 0xC2, 0xFF, 0xFF, 0x20, 0xC2, 0xFF, 0xFF, 0xB6, 0xF2, 0xFF, 0xFF, 0x04, 0x00, 0x00, 0x00, 0x18, 0x00, 0x00, 0x00, 0x95, 0x00, 0x00, 0x00, 0x54, 0xFE, 0xFF, 0xFF, 0x8A, 0xEE, 0xFF, 0xFF, 0x84, 0x04, 0x00, 0x00, 0x60, 0x0E, 0x00, 0x00, 0x74, 0x49, 0xFF, 0xFF, 0xDA, 0xF2, 0xFF, 0xFF, 0x04, 0x00, 0x00, 0x00, 0xC0, 0x00, 0x00, 0x00, 0x0A, 0x07, 0x03, 0x0C, 0x07, 0xF2, 0xFC, 0xFC, 0x00, 0xEE, 0x0C, 0x05, 0xF4, 0xD9, 0xF6, 0x0C, 0xF6, 0xEF, 0x06, 0x0D, 0x09, 0xFB, 0x03, 0x09, 0x12, 0xE3, 0xE7, 0x0D, 0x05, 0xF3, 0xF0, 0xEE, 0xF4, 0xEF, 0xF1, 0x0B, 0x0C, 0xFE, 0xE7, 0xFA, 0x08, 0xEC, 0xF6, 0xEB, 0xEA, 0x03, 0xF1, 0x08, 0x0C, 0x06, 0xFA, 0xF7, 0xEA, 0x0F, 0x03, 0xF3, 0x0D, 0x05, 0x0E, 0xF7, 0x0A, 0xE8, 0x0F, 0xF4, 0xF7, 0x06, 0x08, 0xFC, 0xEA, 0x07, 0x0D, 0x02, 0x06, 0x0B, 0x08, 0x03, 0x07, 0x09, 0x08, 0xF0, 0x12, 0x08, 0x02, 0x0A, 0x08, 0xF0, 0x01, 0xEB, 0xF4, 0x07, 0xF5, 0xF1, 0x06, 0x0A, 0xF3, 0x05, 0xE8, 0x07, 0x09, 0xF6, 0x03, 0x07, 0xF4, 0xFF, 0x07, 0x03, 0xF4, 0x03, 0x07, 0xE9, 0x08, 0xF8, 0x03, 0x08, 0xE7, 0xF2, 0xFF, 0xF9, 0xFF, 0x01, 0xF5, 0x01, 0xFB, 0x03, 0x08, 0x0F, 0xF2, 0x06, 0x0C, 0x04, 0xE3, 0xE7, 0xF9, 0x07, 0xF3, 0xD8, 0xE1, 0x04, 0x07, 0xEB, 0x04, 0x17, 0x03, 0x08, 0xEC, 0xEF, 0x0E, 0xEA, 0x06, 0x0A, 0xE3, 0x0A, 0xF8, 0x06, 0x02, 0x09, 0xE5, 0xE6, 0x08, 0x03, 0xE3, 0x9C, 0xD7, 0xA4, 0x9B, 0xAE, 0xDC, 0xA5, 0xC1, 0xA1, 0xB5, 0xA3, 0xB7, 0xE8, 0xA2, 0x9C, 0xB7, 0xC6, 0xC9, 0xBF, 0xA0, 0xA7, 0x99, 0xC5, 0xAF, 0xBE, 0x91, 0x81, 0x99, 0xEB, 0xAE, 0xA6, 0xA6, 0xF3, 0xFF, 0xFF, 0x04, 0x00, 0x00, 0x00, 0x80, 0x00, 0x00, 0x00, 0xCD, 0xF7, 0xFF, 0xFF, 0xC7, 0x0C, 0x00, 0x00, 0x76, 0xF8, 0xFF, 0xFF, 0x7D, 0xFF, 0xFF, 0xFF, 0xB2, 0xFE, 0xFF, 0xFF, 0x80, 0x02, 0x00, 0x00, 0x1E, 0xEC, 0xFF, 0xFF, 0x41, 0xFC, 0xFF, 0xFF, 0x9C, 0xF3, 0xFF, 0xFF, 0x30, 0x01, 0x00, 0x00, 0xD3, 0x04, 0x00, 0x00, 0xBE, 0x00, 0x00, 0x00, 0xEB, 0xF9, 0xFF, 0xFF, 0x81, 0xF0, 0xFF, 0xFF, 0xB7, 0x03, 0x00, 0x00, 0x4F, 0x05, 0x00, 0x00, 0x54, 0x01, 0x00, 0x00, 0xEB, 0xF7, 0xFF, 0xFF, 0x35, 0xFB, 0xFF, 0xFF, 0x56, 0xFE, 0xFF, 0xFF, 0x4E, 0x06, 0x00, 0x00, 0x25, 0xFB, 0xFF, 0xFF, 0x8C, 0xFF, 0xFF, 0xFF, 0x04, 0xFB, 0xFF, 0xFF, 0x02, 0xFD, 0xFF, 0xFF, 0xE3, 0x07, 0x00, 0x00, 0xF9, 0xEC, 0xFF, 0xFF, 0x95, 0x05, 0x00, 0x00, 0x63, 0xFE, 0xFF, 0xFF, 0x39, 0xEE, 0xFF, 0xFF, 0xEC, 0xFC, 0xFF, 0xFF, 0x39, 0x02, 0x00, 0x00, 0x32, 0xF4, 0xFF, 0xFF, 0x04, 0x00, 0x00, 0x00, 0x00, 0x04, 0x00, 0x00, 0xF1, 0xEE, 0xD9, 0x0B, 0x00, 0x20, 0xB2, 0x04, 0x08, 0x24, 0xB1, 0xF7, 0x14, 0x09, 0xD6, 0xC6, 0x0C, 0xF9, 0x21, 0x28, 0xF0, 0x04, 0xD4, 0x1C, 0x45, 0x0D, 0x3C, 0xB5, 0x11, 0xE7, 0x0E, 0x07, 0x2E, 0xE2, 0xEA, 0xFF, 0xEE, 0x0C, 0x08, 0xEE, 0xFF, 0xF5, 0x16, 0x31, 0x12, 0xEA, 0xE7, 0xE8, 0x0F, 0xE3, 0x05, 0x11, 0xEF, 0x15, 0xF0, 0x27, 0x00, 0x2D, 0xD0, 0x03, 0x18, 0x08, 0x3B, 0xDB, 0xDE, 0x2D, 0xE2, 0x0C, 0xDA, 0xC5, 0x29, 0x0E, 0x1E, 0x0B, 0x46, 0x10, 0xED, 0xF5, 0x03, 0xD5, 0x1D, 0xF7, 0xF9, 0xEE, 0xF5, 0x1C, 0x0F, 0x06, 0x97, 0x32, 0xCB, 0x25, 0x2B, 0xFD, 0x1E, 0xE9, 0xED, 0xFC, 0xE9, 0xF6, 0x12, 0xED, 0xE4, 0x04, 0xDF, 0xE0, 0xC2, 0xEA, 0xA5, 0xD0, 0xFF, 0x04, 0x00, 0x15, 0x0F, 0x16, 0x2D, 0x10, 0x29, 0xCD, 0xFE, 0x21, 0x11, 0x51, 0xFC, 0x3F, 0x12, 0xE3, 0xEA, 0xFA, 0xD8, 0x15, 0x21, 0xC8, 0xFD, 0xEF, 0xE8, 0xF5, 0x81, 0xEC, 0xF8, 0x26, 0x40, 0x2C, 0xF3, 0x05, 0xC9, 0x12, 0x0C, 0x4B, 0xFB, 0xE7, 0x1D, 0xEF, 0x19, 0xF9, 0x09, 0x05, 0xD5, 0xDD, 0xA4, 0x04, 0xBC, 0x18, 0x1A, 0x09, 0xFB, 0xE9, 0x3C, 0xFD, 0x0A, 0xF1, 0x25, 0xED, 0x26, 0xD7, 0xC5, 0x0B, 0xF4, 0x16, 0xED, 0x3D, 0xBE, 0x24, 0x24, 0xE5, 0x3A, 0xE2, 0xE3, 0xE2, 0xE8, 0x1F, 0xF1, 0xC8, 0xE0, 0xDE, 0xDA, 0x07, 0xCB, 0x45, 0x03, 0x3F, 0xF6, 0xFD, 0x24, 0x04, 0xB8, 0xF3, 0xE6, 0x0E, 0xDC, 0x04, 0x02, 0x3F, 0x0C, 0x15, 0xE7, 0x01, 0x04, 0x02, 0x02, 0xF0, 0x0E, 0x1D, 0xE3, 0x0E, 0x10, 0xF8, 0xDC, 0x17, 0x02, 0x47, 0x17, 0x13, 0x7F, 0x0D, 0xEB, 0x0A, 0xEB, 0xE2, 0x0C, 0xFB, 0x02, 0xCE, 0xFC, 0x38, 0x31, 0x0A, 0xB6, 0x16, 0xED, 0xD1, 0x35, 0xEF, 0x2C, 0xFF, 0x04, 0x3F, 0x1A, 0x1F, 0xDE, 0x27, 0x03, 0x30, 0x34, 0x1C, 0x33, 0x08, 0x03, 0xEF, 0x46, 0xF8, 0x0F, 0xF2, 0xF8, 0xBB, 0x15, 0x08, 0x26, 0xF6, 0xDC, 0xF2, 0xD5, 0x03, 0x1E, 0x00, 0x01, 0xE6, 0x08, 0xE1, 0xF6, 0xEC, 0x00, 0x0E, 0xFA, 0xFB, 0x04, 0x08, 0x49, 0x3A, 0x05, 0x24, 0x06, 0xF1, 0xD9, 0xEA, 0x06, 0xA9, 0x05, 0xF1, 0xCA, 0x1C, 0xBB, 0x01, 0x15, 0xD8, 0xE0, 0xF3, 0x07, 0xFF, 0x09, 0xD3, 0xFA, 0xFA, 0xD8, 0x38, 0xD2, 0x14, 0x10, 0x08, 0xD2, 0x27, 0xF2, 0x43, 0xCA, 0xD9, 0x2E, 0x14, 0x0C, 0x14, 0x2B, 0xE8, 0xE6, 0x26, 0x1B, 0x19, 0x18, 0xD9, 0x0D, 0xF3, 0x1B, 0x34, 0x17, 0xFE, 0x05, 0xF7, 0xDF, 0x9D, 0xFF, 0x13, 0xFC, 0x0B, 0x1D, 0x15, 0x0E, 0x11, 0xD3, 0xFE, 0x2E, 0x02, 0xF4, 0xF4, 0x0C, 0x37, 0x08, 0x1A, 0xC7, 0x09, 0xDE, 0x07, 0x2D, 0x0D, 0x48, 0xF9, 0xCD, 0x21, 0xFA, 0x05, 0x1D, 0xCA, 0x04, 0xC9, 0x3A, 0x14, 0x2A, 0x0F, 0x1C, 0x02, 0xBA, 0xD9, 0xF7, 0xED, 0x26, 0xF6, 0xD2, 0x0D, 0x03, 0x28, 0x05, 0xFB, 0x09, 0x02, 0xA8, 0xF3, 0x17, 0x14, 0xDD, 0xBA, 0x12, 0xAF, 0x2C, 0x10, 0xDE, 0xEB, 0xF1, 0x13, 0x10, 0xFA, 0x0F, 0x3E, 0xE8, 0x1D, 0xD6, 0xC2, 0x31, 0xC1, 0xFF, 0x18, 0x08, 0xF5, 0xFB, 0x02, 0xDF, 0x13, 0xE2, 0xF5, 0x04, 0x41, 0xD8, 0x1B, 0xEF, 0x02, 0xF5, 0xE3, 0x0B, 0xDB, 0x0A, 0xFF, 0x25, 0x40, 0x0D, 0x04, 0x09, 0xC1, 0xE7, 0xE0, 0xD4, 0xCF, 0xF2, 0x0E, 0xF0, 0x2C, 0xAE, 0x06, 0xE3, 0x09, 0xFB, 0x14, 0x09, 0x07, 0x0C, 0xDB, 0xCD, 0xFA, 0xE6, 0x14, 0xE9, 0x12, 0xDA, 0xF2, 0xB0, 0x04, 0x03, 0xFD, 0x24, 0x05, 0x29, 0x3E, 0x04, 0x12, 0x0E, 0x1F, 0xF0, 0xFA, 0x45, 0x1F, 0x38, 0xFF, 0x17, 0xF2, 0x2C, 0xEF, 0xEE, 0x35, 0xFB, 0x13, 0x08, 0xEA, 0xB9, 0x16, 0x34, 0x1F, 0x3C, 0xE8, 0xF9, 0x0C, 0xE8, 0xF9, 0x0E, 0xEB, 0x2B, 0x8D, 0x25, 0xD1, 0x08, 0xF0, 0xF2, 0xF4, 0xE2, 0xE6, 0xF8, 0xE8, 0x23, 0xEA, 0xEE, 0x2D, 0x2E, 0xFE, 0xCA, 0x16, 0x0F, 0x1E, 0x1F, 0xE4, 0x27, 0x09, 0x11, 0xF8, 0x17, 0x0C, 0xFF, 0xDC, 0xF9, 0xC5, 0xF3, 0xED, 0x4D, 0x1C, 0x90, 0xEC, 0xD5, 0xEC, 0xFE, 0xF9, 0x1E, 0xFF, 0x0B, 0xBF, 0xEA, 0xC3, 0x1E, 0x30, 0xCE, 0x07, 0x0A, 0x2C, 0xD4, 0x0D, 0x25, 0x30, 0xE5, 0xBA, 0xF7, 0xE9, 0x3D, 0x03, 0x0D, 0xF5, 0xEE, 0xF8, 0x2F, 0x03, 0x19, 0x10, 0xD3, 0xEE, 0x04, 0x2F, 0x30, 0xE2, 0x04, 0xD5, 0xE3, 0x08, 0xED, 0x14, 0xE3, 0x00, 0xE4, 0x2E, 0xCC, 0x18, 0xCA, 0x07, 0x20, 0x10, 0xED, 0x2C, 0x30, 0xE0, 0x0A, 0x10, 0xEB, 0x1E, 0xDC, 0x12, 0xF2, 0x34, 0x16, 0x17, 0x08, 0xC8, 0xF3, 0xEC, 0xDF, 0x2C, 0xE5, 0x06, 0xE5, 0xFF, 0x0E, 0x09, 0x10, 0x02, 0xD6, 0xA3, 0xFF, 0xEF, 0x10, 0x15, 0xFA, 0x09, 0xE5, 0x10, 0x31, 0x27, 0x17, 0xFC, 0x09, 0x0A, 0x2D, 0x24, 0xE1, 0xF9, 0xC7, 0x26, 0x34, 0x1F, 0xF4, 0x06, 0x1E, 0xEE, 0xBE, 0xE2, 0x04, 0xA8, 0x16, 0x1C, 0x03, 0x14, 0x0C, 0xFA, 0x0A, 0x15, 0xF5, 0xE7, 0x53, 0xD6, 0x40, 0xF9, 0xCC, 0xCD, 0xE3, 0x0C, 0x04, 0xFA, 0xF7, 0x16, 0x0B, 0x0A, 0xA9, 0x25, 0xED, 0xFA, 0xEF, 0x2B, 0xAF, 0x02, 0x11, 0xFE, 0xFF, 0x06, 0x02, 0x05, 0x30, 0xDD, 0x47, 0x02, 0xF4, 0xFF, 0xEA, 0x0E, 0x18, 0x2B, 0x00, 0xDA, 0xF1, 0x0A, 0xEE, 0xEB, 0xDD, 0x2A, 0xDA, 0x01, 0x17, 0x9E, 0xAE, 0x14, 0xEF, 0xC5, 0x0F, 0x1C, 0x24, 0x05, 0xFC, 0x1E, 0xEB, 0x62, 0x08, 0x21, 0x2D, 0x01, 0x19, 0xD4, 0x19, 0x1C, 0x0F, 0xF8, 0x02, 0xF6, 0xDB, 0x01, 0xE0, 0xED, 0xF3, 0x1D, 0xE5, 0xEF, 0xA9, 0x16, 0xCD, 0xE2, 0x0F, 0x09, 0x3F, 0x2A, 0xDE, 0x1B, 0x41, 0x23, 0x08, 0xEB, 0x10, 0x15, 0xFE, 0x36, 0x14, 0x29, 0x1C, 0xEF, 0xBF, 0xD5, 0x08, 0xEA, 0x14, 0x1B, 0xD2, 0xF6, 0x1C, 0x1A, 0xF8, 0x0D, 0x36, 0x06, 0x26, 0x31, 0xE1, 0xF9, 0xF0, 0x04, 0xF3, 0x31, 0x01, 0x18, 0x32, 0xD3, 0x22, 0xEE, 0xD2, 0xCE, 0xE4, 0x20, 0xCA, 0xF8, 0xE4, 0x12, 0xFD, 0x36, 0x0E, 0x0C, 0xDC, 0x30, 0xCC, 0xEE, 0xDF, 0x1A, 0x14, 0x26, 0x0D, 0x1B, 0x01, 0xF7, 0x1F, 0xFA, 0xE3, 0xD1, 0x1A, 0xCF, 0x1A, 0x26, 0xB9, 0xE4, 0xB5, 0x00, 0x10, 0x00, 0xDA, 0x02, 0xD7, 0x1E, 0x0C, 0x17, 0xEC, 0xA1, 0xF6, 0x16, 0xE6, 0xF9, 0x0E, 0x0F, 0x32, 0x16, 0xF3, 0x1F, 0x1F, 0x30, 0x10, 0x08, 0x0E, 0x12, 0x0D, 0xD8, 0x1E, 0x17, 0x2E, 0xCF, 0xCA, 0x19, 0x1A, 0xF7, 0x02, 0xA5, 0xE5, 0xF9, 0x2E, 0xF7, 0x0F, 0xE9, 0xF8, 0xEC, 0xE3, 0x13, 0x12, 0xFB, 0x2B, 0xC4, 0x18, 0x48, 0x21, 0xF1, 0x12, 0xDB, 0xF5, 0x2C, 0x11, 0x17, 0x1D, 0xD0, 0x0F, 0x0C, 0x24, 0xDA, 0x03, 0x93, 0x10, 0x01, 0x05, 0xD8, 0xFC, 0x08, 0x16, 0xF0, 0xA7, 0xFD, 0x21, 0xFA, 0x12, 0xD9, 0x00, 0xEA, 0x12, 0x02, 0xD5, 0xE5, 0xEA, 0x1A, 0x01, 0x00, 0x2B, 0xF1, 0xE4, 0xD3, 0xD8, 0xF1, 0x3C, 0x26, 0xF2, 0xDF, 0xF3, 0x1B, 0xBC, 0xDE, 0x23, 0xFA, 0x1D, 0x09, 0xD9, 0xEE, 0x13, 0x00, 0x05, 0x0A, 0xFB, 0xEE, 0x44, 0xCD, 0x25, 0x14, 0xC7, 0xEA, 0xDE, 0x1F, 0xBD, 0x37, 0xF0, 0x18, 0x1F, 0xFE, 0x23, 0xD7, 0x27, 0xEF, 0x17, 0x18, 0xE6, 0xFB, 0xFE, 0xE5, 0xD1, 0xEB, 0xF5, 0x00, 0xE7, 0xFC, 0xF1, 0x19, 0xBF, 0xDE, 0x13, 0xD6, 0xD9, 0x1F, 0xF3, 0xF7, 0x3E, 0xF8, 0xFF, 0xFF, 0x04, 0x00, 0x00, 0x00, 0x20, 0x00, 0x00, 0x00, 0x72, 0x60, 0x6F, 0x2A, 0x57, 0x5F, 0x77, 0x57, 0x6D, 0x71, 0x4E, 0x2D, 0x11, 0x80, 0x6C, 0x6E, 0xED, 0x37, 0x7A, 0x71, 0x4F, 0x53, 0x6F, 0x4D, 0x6F, 0x2E, 0x6B, 0xA1, 0x66, 0x1B, 0x67, 0x74, 0x6A, 0xF8, 0xFF, 0xFF, 0x04, 0x00, 0x00, 0x00, 0x20, 0x00, 0x00, 0x00, 0xC7, 0x96, 0x9C, 0x8F, 0x90, 0x7F, 0xC3, 0x89, 0xA1, 0xDD, 0xDE, 0x86, 0x93, 0x97, 0x70, 0xB6, 0x91, 0xB6, 0xF6, 0xA5, 0x8E, 0xC6, 0xA3, 0x89, 0xAE, 0x8B, 0x9C, 0x8E, 0x8F, 0x92, 0xA9, 0xC6, 0x96, 0xF8, 0xFF, 0xFF, 0x04, 0x00, 0x00, 0x00, 0x80, 0x00, 0x00, 0x00, 0x75, 0xFF, 0xFF, 0xFF, 0x83, 0x02, 0x00, 0x00, 0x34, 0xFE, 0xFF, 0xFF, 0x3A, 0xFA, 0xFF, 0xFF, 0x72, 0xF6, 0xFF, 0xFF, 0x62, 0x08, 0x00, 0x00, 0x04, 0xD1, 0xFF, 0xFF, 0x08, 0xEE, 0xFF, 0xFF, 0x57, 0x02, 0x00, 0x00, 0x4C, 0xFB, 0xFF, 0xFF, 0xA5, 0x07, 0x00, 0x00, 0x5C, 0x07, 0x00, 0x00, 0x8A, 0x1D, 0x00, 0x00, 0x69, 0x03, 0x00, 0x00, 0x21, 0x01, 0x00, 0x00, 0x2C, 0xD4, 0xFF, 0xFF, 0xB6, 0x08, 0x00, 0x00, 0x44, 0x12, 0x00, 0x00, 0x40, 0xF4, 0xFF, 0xFF, 0x60, 0xE3, 0xFF, 0xFF, 0x2F, 0xE6, 0xFF, 0xFF, 0xD9, 0x0C, 0x00, 0x00, 0x0A, 0xC2, 0xFF, 0xFF, 0x26, 0x15, 0x00, 0x00, 0x39, 0xF6, 0xFF, 0xFF, 0x3F, 0xFB, 0xFF, 0xFF, 0xF8, 0xF5, 0xFF, 0xFF, 0xEC, 0x0E, 0x00, 0x00, 0xB6, 0xF0, 0xFF, 0xFF, 0xD2, 0xFE, 0xFF, 0xFF, 0xA3, 0x01, 0x00, 0x00, 0x5E, 0xF0, 0xFF, 0xFF, 0x22, 0xF9, 0xFF, 0xFF, 0x04, 0x00, 0x00, 0x00, 0x00, 0x02, 0x00, 0x00, 0xFC, 0x2C, 0xF9, 0x03, 0xFB, 0x7F, 0x07, 0x0C, 0x24, 0x02, 0x01, 0x41, 0xFD, 0x18, 0xF4, 0xFF, 0x0B, 0x15, 0x12, 0x16, 0xF9, 0x7F, 0x45, 0xFF, 0xA9, 0xD4, 0x1B, 0x5D, 0x6F, 0x3E, 0xF5, 0xE2, 0x49, 0xE5, 0x0E, 0x09, 0x2D, 0x2D, 0x04, 0x15, 0x6D, 0xFF, 0xFD, 0xD2, 0x7F, 0x2F, 0xF5, 0x0C, 0xFC, 0x7F, 0xE9, 0x26, 0x22, 0xC7, 0xE2, 0xF3, 0xF9, 0x0C, 0xFA, 0xDF, 0xDC, 0x52, 0x03, 0xDA, 0x81, 0xFF, 0x17, 0x1F, 0xE9, 0x1C, 0x1A, 0x22, 0xD7, 0xE2, 0xF4, 0x0D, 0xD4, 0x2E, 0xDE, 0x06, 0xFB, 0x12, 0xF4, 0xF9, 0xFD, 0x7F, 0xB4, 0x03, 0x1D, 0xFC, 0x11, 0x18, 0x06, 0xE7, 0x0C, 0xEF, 0xFA, 0xF1, 0x02, 0x1F, 0x13, 0x00, 0x4E, 0x0A, 0x00, 0x3B, 0x05, 0x10, 0xC8, 0x81, 0xDE, 0x01, 0x25, 0x81, 0x11, 0xEE, 0xD0, 0xD0, 0xFE, 0xDE, 0xFF, 0x1F, 0x1B, 0xB5, 0x3C, 0xBA, 0x0A, 0x13, 0xE0, 0x0F, 0x08, 0x03, 0xFF, 0x0E, 0x06, 0xF9, 0x01, 0x02, 0x08, 0x49, 0x03, 0x81, 0xF3, 0xF2, 0xE0, 0xC8, 0x23, 0x21, 0xDA, 0x2B, 0xDE, 0xEB, 0x7F, 0x21, 0x04, 0xBE, 0xBF, 0x18, 0x22, 0xD3, 0x3D, 0xF6, 0xFF, 0x03, 0x00, 0x7F, 0xFA, 0xFA, 0x72, 0xF6, 0xEF, 0xE0, 0x01, 0x0F, 0x0B, 0xFA, 0xA1, 0xB7, 0xE0, 0xCB, 0x08, 0xF6, 0x74, 0x2C, 0xC7, 0xF0, 0x1C, 0xEE, 0xFF, 0x81, 0x18, 0xD1, 0xED, 0xDC, 0x22, 0x11, 0xE3, 0x59, 0x5A, 0xB9, 0xCE, 0x24, 0x28, 0x7F, 0xD3, 0xBC, 0x35, 0x07, 0xE7, 0x20, 0xCB, 0x08, 0x0B, 0xAC, 0xF9, 0x02, 0xE5, 0xF6, 0x2E, 0x54, 0x81, 0xEF, 0x1A, 0xE1, 0xFE, 0x01, 0x02, 0xFB, 0xF9, 0x1A, 0x81, 0x0B, 0xFF, 0x05, 0xFF, 0xF9, 0xFC, 0x04, 0xFC, 0x0C, 0xE2, 0xB8, 0x3F, 0x00, 0xD9, 0xE0, 0xA8, 0xDD, 0x9F, 0x26, 0x21, 0xE3, 0x18, 0x7F, 0xE3, 0xDE, 0xCB, 0xFF, 0x07, 0xF6, 0x02, 0x0D, 0xA4, 0x1E, 0xD2, 0xE5, 0x04, 0xF1, 0x81, 0xF9, 0x0B, 0xF1, 0xDF, 0x79, 0x0A, 0x14, 0xF4, 0x0E, 0xEB, 0xEE, 0x23, 0x1D, 0xE3, 0x7F, 0xC1, 0xCD, 0x0E, 0xEE, 0x30, 0xE4, 0x28, 0x0D, 0x14, 0x60, 0x21, 0x04, 0x3B, 0xFC, 0xF2, 0x4C, 0x81, 0x18, 0xF2, 0x06, 0xF7, 0xBD, 0x11, 0x20, 0xFD, 0x7F, 0x5C, 0xF0, 0x21, 0x17, 0xF4, 0xC9, 0x15, 0xF7, 0xF6, 0xE3, 0xEE, 0x0B, 0xF8, 0xE5, 0xF0, 0x9F, 0xE8, 0x33, 0xF2, 0xF2, 0x18, 0x1F, 0x18, 0x7F, 0x2B, 0x03, 0xFA, 0x47, 0x0F, 0x03, 0xF1, 0x7F, 0x01, 0xE0, 0x53, 0x20, 0x08, 0xD4, 0x06, 0x1C, 0xF1, 0xE1, 0xC1, 0x63, 0xA4, 0xCF, 0x1C, 0xF7, 0x59, 0xD4, 0xE7, 0xE2, 0x25, 0x81, 0x10, 0x08, 0x36, 0xC3, 0xEF, 0xF9, 0x36, 0x24, 0x2C, 0x35, 0x7F, 0xE9, 0xFA, 0x05, 0x18, 0xDF, 0xBC, 0x9C, 0x39, 0xC3, 0xC5, 0x04, 0x14, 0x16, 0x0E, 0x7F, 0x1D, 0x1E, 0x53, 0x0E, 0xEE, 0x16, 0xFE, 0x4B, 0xF7, 0x0A, 0xC3, 0x81, 0xD5, 0xD8, 0x0A, 0xFB, 0xFF, 0xE9, 0xBD, 0xD4, 0xDB, 0x2F, 0x7A, 0x97, 0xEC, 0x2E, 0x41, 0xED, 0x04, 0xFD, 0x04, 0xE9, 0xF4, 0x0B, 0x05, 0xF1, 0xEF, 0xF9, 0xF8, 0x81, 0x04, 0x0B, 0x0A, 0x03, 0xFA, 0x01, 0x19, 0xF3, 0x14, 0x1C, 0xE9, 0xF2, 0xF0, 0x57, 0x11, 0x7F, 0x1A, 0x01, 0xF2, 0x81, 0xEF, 0xE0, 0xFF, 0xE4, 0xE1, 0x11, 0xF2, 0x25, 0xEE, 0xDD, 0x98, 0xBB, 0x20, 0xF9, 0xD5, 0xE1, 0xF6, 0x05, 0x17, 0xFC, 0xD7, 0xF5, 0xEA, 0xF1, 0x17, 0xD6, 0x81, 0xDE, 0xFA, 0xE8, 0x81, 0xEB, 0xD7, 0xD5, 0xF5, 0xDE, 0xCA, 0xE9, 0x43, 0x06, 0xD5, 0x30, 0xBB, 0x89, 0x1B, 0x0A, 0x7F, 0x49, 0x13, 0x04, 0xFB, 0xD4, 0xBD, 0xF9, 0x1D, 0xDD, 0x1C, 0xF7, 0x11, 0x8A, 0xE1, 0x16, 0x2E, 0xFB, 0xFF, 0xFF, 0x04, 0x00, 0x00, 0x00, 0x40, 0x00, 0x00, 0x00, 0x00, 0x00, 0x00, 0x00, 0x00, 0x00, 0x00, 0x00, 0x00, 0x00, 0x00, 0x00, 0x00, 0x00, 0x00, 0x00, 0x00, 0x00, 0x00, 0x00, 0x00, 0x00, 0x00, 0x00, 0x00, 0x00, 0x00, 0x00, 0x00, 0x00, 0x00, 0x00, 0x00, 0x00, 0x00, 0x00, 0x00, 0x00, 0x00, 0x00, 0x00, 0x00, 0x00, 0x00, 0x00, 0x00, 0x00, 0x00, 0x00, 0x00, 0x00, 0x00, 0x00, 0x00, 0x00, 0x00, 0x00, 0x00, 0x00, 0x00, 0x00, 0x00, 0x00, 0x00, 0x7A, 0xFB, 0xFF, 0xFF, 0x04, 0x00, 0x00, 0x00, 0x10, 0x00, 0x00, 0x00, 0x81, 0x81, 0x7F, 0x81, 0x81, 0x81, 0x7F, 0x7F, 0x81, 0x81, 0x81, 0x81, 0x7F, 0x7F, 0x7F, 0x7F, 0x96, 0xFB, 0xFF, 0xFF, 0x04, 0x00, 0x00, 0x00, 0x40, 0x00, 0x00, 0x00, 0x18, 0xFA, 0xFF, 0xFF, 0xF8, 0xF9, 0xFF, 0xFF, 0x00, 0x00, 0x00, 0x00, 0x00, 0x00, 0x00, 0x00, 0x00, 0x00, 0x00, 0x00, 0x27, 0x08, 0x00, 0x00, 0xBD, 0x07, 0x00, 0x00, 0x00, 0x00, 0x00, 0x00, 0xEF, 0xFC, 0xFF, 0xFF, 0x00, 0x00, 0x00, 0x00, 0x00, 0x00, 0x00, 0x00, 0x5E, 0xFD, 0xFF, 0xFF, 0x23, 0x07, 0x00, 0x00, 0xAD, 0xFE, 0xFF, 0xFF, 0x00, 0x00, 0x00, 0x00, 0x00, 0x00, 0x00, 0x00, 0xE2, 0xFB, 0xFF, 0xFF, 0x04, 0x00, 0x00, 0x00, 0x90, 0x00, 0x00, 0x00, 0xBA, 0xDA, 0x13, 0x60, 0x7F, 0x41, 0x29, 0x81, 0x2B, 0xE4, 0x46, 0x15, 0x47, 0xD3, 0xAF, 0x29, 0xEC, 0x21, 0xC6, 0x1E, 0x8F, 0x7F, 0xF9, 0xDF, 0x7F, 0xB1, 0xD9, 0x7F, 0x0D, 0x81, 0xFE, 0xF7, 0x02, 0x27, 0x81, 0xD2, 0xAE, 0x4C, 0x0E, 0xFF, 0x40, 0xCD, 0x2F, 0x28, 0x1F, 0x00, 0x83, 0x36, 0x35, 0x86, 0xC5, 0x8B, 0x3A, 0x23, 0xF1, 0xEF, 0xF7, 0x52, 0x63, 0x40, 0xDC, 0x03, 0x3E, 0x07, 0x1A, 0x66, 0xCB, 0x7F, 0x2D, 0x1A, 0xE3, 0x33, 0xE9, 0x7F, 0x76, 0xA6, 0xED, 0x22, 0x39, 0x81, 0x9E, 0x24, 0x3D, 0x76, 0x00, 0x06, 0xE1, 0xD8, 0x17, 0x69, 0xDD, 0xE8, 0xFC, 0x00, 0x81, 0x56, 0x2A, 0x05, 0x91, 0x5F, 0x48, 0xBA, 0xFF, 0xF0, 0x13, 0xD0, 0x90, 0xC3, 0x81, 0x00, 0x52, 0x55, 0x36, 0x7F, 0x6E, 0xDB, 0xD5, 0xD5, 0x7F, 0x38, 0x23, 0x0B, 0x6E, 0xA4, 0xCF, 0x08, 0xCB, 0x5B, 0x81, 0x10, 0x50, 0xDA, 0xCE, 0xAA, 0x01, 0x57, 0xDE, 0xF6, 0x7F, 0xA6, 0x9B, 0xF3, 0x3E, 0x22, 0x7E, 0xFC, 0xFF, 0xFF, 0x04, 0x00, 0x00, 0x00, 0x10, 0x00, 0x00, 0x00, 0xC5, 0x7F, 0x7C, 0x7C, 0x7C, 0x09, 0x58, 0x7C, 0x80, 0x7C, 0x7C, 0x52, 0x32, 0x12, 0x7C, 0x7C, 0x9A, 0xFC, 0xFF, 0xFF, 0x04, 0x00, 0x00, 0x00, 0x10, 0x00, 0x00, 0x00, 0xAA, 0xF5, 0x7F, 0x7F, 0x7F, 0xA6, 0x93, 0x7F, 0xAA, 0x7F, 0x7F, 0x9B, 0xC6, 0xAC, 0x7F, 0x7F, 0xB6, 0xFC, 0xFF, 0xFF, 0x04, 0x00, 0x00, 0x00, 0x40, 0x00, 0x00, 0x00, 0x45, 0xED, 0x00, 0x00, 0x95, 0xB8, 0xFF, 0xFF, 0x00, 0x00, 0x00, 0x00, 0x00, 0x00, 0x00, 0x00, 0x00, 0x00, 0x00, 0x00, 0x14, 0x0F, 0x01, 0x00, 0xB5, 0x1F, 0x00, 0x00, 0x00, 0x00, 0x00, 0x00, 0xF7, 0x31, 0x01, 0x00, 0x00, 0x00, 0x00, 0x00, 0x00, 0x00, 0x00, 0x00, 0x01, 0x09, 0x00, 0x00, 0x29, 0x09, 0x00, 0x00, 0x17, 0x96, 0x00, 0x00, 0x00, 0x00, 0x00, 0x00, 0x00, 0x00, 0x00, 0x00, 0x02, 0xFD, 0xFF, 0xFF, 0x04, 0x00, 0x00, 0x00, 0x80, 0x00, 0x00, 0x00, 0xF7, 0x94, 0x27, 0x7F, 0x2E, 0xBF, 0x7B, 0x22, 0x0A, 0x8C, 0xD7, 0x81, 0x78, 0x0D, 0xF6, 0x4C, 0xD0, 0xF1, 0x6D, 0x58, 0x7F, 0x22, 0xC0, 0x4F, 0x67, 0xC1, 0xDF, 0x3E, 0x3E, 0x81, 0x95, 0x87, 0xA4, 0x92, 0x81, 0x5D, 0x11, 0x57, 0xB7, 0x7A, 0x29, 0xE0, 0x75, 0x7F, 0x21, 0xF7, 0x42, 0x18, 0xB5, 0x1F, 0xD3, 0xE4, 0xD3, 0x0F, 0x7F, 0xDA, 0x0F, 0xB8, 0xC9, 0x79, 0x5F, 0xBC, 0xEF, 0x7F, 0x71, 0xA3, 0x7A, 0xCB, 0x46, 0x9F, 0xAE, 0x7F, 0x81, 0xCE, 0xBD, 0x11, 0x1B, 0x20, 0xB2, 0x6D, 0x10, 0x5D, 0x3F, 0x7F, 0x43, 0x88, 0xFB, 0x49, 0xD4, 0xB1, 0x38, 0xC1, 0x21, 0x61, 0x7F, 0x46, 0xF5, 0xF1, 0x1F, 0xDA, 0x05, 0xDC, 0x81, 0xDE, 0xC1, 0x21, 0xD5, 0x7F, 0xD6, 0x2C, 0x47, 0x20, 0x7F, 0x0F, 0x25, 0x12, 0xF6, 0x79, 0xF7, 0xF0, 0x43, 0x5C, 0x4D, 0x6C, 0x92, 0xB6, 0x81, 0x9D, 0x8E, 0xFD, 0xFF, 0xFF, 0x04, 0x00, 0x00, 0x00, 0x20, 0x00, 0x00, 0x00, 0x00, 0x00, 0x00, 0x00, 0x00, 0x00, 0x00, 0x00, 0x00, 0x00, 0x00, 0x00, 0x00, 0x00, 0x00, 0x00, 0x00, 0x00, 0x00, 0x00, 0x00, 0x00, 0x00, 0x00, 0x00, 0x00, 0x00, 0x00, 0x00, 0x00, 0x00, 0x00, 0xBA, 0xFD, 0xFF, 0xFF, 0x04, 0x00, 0x00, 0x00, 0x08, 0x00, 0x00, 0x00, 0x81, 0x81, 0x81, 0x81, 0x81, 0x7F, 0x7F, 0x81, 0xCE, 0xFD, 0xFF, 0xFF, 0x04, 0x00, 0x00, 0x00, 0x20, 0x00, 0x00, 0x00, 0x00, 0x00, 0x00, 0x00, 0x00, 0x00, 0x00, 0x00, 0x00, 0x00, 0x00, 0x00, 0xDA, 0x3E, 0x00, 0x00, 0x00, 0x00, 0x00, 0x00, 0x00, 0x00, 0x00, 0x00, 0x50, 0xDF, 0xFF, 0xFF, 0x00, 0x00, 0x00, 0x00, 0xFA, 0xFD, 0xFF, 0xFF, 0x04, 0x00, 0x00, 0x00, 0x48, 0x00, 0x00, 0x00, 0x0D, 0x52, 0xCB, 0xEA, 0xEE, 0x59, 0xE7, 0x81, 0x1D, 0x7F, 0x11, 0xB4, 0x89, 0x81, 0x10, 0x7C, 0x3D, 0x59, 0x94, 0x15, 0x3D, 0x09, 0xCD, 0x76, 0x81, 0x26, 0x5F, 0xF5, 0xB4, 0x8A, 0xEF, 0xA2, 0x19, 0x74, 0x3E, 0x7F, 0xD5, 0x20, 0x2A, 0xDB, 0xD0, 0xAA, 0xCF, 0xD4, 0x0A, 0xB6, 0x00, 0x16, 0xF9, 0x16, 0xE7, 0x16, 0x46, 0xD6, 0x0A, 0xDB, 0xDC, 0xC3, 0x3A, 0xE1, 0xB2, 0x25, 0x7F, 0x0D, 0x00, 0x1E, 0x7F, 0x05, 0x7F, 0x2B, 0xF5, 0x40, 0x4E, 0xFE, 0xFF, 0xFF, 0x04, 0x00, 0x00, 0x00, 0x08, 0x00, 0x00, 0x00, 0x3E, 0x3E, 0x3E, 0x80, 0x3E, 0x3E, 0x7F, 0x3E, 0x62, 0xFE, 0xFF, 0xFF, 0x04, 0x00, 0x00, 0x00, 0x08, 0x00, 0x00, 0x00, 0x7F, 0x7F, 0x7F, 0x8E, 0x7F, 0x7F, 0x85, 0x7F, 0x76, 0xFE, 0xFF, 0xFF, 0x04, 0x00, 0x00, 0x00, 0x20, 0x00, 0x00, 0x00, 0x00, 0x00, 0x00, 0x00, 0x00, 0x00, 0x00, 0x00, 0x00, 0x00, 0x00, 0x00, 0xFA, 0x92, 0x00, 0x00, 0x00, 0x00, 0x00, 0x00, 0x00, 0x00, 0x00, 0x00, 0xD5, 0xB9, 0xFF, 0xFF, 0x00, 0x00, 0x00, 0x00, 0xA2, 0xFE, 0xFF, 0xFF, 0x04, 0x00, 0x00, 0x00, 0x08, 0x00, 0x00, 0x00, 0x81, 0x81, 0x81, 0x7F, 0x81, 0x81, 0x7F, 0x81, 0xB6, 0xFE, 0xFF, 0xFF, 0x04, 0x00, 0x00, 0x00, 0x04, 0x00, 0x00, 0x00, 0x00, 0x00, 0x00, 0x00, 0xC6, 0xFE, 0xFF, 0xFF, 0x04, 0x00, 0x00, 0x00, 0x01, 0x00, 0x00, 0x00, 0x7F, 0x00, 0x00, 0x00, 0xD6, 0xFE, 0xFF, 0xFF, 0x04, 0x00, 0x00, 0x00, 0x04, 0x00, 0x00, 0x00, 0x00, 0xF6, 0x00, 0x00, 0xE6, 0xFE, 0xFF, 0xFF, 0x04, 0x00, 0x00, 0x00, 0x09, 0x00, 0x00, 0x00, 0x7F, 0x09, 0xFE, 0xF1, 0xF9, 0xFD, 0x12, 0x07, 0x07, 0x00, 0x00, 0x00, 0xFE, 0xFE, 0xFF, 0xFF, 0x04, 0x00, 0x00, 0x00, 0x08, 0x00, 0x00, 0x00, 0x01, 0x00, 0x00, 0x00, 0x02, 0x00, 0x00, 0x00, 0x80, 0xCE, 0xFF, 0xFF, 0x84, 0xCE, 0xFF, 0xFF, 0x0F, 0x00, 0x00, 0x00, 0x4D, 0x4C, 0x49, 0x52, 0x20, 0x43, 0x6F, 0x6E, 0x76, 0x65, 0x72, 0x74, 0x65, 0x64, 0x2E, 0x00, 0x01, 0x00, 0x00, 0x00, 0x14, 0x00, 0x00, 0x00, 0x00, 0x00, 0x0E, 0x00, 0x18, 0x00, 0x14, 0x00, 0x10, 0x00, 0x0C, 0x00, 0x08, 0x00, 0x04, 0x00, 0x0E, 0x00, 0x00, 0x00, 0x14, 0x00, 0x00, 0x00, 0x1C, 0x00, 0x00, 0x00, 0xE4, 0x05, 0x00, 0x00, 0xE8, 0x05, 0x00, 0x00, 0xEC, 0x05, 0x00, 0x00, 0x04, 0x00, 0x00, 0x00, 0x6D, 0x61, 0x69, 0x6E, 0x00, 0x00, 0x00, 0x00, 0x17, 0x00, 0x00, 0x00, 0xAC, 0x05, 0x00, 0x00, 0x48, 0x05, 0x00, 0x00, 0xE4, 0x04, 0x00, 0x00, 0x90, 0x04, 0x00, 0x00, 0x5C, 0x04, 0x00, 0x00, 0x28, 0x04, 0x00, 0x00, 0xD4, 0x03, 0x00, 0x00, 0x8C, 0x03, 0x00, 0x00, 0x44, 0x03, 0x00, 0x00, 0xFC, 0x02, 0x00, 0x00, 0xC8, 0x02, 0x00, 0x00, 0x94, 0x02, 0x00, 0x00, 0x50, 0x02, 0x00, 0x00, 0x08, 0x02, 0x00, 0x00, 0xC0, 0x01, 0x00, 0x00, 0x78, 0x01, 0x00, 0x00, 0x44, 0x01, 0x00, 0x00, 0x10, 0x01, 0x00, 0x00, 0xDC, 0x00, 0x00, 0x00, 0x98, 0x00, 0x00, 0x00, 0x60, 0x00, 0x00, 0x00, 0x24, 0x00, 0x00, 0x00, 0x04, 0x00, 0x00, 0x00, 0xBA, 0xFA, 0xFF, 0xFF, 0x08, 0x00, 0x00, 0x00, 0x0C, 0x00, 0x00, 0x00, 0x01, 0x00, 0x00, 0x00, 0x34, 0x00, 0x00, 0x00, 0x01, 0x00, 0x00, 0x00, 0x33, 0x00, 0x00, 0x00, 0x3A, 0xFB, 0xFF, 0xFF, 0x1C, 0x00, 0x00, 0x00, 0x00, 0x00, 0x00, 0x09, 0x1C, 0x00, 0x00, 0x00, 0x20, 0x00, 0x00, 0x00, 0x08, 0x00, 0x00, 0x00, 0x00, 0x00, 0x06, 0x00, 0x08, 0x00, 0x04, 0x00, 0x06, 0x00, 0x00, 0x00, 0x00, 0x00, 0x80, 0x3F, 0x01, 0x00, 0x00, 0x00, 0x33, 0x00, 0x00, 0x00, 0x01, 0x00, 0x00, 0x00, 0x32, 0x00, 0x00, 0x00, 0x72, 0xFB, 0xFF, 0xFF, 0x14, 0x00, 0x00, 0x00, 0x00, 0x00, 0x00, 0x08, 0x10, 0x00, 0x00, 0x00, 0x14, 0x00, 0x00, 0x00, 0x07, 0x00, 0x00, 0x00, 0xA4, 0xCF, 0xFF, 0xFF, 0x01, 0x00, 0x00, 0x00, 0x32, 0x00, 0x00, 0x00, 0x03, 0x00, 0x00, 0x00, 0x31, 0x00, 0x00, 0x00, 0x1C, 0x00, 0x00, 0x00, 0x1D, 0x00, 0x00, 0x00, 0xA6, 0xFB, 0xFF, 0xFF, 0x1C, 0x00, 0x00, 0x00, 0x00, 0x00, 0x00, 0x08, 0x1C, 0x00, 0x00, 0x00, 0x20, 0x00, 0x00, 0x00, 0x07, 0x00, 0x00, 0x00, 0x00, 0x00, 0x06, 0x00, 0x08, 0x00, 0x07, 0x00, 0x06, 0x00, 0x00, 0x00, 0x00, 0x00, 0x00, 0x01, 0x01, 0x00, 0x00, 0x00, 0x31, 0x00, 0x00, 0x00, 0x03, 0x00, 0x00, 0x00, 0x30, 0x00, 0x00, 0x00, 0x1A, 0x00, 0x00, 0x00, 0x1B, 0x00, 0x00, 0x00, 0xE6, 0xFB, 0xFF, 0xFF, 0x14, 0x00, 0x00, 0x00, 0x00, 0x00, 0x00, 0x1B, 0x10, 0x00, 0x00, 0x00, 0x14, 0x00, 0x00, 0x00, 0x06, 0x00, 0x00, 0x00, 0x18, 0xD0, 0xFF, 0xFF, 0x01, 0x00, 0x00, 0x00, 0x30, 0x00, 0x00, 0x00, 0x02, 0x00, 0x00, 0x00, 0x2F, 0x00, 0x00, 0x00, 0x01, 0x00, 0x00, 0x00, 0x16, 0xFC, 0xFF, 0xFF, 0x14, 0x00, 0x00, 0x00, 0x00, 0x00, 0x00, 0x0B, 0x10, 0x00, 0x00, 0x00, 0x14, 0x00, 0x00, 0x00, 0x04, 0x00, 0x00, 0x00, 0x48, 0xD0, 0xFF, 0xFF, 0x01, 0x00, 0x00, 0x00, 0x2F, 0x00, 0x00, 0x00, 0x02, 0x00, 0x00, 0x00, 0x2E, 0x00, 0x00, 0x00, 0x19, 0x00, 0x00, 0x00, 0x46, 0xFC, 0xFF, 0xFF, 0x14, 0x00, 0x00, 0x00, 0x00, 0x00, 0x00, 0x15, 0x10, 0x00, 0x00, 0x00, 0x14, 0x00, 0x00, 0x00, 0x03, 0x00, 0x00, 0x00, 0x78, 0xD0, 0xFF, 0xFF, 0x01, 0x00, 0x00, 0x00, 0x2E, 0x00, 0x00, 0x00, 0x02, 0x00, 0x00, 0x00, 0x2D, 0x00, 0x00, 0x00, 0x18, 0x00, 0x00, 0x00, 0x76, 0xFC, 0xFF, 0xFF, 0x14, 0x00, 0x00, 0x00, 0x00, 0x00, 0x00, 0x01, 0x20, 0x00, 0x00, 0x00, 0x24, 0x00, 0x00, 0x00, 0x02, 0x00, 0x00, 0x00, 0x18, 0xFD, 0xFF, 0xFF, 0x00, 0x00, 0x00, 0x01, 0x01, 0x00, 0x00, 0x00, 0x01, 0x00, 0x00, 0x00, 0x00, 0x00, 0x00, 0x01, 0x01, 0x00, 0x00, 0x00, 0x2D, 0x00, 0x00, 0x00, 0x03, 0x00, 0x00, 0x00, 0x2C, 0x00, 0x00, 0x00, 0x16, 0x00, 0x00, 0x00, 0x17, 0x00, 0x00, 0x00, 0xBA, 0xFC, 0xFF, 0xFF, 0x14, 0x00, 0x00, 0x00, 0x00, 0x00, 0x00, 0x02, 0x20, 0x00, 0x00, 0x00, 0x24, 0x00, 0x00, 0x00, 0x01, 0x00, 0x00, 0x00, 0x0C, 0xFD, 0xFF, 0xFF, 0x01, 0x00, 0x00, 0x00, 0x01, 0x00, 0x00, 0x00, 0x01, 0x00, 0x00, 0x00, 0x00, 0x00, 0x00, 0x01, 0x01, 0x00, 0x00, 0x00, 0x2C, 0x00, 0x00, 0x00, 0x03, 0x00, 0x00, 0x00, 0x2B, 0x00, 0x00, 0x00, 0x14, 0x00, 0x00, 0x00, 0x15, 0x00, 0x00, 0x00, 0xFE, 0xFC, 0xFF, 0xFF, 0x14, 0x00, 0x00, 0x00, 0x00, 0x00, 0x00, 0x02, 0x20, 0x00, 0x00, 0x00, 0x24, 0x00, 0x00, 0x00, 0x01, 0x00, 0x00, 0x00, 0xEE, 0xFC, 0xFF, 0xFF, 0x00, 0x00, 0x00, 0x01, 0x01, 0x00, 0x00, 0x00, 0x01, 0x00, 0x00, 0x00, 0x01, 0x00, 0x00, 0x00, 0x01, 0x00, 0x00, 0x00, 0x2B, 0x00, 0x00, 0x00, 0x03, 0x00, 0x00, 0x00, 0x2A, 0x00, 0x00, 0x00, 0x12, 0x00, 0x00, 0x00, 0x13, 0x00, 0x00, 0x00, 0x42, 0xFD, 0xFF, 0xFF, 0x14, 0x00, 0x00, 0x00, 0x00, 0x00, 0x00, 0x05, 0x24, 0x00, 0x00, 0x00, 0x28, 0x00, 0x00, 0x00, 0x05, 0x00, 0x00, 0x00, 0x92, 0xFE, 0xFF, 0xFF, 0x02, 0x00, 0x00, 0x00, 0x02, 0x00, 0x00, 0x00, 0x02, 0x00, 0x00, 0x00, 0x02, 0x00, 0x00, 0x00, 0x00, 0x00, 0x00, 0x01, 0x01, 0x00, 0x00, 0x00, 0x2A, 0x00, 0x00, 0x00, 0x01, 0x00, 0x00, 0x00, 0x29, 0x00, 0x00, 0x00, 0x82, 0xFD, 0xFF, 0xFF, 0x14, 0x00, 0x00, 0x00, 0x00, 0x00, 0x00, 0x0B, 0x10, 0x00, 0x00, 0x00, 0x14, 0x00, 0x00, 0x00, 0x04, 0x00, 0x00, 0x00, 0xB4, 0xD1, 0xFF, 0xFF, 0x01, 0x00, 0x00, 0x00, 0x29, 0x00, 0x00, 0x00, 0x02, 0x00, 0x00, 0x00, 0x28, 0x00, 0x00, 0x00, 0x11, 0x00, 0x00, 0x00, 0xB2, 0xFD, 0xFF, 0xFF, 0x14, 0x00, 0x00, 0x00, 0x00, 0x00, 0x00, 0x15, 0x10, 0x00, 0x00, 0x00, 0x14, 0x00, 0x00, 0x00, 0x03, 0x00, 0x00, 0x00, 0xE4, 0xD1, 0xFF, 0xFF, 0x01, 0x00, 0x00, 0x00, 0x28, 0x00, 0x00, 0x00, 0x02, 0x00, 0x00, 0x00, 0x27, 0x00, 0x00, 0x00, 0x10, 0x00, 0x00, 0x00, 0xE2, 0xFD, 0xFF, 0xFF, 0x14, 0x00, 0x00, 0x00, 0x00, 0x00, 0x00, 0x01, 0x20, 0x00, 0x00, 0x00, 0x24, 0x00, 0x00, 0x00, 0x02, 0x00, 0x00, 0x00, 0x84, 0xFE, 0xFF, 0xFF, 0x00, 0x00, 0x00, 0x01, 0x01, 0x00, 0x00, 0x00, 0x01, 0x00, 0x00, 0x00, 0x00, 0x00, 0x00, 0x01, 0x01, 0x00, 0x00, 0x00, 0x27, 0x00, 0x00, 0x00, 0x03, 0x00, 0x00, 0x00, 0x26, 0x00, 0x00, 0x00, 0x0E, 0x00, 0x00, 0x00, 0x0F, 0x00, 0x00, 0x00, 0x26, 0xFE, 0xFF, 0xFF, 0x14, 0x00, 0x00, 0x00, 0x00, 0x00, 0x00, 0x02, 0x20, 0x00, 0x00, 0x00, 0x24, 0x00, 0x00, 0x00, 0x01, 0x00, 0x00, 0x00, 0x78, 0xFE, 0xFF, 0xFF, 0x01, 0x00, 0x00, 0x00, 0x01, 0x00, 0x00, 0x00, 0x01, 0x00, 0x00, 0x00, 0x00, 0x00, 0x00, 0x01, 0x01, 0x00, 0x00, 0x00, 0x26, 0x00, 0x00, 0x00, 0x03, 0x00, 0x00, 0x00, 0x25, 0x00, 0x00, 0x00, 0x0C, 0x00, 0x00, 0x00, 0x0D, 0x00, 0x00, 0x00, 0x6A, 0xFE, 0xFF, 0xFF, 0x14, 0x00, 0x00, 0x00, 0x00, 0x00, 0x00, 0x02, 0x20, 0x00, 0x00, 0x00, 0x24, 0x00, 0x00, 0x00, 0x01, 0x00, 0x00, 0x00, 0x5A, 0xFE, 0xFF, 0xFF, 0x00, 0x00, 0x00, 0x01, 0x01, 0x00, 0x00, 0x00, 0x01, 0x00, 0x00, 0x00, 0x01, 0x00, 0x00, 0x00, 0x01, 0x00, 0x00, 0x00, 0x25, 0x00, 0x00, 0x00, 0x03, 0x00, 0x00, 0x00, 0x24, 0x00, 0x00, 0x00, 0x0A, 0x00, 0x00, 0x00, 0x0B, 0x00, 0x00, 0x00, 0xAE, 0xFE, 0xFF, 0xFF, 0x24, 0x00, 0x00, 0x00, 0x00, 0x00, 0x00, 0x05, 0x34, 0x00, 0x00, 0x00, 0x38, 0x00, 0x00, 0x00, 0x05, 0x00, 0x00, 0x00, 0x00, 0x00, 0x0E, 0x00, 0x18, 0x00, 0x17, 0x00, 0x10, 0x00, 0x0C, 0x00, 0x08, 0x00, 0x04, 0x00, 0x0E, 0x00, 0x00, 0x00, 0x02, 0x00, 0x00, 0x00, 0x02, 0x00, 0x00, 0x00, 0x02, 0x00, 0x00, 0x00, 0x02, 0x00, 0x00, 0x00, 0x00, 0x00, 0x00, 0x01, 0x01, 0x00, 0x00, 0x00, 0x24, 0x00, 0x00, 0x00, 0x01, 0x00, 0x00, 0x00, 0x23, 0x00, 0x00, 0x00, 0xFE, 0xFE, 0xFF, 0xFF, 0x14, 0x00, 0x00, 0x00, 0x00, 0x00, 0x00, 0x0B, 0x10, 0x00, 0x00, 0x00, 0x14, 0x00, 0x00, 0x00, 0x04, 0x00, 0x00, 0x00, 0x30, 0xD3, 0xFF, 0xFF, 0x01, 0x00, 0x00, 0x00, 0x23, 0x00, 0x00, 0x00, 0x02, 0x00, 0x00, 0x00, 0x22, 0x00, 0x00, 0x00, 0x09, 0x00, 0x00, 0x00, 0x2E, 0xFF, 0xFF, 0xFF, 0x14, 0x00, 0x00, 0x00, 0x00, 0x00, 0x00, 0x15, 0x10, 0x00, 0x00, 0x00, 0x14, 0x00, 0x00, 0x00, 0x03, 0x00, 0x00, 0x00, 0x60, 0xD3, 0xFF, 0xFF, 0x01, 0x00, 0x00, 0x00, 0x22, 0x00, 0x00, 0x00, 0x02, 0x00, 0x00, 0x00, 0x21, 0x00, 0x00, 0x00, 0x08, 0x00, 0x00, 0x00, 0x5E, 0xFF, 0xFF, 0xFF, 0x20, 0x00, 0x00, 0x00, 0x00, 0x00, 0x00, 0x01, 0x2C, 0x00, 0x00, 0x00, 0x30, 0x00, 0x00, 0x00, 0x02, 0x00, 0x00, 0x00, 0x0C, 0x00, 0x14, 0x00, 0x13, 0x00, 0x0C, 0x00, 0x08, 0x00, 0x07, 0x00, 0x0C, 0x00, 0x00, 0x00, 0x00, 0x00, 0x00, 0x01, 0x01, 0x00, 0x00, 0x00, 0x01, 0x00, 0x00, 0x00, 0x00, 0x00, 0x00, 0x01, 0x01, 0x00, 0x00, 0x00, 0x21, 0x00, 0x00, 0x00, 0x03, 0x00, 0x00, 0x00, 0x20, 0x00, 0x00, 0x00, 0x06, 0x00, 0x00, 0x00, 0x07, 0x00, 0x00, 0x00, 0xAE, 0xFF, 0xFF, 0xFF, 0x20, 0x00, 0x00, 0x00, 0x00, 0x00, 0x00, 0x02, 0x2C, 0x00, 0x00, 0x00, 0x30, 0x00, 0x00, 0x00, 0x01, 0x00, 0x00, 0x00, 0x0C, 0x00, 0x14, 0x00, 0x13, 0x00, 0x0C, 0x00, 0x08, 0x00, 0x04, 0x00, 0x0C, 0x00, 0x00, 0x00, 0x01, 0x00, 0x00, 0x00, 0x01, 0x00, 0x00, 0x00, 0x01, 0x00, 0x00, 0x00, 0x00, 0x00, 0x00, 0x01, 0x01, 0x00, 0x00, 0x00, 0x20, 0x00, 0x00, 0x00, 0x03, 0x00, 0x00, 0x00, 0x1F, 0x00, 0x00, 0x00, 0x04, 0x00, 0x00, 0x00, 0x05, 0x00, 0x00, 0x00, 0x00, 0x00, 0x0E, 0x00, 0x1A, 0x00, 0x14, 0x00, 0x10, 0x00, 0x0C, 0x00, 0x0B, 0x00, 0x04, 0x00, 0x0E, 0x00, 0x00, 0x00, 0x24, 0x00, 0x00, 0x00, 0x00, 0x00, 0x00, 0x02, 0x30, 0x00, 0x00, 0x00, 0x34, 0x00, 0x00, 0x00, 0x01, 0x00, 0x00, 0x00, 0x00, 0x00, 0x0E, 0x00, 0x14, 0x00, 0x00, 0x00, 0x10, 0x00, 0x0C, 0x00, 0x08, 0x00, 0x07, 0x00, 0x0E, 0x00, 0x00, 0x00, 0x00, 0x00, 0x00, 0x01, 0x01, 0x00, 0x00, 0x00, 0x01, 0x00, 0x00, 0x00, 0x01, 0x00, 0x00, 0x00, 0x01, 0x00, 0x00, 0x00, 0x1F, 0x00, 0x00, 0x00, 0x03, 0x00, 0x00, 0x00, 0x1E, 0x00, 0x00, 0x00, 0x02, 0x00, 0x00, 0x00, 0x03, 0x00, 0x00, 0x00, 0x00, 0x00, 0x0A, 0x00, 0x0C, 0x00, 0x00, 0x00, 0x08, 0x00, 0x04, 0x00, 0x0A, 0x00, 0x00, 0x00, 0x08, 0x00, 0x00, 0x00, 0x0C, 0x00, 0x00, 0x00, 0x01, 0x00, 0x00, 0x00, 0x1E, 0x00, 0x00, 0x00, 0x01, 0x00, 0x00, 0x00, 0x00, 0x00, 0x00, 0x00, 0x01, 0x00, 0x00, 0x00, 0x34, 0x00, 0x00, 0x00, 0x01, 0x00, 0x00, 0x00, 0x00, 0x00, 0x00, 0x00, 0x35, 0x00, 0x00, 0x00, 0xB0, 0x2B, 0x00, 0x00, 0x2C, 0x2B, 0x00, 0x00, 0x84, 0x2A, 0x00, 0x00, 0xF8, 0x29, 0x00, 0x00, 0x50, 0x29, 0x00, 0x00, 0xC8, 0x28, 0x00, 0x00, 0xEC, 0x27, 0x00, 0x00, 0x08, 0x27, 0x00, 0x00, 0x84, 0x26, 0x00, 0x00, 0x00, 0x26, 0x00, 0x00, 0x20, 0x25, 0x00, 0x00, 0x40, 0x24, 0x00, 0x00, 0x50, 0x23, 0x00, 0x00, 0x70, 0x22, 0x00, 0x00, 0x34, 0x21, 0x00, 0x00, 0xF0, 0x1F, 0x00, 0x00, 0x64, 0x1F, 0x00, 0x00, 0xD8, 0x1E, 0x00, 0x00, 0x98, 0x1D, 0x00, 0x00, 0x58, 0x1C, 0x00, 0x00, 0x08, 0x1B, 0x00, 0x00, 0xC8, 0x19, 0x00, 0x00, 0xCC, 0x17, 0x00, 0x00, 0xC8, 0x15, 0x00, 0x00, 0x3C, 0x15, 0x00, 0x00, 0xB0, 0x14, 0x00, 0x00, 0x44, 0x14, 0x00, 0x00, 0xC0, 0x13, 0x00, 0x00, 0x54, 0x13, 0x00, 0x00, 0xD0, 0x12, 0x00, 0x00, 0x54, 0x12, 0x00, 0x00, 0xF0, 0x10, 0x00, 0x00, 0x44, 0x10, 0x00, 0x00, 0xD8, 0x0E, 0x00, 0x00, 0x2C, 0x0E, 0x00, 0x00, 0x80, 0x0D, 0x00, 0x00, 0xEC, 0x0C, 0x00, 0x00, 0x78, 0x0B, 0x00, 0x00, 0xCC, 0x0A, 0x00, 0x00, 0x58, 0x09, 0x00, 0x00, 0xAC, 0x08, 0x00, 0x00, 0x00, 0x08, 0x00, 0x00, 0x6C, 0x07, 0x00, 0x00, 0xF8, 0x05, 0x00, 0x00, 0x4C, 0x05, 0x00, 0x00, 0x10, 0x04, 0x00, 0x00, 0x64, 0x03, 0x00, 0x00, 0xB8, 0x02, 0x00, 0x00, 0x2C, 0x02, 0x00, 0x00, 0x78, 0x01, 0x00, 0x00, 0xDC, 0x00, 0x00, 0x00, 0x70, 0x00, 0x00, 0x00, 0x04, 0x00, 0x00, 0x00, 0x38, 0xD5, 0xFF, 0xFF, 0x18, 0x00, 0x00, 0x00, 0x20, 0x00, 0x00, 0x00, 0x40, 0x00, 0x00, 0x00, 0x35, 0x00, 0x00, 0x00, 0x00, 0x00, 0x00, 0x03, 0x44, 0x00, 0x00, 0x00, 0x02, 0x00, 0x00, 0x00, 0xFF, 0xFF, 0xFF, 0xFF, 0x06, 0x00, 0x00, 0x00, 0x1C, 0xD5, 0xFF, 0xFF, 0x08, 0x00, 0x00, 0x00, 0x14, 0x00, 0x00, 0x00, 0x01, 0x00, 0x00, 0x00, 0x00, 0x00, 0x00, 0x00, 0x00, 0x00, 0x00, 0x00, 0x00, 0x00, 0x00, 0x00, 0x01, 0x00, 0x00, 0x00, 0x00, 0x00, 0x80, 0x3B, 0x08, 0x00, 0x00, 0x00, 0x49, 0x64, 0x65, 0x6E, 0x74, 0x69, 0x74, 0x79, 0x00, 0x00, 0x00, 0x00, 0x02, 0x00, 0x00, 0x00, 0x01, 0x00, 0x00, 0x00, 0x06, 0x00, 0x00, 0x00, 0xA0, 0xD5, 0xFF, 0xFF, 0x18, 0x00, 0x00, 0x00, 0x20, 0x00, 0x00, 0x00, 0x40, 0x00, 0x00, 0x00, 0x34, 0x00, 0x00, 0x00, 0x00, 0x00, 0x00, 0x09, 0x44, 0x00, 0x00, 0x00, 0x02, 0x00, 0x00, 0x00, 0xFF, 0xFF, 0xFF, 0xFF, 0x06, 0x00, 0x00, 0x00, 0x84, 0xD5, 0xFF, 0xFF, 0x08, 0x00, 0x00, 0x00, 0x14, 0x00, 0x00, 0x00, 0x01, 0x00, 0x00, 0x00, 0x80, 0xFF, 0xFF, 0xFF, 0xFF, 0xFF, 0xFF, 0xFF, 0x00, 0x00, 0x00, 0x00, 0x01, 0x00, 0x00, 0x00, 0x00, 0x00, 0x80, 0x3B, 0x09, 0x00, 0x00, 0x00, 0x49, 0x64, 0x65, 0x6E, 0x74, 0x69, 0x74, 0x79, 0x31, 0x00, 0x00, 0x00, 0x02, 0x00, 0x00, 0x00, 0x01, 0x00, 0x00, 0x00, 0x06, 0x00, 0x00, 0x00, 0x08, 0xD6, 0xFF, 0xFF, 0x18, 0x00, 0x00, 0x00, 0x20, 0x00, 0x00, 0x00, 0x3C, 0x00, 0x00, 0x00, 0x33, 0x00, 0x00, 0x00, 0x00, 0x00, 0x00, 0x09, 0x74, 0x00, 0x00, 0x00, 0x02, 0x00, 0x00, 0x00, 0xFF, 0xFF, 0xFF, 0xFF, 0x06, 0x00, 0x00, 0x00, 0xEC, 0xD5, 0xFF, 0xFF, 0x08, 0x00, 0x00, 0x00, 0x10, 0x00, 0x00, 0x00, 0x01, 0x00, 0x00, 0x00, 0x72, 0x00, 0x00, 0x00, 0x00, 0x00, 0x00, 0x00, 0x01, 0x00, 0x00, 0x00, 0x43, 0xC5, 0x25, 0x3E, 0x3E, 0x00, 0x00, 0x00, 0x73, 0x65, 0x71, 0x75, 0x65, 0x6E, 0x74, 0x69, 0x61, 0x6C, 0x2F, 0x64, 0x65, 0x6E, 0x73, 0x65, 0x5F, 0x31, 0x5F, 0x6F, 0x72, 0x69, 0x67, 0x2F, 0x4D, 0x61, 0x74, 0x4D, 0x75, 0x6C, 0x3B, 0x73, 0x65, 0x71, 0x75, 0x65, 0x6E, 0x74, 0x69, 0x61, 0x6C, 0x2F, 0x64, 0x65, 0x6E, 0x73, 0x65, 0x5F, 0x31, 0x5F, 0x6F, 0x72, 0x69, 0x67, 0x2F, 0x42, 0x69, 0x61, 0x73, 0x41, 0x64, 0x64, 0x00, 0x00, 0x02, 0x00, 0x00, 0x00, 0x01, 0x00, 0x00, 0x00, 0x06, 0x00, 0x00, 0x00, 0xA0, 0xD6, 0xFF, 0xFF, 0x18, 0x00, 0x00, 0x00, 0x20, 0x00, 0x00, 0x00, 0x3C, 0x00, 0x00, 0x00, 0x32, 0x00, 0x00, 0x00, 0x00, 0x00, 0x00, 0x09, 0x8C, 0x00, 0x00, 0x00, 0x02, 0x00, 0x00, 0x00, 0xFF, 0xFF, 0xFF, 0xFF, 0x20, 0x00, 0x00, 0x00, 0x84, 0xD6, 0xFF, 0xFF, 0x08, 0x00, 0x00, 0x00, 0x10, 0x00, 0x00, 0x00, 0x01, 0x00, 0x00, 0x00, 0x80, 0xFF, 0xFF, 0xFF, 0xFF, 0xFF, 0xFF, 0xFF, 0x01, 0x00, 0x00, 0x00, 0xA8, 0xB5, 0x9B, 0x3B, 0x55, 0x00, 0x00, 0x00, 0x73, 0x65, 0x71, 0x75, 0x65, 0x6E, 0x74, 0x69, 0x61, 0x6C, 0x2F, 0x64, 0x65, 0x6E, 0x73, 0x65, 0x5F, 0x6F, 0x72, 0x69, 0x67, 0x2F, 0x4D, 0x61, 0x74, 0x4D, 0x75, 0x6C, 0x3B, 0x73, 0x65, 0x71, 0x75, 0x65, 0x6E, 0x74, 0x69, 0x61, 0x6C, 0x2F, 0x64, 0x65, 0x6E, 0x73, 0x65, 0x5F, 0x6F, 0x72, 0x69, 0x67, 0x2F, 0x52, 0x65, 0x6C, 0x75, 0x3B, 0x73, 0x65, 0x71, 0x75, 0x65, 0x6E, 0x74, 0x69, 0x61, 0x6C, 0x2F, 0x64, 0x65, 0x6E, 0x73, 0x65, 0x5F, 0x6F, 0x72, 0x69, 0x67, 0x2F, 0x42, 0x69, 0x61, 0x73, 0x41, 0x64, 0x64, 0x00, 0x00, 0x00, 0x02, 0x00, 0x00, 0x00, 0x01, 0x00, 0x00, 0x00, 0x20, 0x00, 0x00, 0x00, 0x50, 0xD7, 0xFF, 0xFF, 0x18, 0x00, 0x00, 0x00, 0x20, 0x00, 0x00, 0x00, 0x3C, 0x00, 0x00, 0x00, 0x31, 0x00, 0x00, 0x00, 0x00, 0x00, 0x00, 0x09, 0x64, 0x00, 0x00, 0x00, 0x02, 0x00, 0x00, 0x00, 0xFF, 0xFF, 0xFF, 0xFF, 0x20, 0x00, 0x00, 0x00, 0x34, 0xD7, 0xFF, 0xFF, 0x08, 0x00, 0x00, 0x00, 0x10, 0x00, 0x00, 0x00, 0x01, 0x00, 0x00, 0x00, 0x1B, 0x00, 0x00, 0x00, 0x00, 0x00, 0x00, 0x00, 0x01, 0x00, 0x00, 0x00, 0xE8, 0x7F, 0xD1, 0x3B, 0x2D, 0x00, 0x00, 0x00, 0x73, 0x65, 0x71, 0x75, 0x65, 0x6E, 0x74, 0x69, 0x61, 0x6C, 0x2F, 0x67, 0x6C, 0x6F, 0x62, 0x61, 0x6C, 0x5F, 0x61, 0x76, 0x65, 0x72, 0x61, 0x67, 0x65, 0x5F, 0x70, 0x6F, 0x6F, 0x6C, 0x69, 0x6E, 0x67, 0x32, 0x64, 0x5F, 0x6F, 0x72, 0x69, 0x67, 0x2F, 0x4D, 0x65, 0x61, 0x6E, 0x00, 0x00, 0x00, 0x02, 0x00, 0x00, 0x00, 0x01, 0x00, 0x00, 0x00, 0x20, 0x00, 0x00, 0x00, 0xD8, 0xD7, 0xFF, 0xFF, 0x18, 0x00, 0x00, 0x00, 0x28, 0x00, 0x00, 0x00, 0x44, 0x00, 0x00, 0x00, 0x30, 0x00, 0x00, 0x00, 0x00, 0x00, 0x00, 0x09, 0x7C, 0x00, 0x00, 0x00, 0x04, 0x00, 0x00, 0x00, 0xFF, 0xFF, 0xFF, 0xFF, 0x10, 0x00, 0x00, 0x00, 0x07, 0x00, 0x00, 0x00, 0x20, 0x00, 0x00, 0x00, 0xC4, 0xD7, 0xFF, 0xFF, 0x08, 0x00, 0x00, 0x00, 0x10, 0x00, 0x00, 0x00, 0x01, 0x00, 0x00, 0x00, 0xA4, 0xFF, 0xFF, 0xFF, 0xFF, 0xFF, 0xFF, 0xFF, 0x01, 0x00, 0x00, 0x00, 0xAE, 0x9F, 0xCA, 0x3D, 0x3D, 0x00, 0x00, 0x00, 0x73, 0x65, 0x71, 0x75, 0x65, 0x6E, 0x74, 0x69, 0x61, 0x6C, 0x2F, 0x71, 0x75, 0x61, 0x6E, 0x74, 0x5F, 0x62, 0x61, 0x74, 0x63, 0x68, 0x5F, 0x6E, 0x6F, 0x72, 0x6D, 0x61, 0x6C, 0x69, 0x7A, 0x61, 0x74, 0x69, 0x6F, 0x6E, 0x5F, 0x32, 0x5F, 0x6F, 0x72, 0x69, 0x67, 0x2F, 0x46, 0x75, 0x73, 0x65, 0x64, 0x42, 0x61, 0x74, 0x63, 0x68, 0x4E, 0x6F, 0x72, 0x6D, 0x56, 0x33, 0x33, 0x00, 0x00, 0x00, 0x04, 0x00, 0x00, 0x00, 0x01, 0x00, 0x00, 0x00, 0x10, 0x00, 0x00, 0x00, 0x07, 0x00, 0x00, 0x00, 0x20, 0x00, 0x00, 0x00, 0x80, 0xD8, 0xFF, 0xFF, 0x18, 0x00, 0x00, 0x00, 0x28, 0x00, 0x00, 0x00, 0x44, 0x00, 0x00, 0x00, 0x2F, 0x00, 0x00, 0x00, 0x00, 0x00, 0x00, 0x09, 0x7C, 0x00, 0x00, 0x00, 0x04, 0x00, 0x00, 0x00, 0xFF, 0xFF, 0xFF, 0xFF, 0x10, 0x00, 0x00, 0x00, 0x07, 0x00, 0x00, 0x00, 0x20, 0x00, 0x00, 0x00, 0x6C, 0xD8, 0xFF, 0xFF, 0x08, 0x00, 0x00, 0x00, 0x10, 0x00, 0x00, 0x00, 0x01, 0x00, 0x00, 0x00, 0x80, 0xFF, 0xFF, 0xFF, 0xFF, 0xFF, 0xFF, 0xFF, 0x01, 0x00, 0x00, 0x00, 0xB2, 0x9D, 0xB1, 0x3D, 0x3D, 0x00, 0x00, 0x00, 0x73, 0x65, 0x71, 0x75, 0x65, 0x6E, 0x74, 0x69, 0x61, 0x6C, 0x2F, 0x71, 0x75, 0x61, 0x6E, 0x74, 0x5F, 0x62, 0x61, 0x74, 0x63, 0x68, 0x5F, 0x6E, 0x6F, 0x72, 0x6D, 0x61, 0x6C, 0x69, 0x7A, 0x61, 0x74, 0x69, 0x6F, 0x6E, 0x5F, 0x32, 0x5F, 0x6F, 0x72, 0x69, 0x67, 0x2F, 0x46, 0x75, 0x73, 0x65, 0x64, 0x42, 0x61, 0x74, 0x63, 0x68, 0x4E, 0x6F, 0x72, 0x6D, 0x56, 0x33, 0x32, 0x00, 0x00, 0x00, 0x04, 0x00, 0x00, 0x00, 0x01, 0x00, 0x00, 0x00, 0x10, 0x00, 0x00, 0x00, 0x07, 0x00, 0x00, 0x00, 0x20, 0x00, 0x00, 0x00, 0x28, 0xD9, 0xFF, 0xFF, 0x18, 0x00, 0x00, 0x00, 0x28, 0x00, 0x00, 0x00, 0x48, 0x00, 0x00, 0x00, 0x2E, 0x00, 0x00, 0x00, 0x00, 0x00, 0x00, 0x09, 0x0C, 0x01, 0x00, 0x00, 0x04, 0x00, 0x00, 0x00, 0xFF, 0xFF, 0xFF, 0xFF, 0x10, 0x00, 0x00, 0x00, 0x07, 0x00, 0x00, 0x00, 0x20, 0x00, 0x00, 0x00, 0x14, 0xD9, 0xFF, 0xFF, 0x08, 0x00, 0x00, 0x00, 0x14, 0x00, 0x00, 0x00, 0x01, 0x00, 0x00, 0x00, 0x80, 0xFF, 0xFF, 0xFF, 0xFF, 0xFF, 0xFF, 0xFF, 0x00, 0x00, 0x00, 0x00, 0x01, 0x00, 0x00, 0x00, 0x19, 0xAD, 0xE3, 0x3B, 0xC9, 0x00, 0x00, 0x00, 0x73, 0x65, 0x71, 0x75, 0x65, 0x6E, 0x74, 0x69, 0x61, 0x6C, 0x2F, 0x73, 0x65, 0x70, 0x61, 0x72, 0x61, 0x62, 0x6C, 0x65, 0x5F, 0x63, 0x6F, 0x6E, 0x76, 0x32, 0x64, 0x5F, 0x32, 0x5F, 0x6F, 0x72, 0x69, 0x67, 0x2F, 0x52, 0x65, 0x6C, 0x75, 0x3B, 0x73, 0x65, 0x71, 0x75, 0x65, 0x6E, 0x74, 0x69, 0x61, 0x6C, 0x2F, 0x73, 0x65, 0x70, 0x61, 0x72, 0x61, 0x62, 0x6C, 0x65, 0x5F, 0x63, 0x6F, 0x6E, 0x76, 0x32, 0x64, 0x5F, 0x32, 0x5F, 0x6F, 0x72, 0x69, 0x67, 0x2F, 0x42, 0x69, 0x61, 0x73, 0x41, 0x64, 0x64, 0x3B, 0x73, 0x65, 0x71, 0x75, 0x65, 0x6E, 0x74, 0x69, 0x61, 0x6C, 0x2F, 0x73, 0x65, 0x70, 0x61, 0x72, 0x61, 0x62, 0x6C, 0x65, 0x5F, 0x63, 0x6F, 0x6E, 0x76, 0x32, 0x64, 0x5F, 0x32, 0x5F, 0x6F, 0x72, 0x69, 0x67, 0x2F, 0x73, 0x65, 0x70, 0x61, 0x72, 0x61, 0x62, 0x6C, 0x65, 0x5F, 0x63, 0x6F, 0x6E, 0x76, 0x32, 0x64, 0x3B, 0x73, 0x65, 0x71, 0x75, 0x65, 0x6E, 0x74, 0x69, 0x61, 0x6C, 0x2F, 0x73, 0x65, 0x70, 0x61, 0x72, 0x61, 0x62, 0x6C, 0x65, 0x5F, 0x63, 0x6F, 0x6E, 0x76, 0x32, 0x64, 0x5F, 0x32, 0x5F, 0x6F, 0x72, 0x69, 0x67, 0x2F, 0x42, 0x69, 0x61, 0x73, 0x41, 0x64, 0x64, 0x2F, 0x52, 0x65, 0x61, 0x64, 0x56, 0x61, 0x72, 0x69, 0x61, 0x62, 0x6C, 0x65, 0x4F, 0x70, 0x2F, 0x72, 0x65, 0x73, 0x6F, 0x75, 0x72, 0x63, 0x65, 0x00, 0x00, 0x00, 0x04, 0x00, 0x00, 0x00, 0x01, 0x00, 0x00, 0x00, 0x10, 0x00, 0x00, 0x00, 0x07, 0x00, 0x00, 0x00, 0x20, 0x00, 0x00, 0x00, 0x60, 0xDA, 0xFF, 0xFF, 0x18, 0x00, 0x00, 0x00, 0x28, 0x00, 0x00, 0x00, 0x44, 0x00, 0x00, 0x00, 0x2D, 0x00, 0x00, 0x00, 0x00, 0x00, 0x00, 0x09, 0x7C, 0x00, 0x00, 0x00, 0x04, 0x00, 0x00, 0x00, 0xFF, 0xFF, 0xFF, 0xFF, 0x10, 0x00, 0x00, 0x00, 0x07, 0x00, 0x00, 0x00, 0x10, 0x00, 0x00, 0x00, 0x4C, 0xDA, 0xFF, 0xFF, 0x08, 0x00, 0x00, 0x00, 0x10, 0x00, 0x00, 0x00, 0x01, 0x00, 0x00, 0x00, 0x1D, 0x00, 0x00, 0x00, 0x00, 0x00, 0x00, 0x00, 0x01, 0x00, 0x00, 0x00, 0x99, 0xCA, 0x66, 0x3C, 0x3E, 0x00, 0x00, 0x00, 0x73, 0x65, 0x71, 0x75, 0x65, 0x6E, 0x74, 0x69, 0x61, 0x6C, 0x2F, 0x73, 0x65, 0x70, 0x61, 0x72, 0x61, 0x62, 0x6C, 0x65, 0x5F, 0x63, 0x6F, 0x6E, 0x76, 0x32, 0x64, 0x5F, 0x32, 0x5F, 0x6F, 0x72, 0x69, 0x67, 0x2F, 0x73, 0x65, 0x70, 0x61, 0x72, 0x61, 0x62, 0x6C, 0x65, 0x5F, 0x63, 0x6F, 0x6E, 0x76, 0x32, 0x64, 0x2F, 0x64, 0x65, 0x70, 0x74, 0x68, 0x77, 0x69, 0x73, 0x65, 0x32, 0x00, 0x00, 0x04, 0x00, 0x00, 0x00, 0x01, 0x00, 0x00, 0x00, 0x10, 0x00, 0x00, 0x00, 0x07, 0x00, 0x00, 0x00, 0x10, 0x00, 0x00, 0x00, 0x08, 0xDB, 0xFF, 0xFF, 0x18, 0x00, 0x00, 0x00, 0x28, 0x00, 0x00, 0x00, 0x48, 0x00, 0x00, 0x00, 0x2C, 0x00, 0x00, 0x00, 0x00, 0x00, 0x00, 0x09, 0x44, 0x01, 0x00, 0x00, 0x04, 0x00, 0x00, 0x00, 0xFF, 0xFF, 0xFF, 0xFF, 0x10, 0x00, 0x00, 0x00, 0x07, 0x00, 0x00, 0x00, 0x10, 0x00, 0x00, 0x00, 0xF4, 0xDA, 0xFF, 0xFF, 0x08, 0x00, 0x00, 0x00, 0x14, 0x00, 0x00, 0x00, 0x01, 0x00, 0x00, 0x00, 0x80, 0xFF, 0xFF, 0xFF, 0xFF, 0xFF, 0xFF, 0xFF, 0x00, 0x00, 0x00, 0x00, 0x01, 0x00, 0x00, 0x00, 0xB0, 0x12, 0x67, 0x3C, 0x00, 0x01, 0x00, 0x00, 0x73, 0x65, 0x71, 0x75, 0x65, 0x6E, 0x74, 0x69, 0x61, 0x6C, 0x2F, 0x64, 0x65, 0x70, 0x74, 0x68, 0x77, 0x69, 0x73, 0x65, 0x5F, 0x63, 0x6F, 0x6E, 0x76, 0x32, 0x64, 0x5F, 0x32, 0x5F, 0x6F, 0x72, 0x69, 0x67, 0x2F, 0x52, 0x65, 0x6C, 0x75, 0x3B, 0x73, 0x65, 0x71, 0x75, 0x65, 0x6E, 0x74, 0x69, 0x61, 0x6C, 0x2F, 0x64, 0x65, 0x70, 0x74, 0x68, 0x77, 0x69, 0x73, 0x65, 0x5F, 0x63, 0x6F, 0x6E, 0x76, 0x32, 0x64, 0x5F, 0x32, 0x5F, 0x6F, 0x72, 0x69, 0x67, 0x2F, 0x42, 0x69, 0x61, 0x73, 0x41, 0x64, 0x64, 0x3B, 0x73, 0x65, 0x71, 0x75, 0x65, 0x6E, 0x74, 0x69, 0x61, 0x6C, 0x2F, 0x73, 0x65, 0x70, 0x61, 0x72, 0x61, 0x62, 0x6C, 0x65, 0x5F, 0x63, 0x6F, 0x6E, 0x76, 0x32, 0x64, 0x5F, 0x32, 0x5F, 0x6F, 0x72, 0x69, 0x67, 0x2F, 0x73, 0x65, 0x70, 0x61, 0x72, 0x61, 0x62, 0x6C, 0x65, 0x5F, 0x63, 0x6F, 0x6E, 0x76, 0x32, 0x64, 0x2F, 0x64, 0x65, 0x70, 0x74, 0x68, 0x77, 0x69, 0x73, 0x65, 0x3B, 0x73, 0x65, 0x71, 0x75, 0x65, 0x6E, 0x74, 0x69, 0x61, 0x6C, 0x2F, 0x64, 0x65, 0x70, 0x74, 0x68, 0x77, 0x69, 0x73, 0x65, 0x5F, 0x63, 0x6F, 0x6E, 0x76, 0x32, 0x64, 0x5F, 0x32, 0x5F, 0x6F, 0x72, 0x69, 0x67, 0x2F, 0x64, 0x65, 0x70, 0x74, 0x68, 0x77, 0x69, 0x73, 0x65, 0x3B, 0x73, 0x65, 0x71, 0x75, 0x65, 0x6E, 0x74, 0x69, 0x61, 0x6C, 0x2F, 0x64, 0x65, 0x70, 0x74, 0x68, 0x77, 0x69, 0x73, 0x65, 0x5F, 0x63, 0x6F, 0x6E, 0x76, 0x32, 0x64, 0x5F, 0x32, 0x5F, 0x6F, 0x72, 0x69, 0x67, 0x2F, 0x42, 0x69, 0x61, 0x73, 0x41, 0x64, 0x64, 0x2F, 0x52, 0x65, 0x61, 0x64, 0x56, 0x61, 0x72, 0x69, 0x61, 0x62, 0x6C, 0x65, 0x4F, 0x70, 0x2F, 0x72, 0x65, 0x73, 0x6F, 0x75, 0x72, 0x63, 0x65, 0x00, 0x00, 0x00, 0x00, 0x04, 0x00, 0x00, 0x00, 0x01, 0x00, 0x00, 0x00, 0x10, 0x00, 0x00, 0x00, 0x07, 0x00, 0x00, 0x00, 0x10, 0x00, 0x00, 0x00, 0x78, 0xDC, 0xFF, 0xFF, 0x18, 0x00, 0x00, 0x00, 0x28, 0x00, 0x00, 0x00, 0x44, 0x00, 0x00, 0x00, 0x2B, 0x00, 0x00, 0x00, 0x00, 0x00, 0x00, 0x09, 0x64, 0x00, 0x00, 0x00, 0x04, 0x00, 0x00, 0x00, 0xFF, 0xFF, 0xFF, 0xFF, 0x10, 0x00, 0x00, 0x00, 0x07, 0x00, 0x00, 0x00, 0x10, 0x00, 0x00, 0x00, 0x64, 0xDC, 0xFF, 0xFF, 0x08, 0x00, 0x00, 0x00, 0x10, 0x00, 0x00, 0x00, 0x01, 0x00, 0x00, 0x00, 0xE6, 0xFF, 0xFF, 0xFF, 0xFF, 0xFF, 0xFF, 0xFF, 0x01, 0x00, 0x00, 0x00, 0x0C, 0xFD, 0x89, 0x3C, 0x27, 0x00, 0x00, 0x00, 0x73, 0x65, 0x71, 0x75, 0x65, 0x6E, 0x74, 0x69, 0x61, 0x6C, 0x2F, 0x6D, 0x61, 0x78, 0x5F, 0x70, 0x6F, 0x6F, 0x6C, 0x69, 0x6E, 0x67, 0x32, 0x64, 0x5F, 0x31, 0x5F, 0x6F, 0x72, 0x69, 0x67, 0x2F, 0x4D, 0x61, 0x78, 0x50, 0x6F, 0x6F, 0x6C, 0x00, 0x04, 0x00, 0x00, 0x00, 0x01, 0x00, 0x00, 0x00, 0x10, 0x00, 0x00, 0x00, 0x07, 0x00, 0x00, 0x00, 0x10, 0x00, 0x00, 0x00, 0x08, 0xDD, 0xFF, 0xFF, 0x18, 0x00, 0x00, 0x00, 0x28, 0x00, 0x00, 0x00, 0x44, 0x00, 0x00, 0x00, 0x2A, 0x00, 0x00, 0x00, 0x00, 0x00, 0x00, 0x09, 0x7C, 0x00, 0x00, 0x00, 0x04, 0x00, 0x00, 0x00, 0xFF, 0xFF, 0xFF, 0xFF, 0x20, 0x00, 0x00, 0x00, 0x0F, 0x00, 0x00, 0x00, 0x10, 0x00, 0x00, 0x00, 0xF4, 0xDC, 0xFF, 0xFF, 0x08, 0x00, 0x00, 0x00, 0x10, 0x00, 0x00, 0x00, 0x01, 0x00, 0x00, 0x00, 0xE6, 0xFF, 0xFF, 0xFF, 0xFF, 0xFF, 0xFF, 0xFF, 0x01, 0x00, 0x00, 0x00, 0x0C, 0xFD, 0x89, 0x3C, 0x3D, 0x00, 0x00, 0x00, 0x73, 0x65, 0x71, 0x75, 0x65, 0x6E, 0x74, 0x69, 0x61, 0x6C, 0x2F, 0x71, 0x75, 0x61, 0x6E, 0x74, 0x5F, 0x62, 0x61, 0x74, 0x63, 0x68, 0x5F, 0x6E, 0x6F, 0x72, 0x6D, 0x61, 0x6C, 0x69, 0x7A, 0x61, 0x74, 0x69, 0x6F, 0x6E, 0x5F, 0x31, 0x5F, 0x6F, 0x72, 0x69, 0x67, 0x2F, 0x46, 0x75, 0x73, 0x65, 0x64, 0x42, 0x61, 0x74, 0x63, 0x68, 0x4E, 0x6F, 0x72, 0x6D, 0x56, 0x33, 0x33, 0x00, 0x00, 0x00, 0x04, 0x00, 0x00, 0x00, 0x01, 0x00, 0x00, 0x00, 0x20, 0x00, 0x00, 0x00, 0x0F, 0x00, 0x00, 0x00, 0x10, 0x00, 0x00, 0x00, 0xB0, 0xDD, 0xFF, 0xFF, 0x18, 0x00, 0x00, 0x00, 0x28, 0x00, 0x00, 0x00, 0x44, 0x00, 0x00, 0x00, 0x29, 0x00, 0x00, 0x00, 0x00, 0x00, 0x00, 0x09, 0x7C, 0x00, 0x00, 0x00, 0x04, 0x00, 0x00, 0x00, 0xFF, 0xFF, 0xFF, 0xFF, 0x20, 0x00, 0x00, 0x00, 0x0F, 0x00, 0x00, 0x00, 0x10, 0x00, 0x00, 0x00, 0x9C, 0xDD, 0xFF, 0xFF, 0x08, 0x00, 0x00, 0x00, 0x10, 0x00, 0x00, 0x00, 0x01, 0x00, 0x00, 0x00, 0x80, 0xFF, 0xFF, 0xFF, 0xFF, 0xFF, 0xFF, 0xFF, 0x01, 0x00, 0x00, 0x00, 0xAF, 0xFC, 0xDA, 0x3C, 0x3D, 0x00, 0x00, 0x00, 0x73, 0x65, 0x71, 0x75, 0x65, 0x6E, 0x74, 0x69, 0x61, 0x6C, 0x2F, 0x71, 0x75, 0x61, 0x6E, 0x74, 0x5F, 0x62, 0x61, 0x74, 0x63, 0x68, 0x5F, 0x6E, 0x6F, 0x72, 0x6D, 0x61, 0x6C, 0x69, 0x7A, 0x61, 0x74, 0x69, 0x6F, 0x6E, 0x5F, 0x31, 0x5F, 0x6F, 0x72, 0x69, 0x67, 0x2F, 0x46, 0x75, 0x73, 0x65, 0x64, 0x42, 0x61, 0x74, 0x63, 0x68, 0x4E, 0x6F, 0x72, 0x6D, 0x56, 0x33, 0x32, 0x00, 0x00, 0x00, 0x04, 0x00, 0x00, 0x00, 0x01, 0x00, 0x00, 0x00, 0x20, 0x00, 0x00, 0x00, 0x0F, 0x00, 0x00, 0x00, 0x10, 0x00, 0x00, 0x00, 0x58, 0xDE, 0xFF, 0xFF, 0x18, 0x00, 0x00, 0x00, 0x28, 0x00, 0x00, 0x00, 0x44, 0x00, 0x00, 0x00, 0x28, 0x00, 0x00, 0x00, 0x00, 0x00, 0x00, 0x09, 0x44, 0x01, 0x00, 0x00, 0x04, 0x00, 0x00, 0x00, 0xFF, 0xFF, 0xFF, 0xFF, 0x20, 0x00, 0x00, 0x00, 0x0F, 0x00, 0x00, 0x00, 0x10, 0x00, 0x00, 0x00, 0x44, 0xDE, 0xFF, 0xFF, 0x08, 0x00, 0x00, 0x00, 0x10, 0x00, 0x00, 0x00, 0x01, 0x00, 0x00, 0x00, 0x80, 0xFF, 0xFF, 0xFF, 0xFF, 0xFF, 0xFF, 0xFF, 0x01, 0x00, 0x00, 0x00, 0xEB, 0x64, 0xA6, 0x3B, 0x07, 0x01, 0x00, 0x00, 0x73, 0x65, 0x71, 0x75, 0x65, 0x6E, 0x74, 0x69, 0x61, 0x6C, 0x2F, 0x73, 0x65, 0x70, 0x61, 0x72, 0x61, 0x62, 0x6C, 0x65, 0x5F, 0x63, 0x6F, 0x6E, 0x76, 0x32, 0x64, 0x5F, 0x31, 0x5F, 0x6F, 0x72, 0x69, 0x67, 0x2F, 0x52, 0x65, 0x6C, 0x75, 0x3B, 0x73, 0x65, 0x71, 0x75, 0x65, 0x6E, 0x74, 0x69, 0x61, 0x6C, 0x2F, 0x73, 0x65, 0x70, 0x61, 0x72, 0x61, 0x62, 0x6C, 0x65, 0x5F, 0x63, 0x6F, 0x6E, 0x76, 0x32, 0x64, 0x5F, 0x31, 0x5F, 0x6F, 0x72, 0x69, 0x67, 0x2F, 0x42, 0x69, 0x61, 0x73, 0x41, 0x64, 0x64, 0x3B, 0x73, 0x65, 0x71, 0x75, 0x65, 0x6E, 0x74, 0x69, 0x61, 0x6C, 0x2F, 0x73, 0x65, 0x70, 0x61, 0x72, 0x61, 0x62, 0x6C, 0x65, 0x5F, 0x63, 0x6F, 0x6E, 0x76, 0x32, 0x64, 0x5F, 0x32, 0x5F, 0x6F, 0x72, 0x69, 0x67, 0x2F, 0x73, 0x65, 0x70, 0x61, 0x72, 0x61, 0x62, 0x6C, 0x65, 0x5F, 0x63, 0x6F, 0x6E, 0x76, 0x32, 0x64, 0x2F, 0x64, 0x65, 0x70, 0x74, 0x68, 0x77, 0x69, 0x73, 0x65, 0x3B, 0x73, 0x65, 0x71, 0x75, 0x65, 0x6E, 0x74, 0x69, 0x61, 0x6C, 0x2F, 0x73, 0x65, 0x70, 0x61, 0x72, 0x61, 0x62, 0x6C, 0x65, 0x5F, 0x63, 0x6F, 0x6E, 0x76, 0x32, 0x64, 0x5F, 0x31, 0x5F, 0x6F, 0x72, 0x69, 0x67, 0x2F, 0x73, 0x65, 0x70, 0x61, 0x72, 0x61, 0x62, 0x6C, 0x65, 0x5F, 0x63, 0x6F, 0x6E, 0x76, 0x32, 0x64, 0x3B, 0x73, 0x65, 0x71, 0x75, 0x65, 0x6E, 0x74, 0x69, 0x61, 0x6C, 0x2F, 0x73, 0x65, 0x70, 0x61, 0x72, 0x61, 0x62, 0x6C, 0x65, 0x5F, 0x63, 0x6F, 0x6E, 0x76, 0x32, 0x64, 0x5F, 0x31, 0x5F, 0x6F, 0x72, 0x69, 0x67, 0x2F, 0x42, 0x69, 0x61, 0x73, 0x41, 0x64, 0x64, 0x2F, 0x52, 0x65, 0x61, 0x64, 0x56, 0x61, 0x72, 0x69, 0x61, 0x62, 0x6C, 0x65, 0x4F, 0x70, 0x2F, 0x72, 0x65, 0x73, 0x6F, 0x75, 0x72, 0x63, 0x65, 0x00, 0x04, 0x00, 0x00, 0x00, 0x01, 0x00, 0x00, 0x00, 0x20, 0x00, 0x00, 0x00, 0x0F, 0x00, 0x00, 0x00, 0x10, 0x00, 0x00, 0x00, 0xC8, 0xDF, 0xFF, 0xFF, 0x18, 0x00, 0x00, 0x00, 0x28, 0x00, 0x00, 0x00, 0x44, 0x00, 0x00, 0x00, 0x27, 0x00, 0x00, 0x00, 0x00, 0x00, 0x00, 0x09, 0x7C, 0x00, 0x00, 0x00, 0x04, 0x00, 0x00, 0x00, 0xFF, 0xFF, 0xFF, 0xFF, 0x20, 0x00, 0x00, 0x00, 0x0F, 0x00, 0x00, 0x00, 0x08, 0x00, 0x00, 0x00, 0xB4, 0xDF, 0xFF, 0xFF, 0x08, 0x00, 0x00, 0x00, 0x10, 0x00, 0x00, 0x00, 0x01, 0x00, 0x00, 0x00, 0x06, 0x00, 0x00, 0x00, 0x00, 0x00, 0x00, 0x00, 0x01, 0x00, 0x00, 0x00, 0xEB, 0x58, 0x7D, 0x3B, 0x3E, 0x00, 0x00, 0x00, 0x73, 0x65, 0x71, 0x75, 0x65, 0x6E, 0x74, 0x69, 0x61, 0x6C, 0x2F, 0x73, 0x65, 0x70, 0x61, 0x72, 0x61, 0x62, 0x6C, 0x65, 0x5F, 0x63, 0x6F, 0x6E, 0x76, 0x32, 0x64, 0x5F, 0x31, 0x5F, 0x6F, 0x72, 0x69, 0x67, 0x2F, 0x73, 0x65, 0x70, 0x61, 0x72, 0x61, 0x62, 0x6C, 0x65, 0x5F, 0x63, 0x6F, 0x6E, 0x76, 0x32, 0x64, 0x2F, 0x64, 0x65, 0x70, 0x74, 0x68, 0x77, 0x69, 0x73, 0x65, 0x32, 0x00, 0x00, 0x04, 0x00, 0x00, 0x00, 0x01, 0x00, 0x00, 0x00, 0x20, 0x00, 0x00, 0x00, 0x0F, 0x00, 0x00, 0x00, 0x08, 0x00, 0x00, 0x00, 0x70, 0xE0, 0xFF, 0xFF, 0x18, 0x00, 0x00, 0x00, 0x28, 0x00, 0x00, 0x00, 0x48, 0x00, 0x00, 0x00, 0x26, 0x00, 0x00, 0x00, 0x00, 0x00, 0x00, 0x09, 0x44, 0x01, 0x00, 0x00, 0x04, 0x00, 0x00, 0x00, 0xFF, 0xFF, 0xFF, 0xFF, 0x20, 0x00, 0x00, 0x00, 0x0F, 0x00, 0x00, 0x00, 0x08, 0x00, 0x00, 0x00, 0x5C, 0xE0, 0xFF, 0xFF, 0x08, 0x00, 0x00, 0x00, 0x14, 0x00, 0x00, 0x00, 0x01, 0x00, 0x00, 0x00, 0x80, 0xFF, 0xFF, 0xFF, 0xFF, 0xFF, 0xFF, 0xFF, 0x00, 0x00, 0x00, 0x00, 0x01, 0x00, 0x00, 0x00, 0xA7, 0xC4, 0x37, 0x3B, 0x00, 0x01, 0x00, 0x00, 0x73, 0x65, 0x71, 0x75, 0x65, 0x6E, 0x74, 0x69, 0x61, 0x6C, 0x2F, 0x64, 0x65, 0x70, 0x74, 0x68, 0x77, 0x69, 0x73, 0x65, 0x5F, 0x63, 0x6F, 0x6E, 0x76, 0x32, 0x64, 0x5F, 0x31, 0x5F, 0x6F, 0x72, 0x69, 0x67, 0x2F, 0x52, 0x65, 0x6C, 0x75, 0x3B, 0x73, 0x65, 0x71, 0x75, 0x65, 0x6E, 0x74, 0x69, 0x61, 0x6C, 0x2F, 0x64, 0x65, 0x70, 0x74, 0x68, 0x77, 0x69, 0x73, 0x65, 0x5F, 0x63, 0x6F, 0x6E, 0x76, 0x32, 0x64, 0x5F, 0x31, 0x5F, 0x6F, 0x72, 0x69, 0x67, 0x2F, 0x42, 0x69, 0x61, 0x73, 0x41, 0x64, 0x64, 0x3B, 0x73, 0x65, 0x71, 0x75, 0x65, 0x6E, 0x74, 0x69, 0x61, 0x6C, 0x2F, 0x73, 0x65, 0x70, 0x61, 0x72, 0x61, 0x62, 0x6C, 0x65, 0x5F, 0x63, 0x6F, 0x6E, 0x76, 0x32, 0x64, 0x5F, 0x31, 0x5F, 0x6F, 0x72, 0x69, 0x67, 0x2F, 0x73, 0x65, 0x70, 0x61, 0x72, 0x61, 0x62, 0x6C, 0x65, 0x5F, 0x63, 0x6F, 0x6E, 0x76, 0x32, 0x64, 0x2F, 0x64, 0x65, 0x70, 0x74, 0x68, 0x77, 0x69, 0x73, 0x65, 0x3B, 0x73, 0x65, 0x71, 0x75, 0x65, 0x6E, 0x74, 0x69, 0x61, 0x6C, 0x2F, 0x64, 0x65, 0x70, 0x74, 0x68, 0x77, 0x69, 0x73, 0x65, 0x5F, 0x63, 0x6F, 0x6E, 0x76, 0x32, 0x64, 0x5F, 0x31, 0x5F, 0x6F, 0x72, 0x69, 0x67, 0x2F, 0x64, 0x65, 0x70, 0x74, 0x68, 0x77, 0x69, 0x73, 0x65, 0x3B, 0x73, 0x65, 0x71, 0x75, 0x65, 0x6E, 0x74, 0x69, 0x61, 0x6C, 0x2F, 0x64, 0x65, 0x70, 0x74, 0x68, 0x77, 0x69, 0x73, 0x65, 0x5F, 0x63, 0x6F, 0x6E, 0x76, 0x32, 0x64, 0x5F, 0x31, 0x5F, 0x6F, 0x72, 0x69, 0x67, 0x2F, 0x42, 0x69, 0x61, 0x73, 0x41, 0x64, 0x64, 0x2F, 0x52, 0x65, 0x61, 0x64, 0x56, 0x61, 0x72, 0x69, 0x61, 0x62, 0x6C, 0x65, 0x4F, 0x70, 0x2F, 0x72, 0x65, 0x73, 0x6F, 0x75, 0x72, 0x63, 0x65, 0x00, 0x00, 0x00, 0x00, 0x04, 0x00, 0x00, 0x00, 0x01, 0x00, 0x00, 0x00, 0x20, 0x00, 0x00, 0x00, 0x0F, 0x00, 0x00, 0x00, 0x08, 0x00, 0x00, 0x00, 0xE0, 0xE1, 0xFF, 0xFF, 0x18, 0x00, 0x00, 0x00, 0x28, 0x00, 0x00, 0x00, 0x44, 0x00, 0x00, 0x00, 0x25, 0x00, 0x00, 0x00, 0x00, 0x00, 0x00, 0x09, 0x64, 0x00, 0x00, 0x00, 0x04, 0x00, 0x00, 0x00, 0xFF, 0xFF, 0xFF, 0xFF, 0x20, 0x00, 0x00, 0x00, 0x0F, 0x00, 0x00, 0x00, 0x08, 0x00, 0x00, 0x00, 0xCC, 0xE1, 0xFF, 0xFF, 0x08, 0x00, 0x00, 0x00, 0x10, 0x00, 0x00, 0x00, 0x01, 0x00, 0x00, 0x00, 0xD7, 0xFF, 0xFF, 0xFF, 0xFF, 0xFF, 0xFF, 0xFF, 0x01, 0x00, 0x00, 0x00, 0xA5, 0x54, 0x94, 0x3B, 0x25, 0x00, 0x00, 0x00, 0x73, 0x65, 0x71, 0x75, 0x65, 0x6E, 0x74, 0x69, 0x61, 0x6C, 0x2F, 0x6D, 0x61, 0x78, 0x5F, 0x70, 0x6F, 0x6F, 0x6C, 0x69, 0x6E, 0x67, 0x32, 0x64, 0x5F, 0x6F, 0x72, 0x69, 0x67, 0x2F, 0x4D, 0x61, 0x78, 0x50, 0x6F, 0x6F, 0x6C, 0x00, 0x00, 0x00, 0x04, 0x00, 0x00, 0x00, 0x01, 0x00, 0x00, 0x00, 0x20, 0x00, 0x00, 0x00, 0x0F, 0x00, 0x00, 0x00, 0x08, 0x00, 0x00, 0x00, 0x70, 0xE2, 0xFF, 0xFF, 0x18, 0x00, 0x00, 0x00, 0x28, 0x00, 0x00, 0x00, 0x48, 0x00, 0x00, 0x00, 0x24, 0x00, 0x00, 0x00, 0x00, 0x00, 0x00, 0x09, 0x7C, 0x00, 0x00, 0x00, 0x04, 0x00, 0x00, 0x00, 0xFF, 0xFF, 0xFF, 0xFF, 0x40, 0x00, 0x00, 0x00, 0x1E, 0x00, 0x00, 0x00, 0x08, 0x00, 0x00, 0x00, 0x5C, 0xE2, 0xFF, 0xFF, 0x08, 0x00, 0x00, 0x00, 0x14, 0x00, 0x00, 0x00, 0x01, 0x00, 0x00, 0x00, 0xD7, 0xFF, 0xFF, 0xFF, 0xFF, 0xFF, 0xFF, 0xFF, 0x00, 0x00, 0x00, 0x00, 0x01, 0x00, 0x00, 0x00, 0xA5, 0x54, 0x94, 0x3B, 0x3B, 0x00, 0x00, 0x00, 0x73, 0x65, 0x71, 0x75, 0x65, 0x6E, 0x74, 0x69, 0x61, 0x6C, 0x2F, 0x71, 0x75, 0x61, 0x6E, 0x74, 0x5F, 0x62, 0x61, 0x74, 0x63, 0x68, 0x5F, 0x6E, 0x6F, 0x72, 0x6D, 0x61, 0x6C, 0x69, 0x7A, 0x61, 0x74, 0x69, 0x6F, 0x6E, 0x5F, 0x6F, 0x72, 0x69, 0x67, 0x2F, 0x46, 0x75, 0x73, 0x65, 0x64, 0x42, 0x61, 0x74, 0x63, 0x68, 0x4E, 0x6F, 0x72, 0x6D, 0x56, 0x33, 0x33, 0x00, 0x04, 0x00, 0x00, 0x00, 0x01, 0x00, 0x00, 0x00, 0x40, 0x00, 0x00, 0x00, 0x1E, 0x00, 0x00, 0x00, 0x08, 0x00, 0x00, 0x00, 0x18, 0xE3, 0xFF, 0xFF, 0x18, 0x00, 0x00, 0x00, 0x28, 0x00, 0x00, 0x00, 0x48, 0x00, 0x00, 0x00, 0x23, 0x00, 0x00, 0x00, 0x00, 0x00, 0x00, 0x09, 0x7C, 0x00, 0x00, 0x00, 0x04, 0x00, 0x00, 0x00, 0xFF, 0xFF, 0xFF, 0xFF, 0x40, 0x00, 0x00, 0x00, 0x1E, 0x00, 0x00, 0x00, 0x08, 0x00, 0x00, 0x00, 0x04, 0xE3, 0xFF, 0xFF, 0x08, 0x00, 0x00, 0x00, 0x14, 0x00, 0x00, 0x00, 0x01, 0x00, 0x00, 0x00, 0x80, 0xFF, 0xFF, 0xFF, 0xFF, 0xFF, 0xFF, 0xFF, 0x00, 0x00, 0x00, 0x00, 0x01, 0x00, 0x00, 0x00, 0x14, 0xB6, 0xA4, 0x3B, 0x3B, 0x00, 0x00, 0x00, 0x73, 0x65, 0x71, 0x75, 0x65, 0x6E, 0x74, 0x69, 0x61, 0x6C, 0x2F, 0x71, 0x75, 0x61, 0x6E, 0x74, 0x5F, 0x62, 0x61, 0x74, 0x63, 0x68, 0x5F, 0x6E, 0x6F, 0x72, 0x6D, 0x61, 0x6C, 0x69, 0x7A, 0x61, 0x74, 0x69, 0x6F, 0x6E, 0x5F, 0x6F, 0x72, 0x69, 0x67, 0x2F, 0x46, 0x75, 0x73, 0x65, 0x64, 0x42, 0x61, 0x74, 0x63, 0x68, 0x4E, 0x6F, 0x72, 0x6D, 0x56, 0x33, 0x32, 0x00, 0x04, 0x00, 0x00, 0x00, 0x01, 0x00, 0x00, 0x00, 0x40, 0x00, 0x00, 0x00, 0x1E, 0x00, 0x00, 0x00, 0x08, 0x00, 0x00, 0x00, 0xC0, 0xE3, 0xFF, 0xFF, 0x18, 0x00, 0x00, 0x00, 0x28, 0x00, 0x00, 0x00, 0x44, 0x00, 0x00, 0x00, 0x22, 0x00, 0x00, 0x00, 0x00, 0x00, 0x00, 0x09, 0x3C, 0x01, 0x00, 0x00, 0x04, 0x00, 0x00, 0x00, 0xFF, 0xFF, 0xFF, 0xFF, 0x40, 0x00, 0x00, 0x00, 0x1E, 0x00, 0x00, 0x00, 0x08, 0x00, 0x00, 0x00, 0xAC, 0xE3, 0xFF, 0xFF, 0x08, 0x00, 0x00, 0x00, 0x10, 0x00, 0x00, 0x00, 0x01, 0x00, 0x00, 0x00, 0x80, 0xFF, 0xFF, 0xFF, 0xFF, 0xFF, 0xFF, 0xFF, 0x01, 0x00, 0x00, 0x00, 0x64, 0x2B, 0x3D, 0x3B, 0xFF, 0x00, 0x00, 0x00, 0x73, 0x65, 0x71, 0x75, 0x65, 0x6E, 0x74, 0x69, 0x61, 0x6C, 0x2F, 0x73, 0x65, 0x70, 0x61, 0x72, 0x61, 0x62, 0x6C, 0x65, 0x5F, 0x63, 0x6F, 0x6E, 0x76, 0x32, 0x64, 0x5F, 0x6F, 0x72, 0x69, 0x67, 0x2F, 0x52, 0x65, 0x6C, 0x75, 0x3B, 0x73, 0x65, 0x71, 0x75, 0x65, 0x6E, 0x74, 0x69, 0x61, 0x6C, 0x2F, 0x73, 0x65, 0x70, 0x61, 0x72, 0x61, 0x62, 0x6C, 0x65, 0x5F, 0x63, 0x6F, 0x6E, 0x76, 0x32, 0x64, 0x5F, 0x6F, 0x72, 0x69, 0x67, 0x2F, 0x42, 0x69, 0x61, 0x73, 0x41, 0x64, 0x64, 0x3B, 0x73, 0x65, 0x71, 0x75, 0x65, 0x6E, 0x74, 0x69, 0x61, 0x6C, 0x2F, 0x73, 0x65, 0x70, 0x61, 0x72, 0x61, 0x62, 0x6C, 0x65, 0x5F, 0x63, 0x6F, 0x6E, 0x76, 0x32, 0x64, 0x5F, 0x31, 0x5F, 0x6F, 0x72, 0x69, 0x67, 0x2F, 0x73, 0x65, 0x70, 0x61, 0x72, 0x61, 0x62, 0x6C, 0x65, 0x5F, 0x63, 0x6F, 0x6E, 0x76, 0x32, 0x64, 0x2F, 0x64, 0x65, 0x70, 0x74, 0x68, 0x77, 0x69, 0x73, 0x65, 0x3B, 0x73, 0x65, 0x71, 0x75, 0x65, 0x6E, 0x74, 0x69, 0x61, 0x6C, 0x2F, 0x73, 0x65, 0x70, 0x61, 0x72, 0x61, 0x62, 0x6C, 0x65, 0x5F, 0x63, 0x6F, 0x6E, 0x76, 0x32, 0x64, 0x5F, 0x6F, 0x72, 0x69, 0x67, 0x2F, 0x73, 0x65, 0x70, 0x61, 0x72, 0x61, 0x62, 0x6C, 0x65, 0x5F, 0x63, 0x6F, 0x6E, 0x76, 0x32, 0x64, 0x3B, 0x73, 0x65, 0x71, 0x75, 0x65, 0x6E, 0x74, 0x69, 0x61, 0x6C, 0x2F, 0x73, 0x65, 0x70, 0x61, 0x72, 0x61, 0x62, 0x6C, 0x65, 0x5F, 0x63, 0x6F, 0x6E, 0x76, 0x32, 0x64, 0x5F, 0x6F, 0x72, 0x69, 0x67, 0x2F, 0x42, 0x69, 0x61, 0x73, 0x41, 0x64, 0x64, 0x2F, 0x52, 0x65, 0x61, 0x64, 0x56, 0x61, 0x72, 0x69, 0x61, 0x62, 0x6C, 0x65, 0x4F, 0x70, 0x2F, 0x72, 0x65, 0x73, 0x6F, 0x75, 0x72, 0x63, 0x65, 0x00, 0x04, 0x00, 0x00, 0x00, 0x01, 0x00, 0x00, 0x00, 0x40, 0x00, 0x00, 0x00, 0x1E, 0x00, 0x00, 0x00, 0x08, 0x00, 0x00, 0x00, 0x28, 0xE5, 0xFF, 0xFF, 0x18, 0x00, 0x00, 0x00, 0x28, 0x00, 0x00, 0x00, 0x44, 0x00, 0x00, 0x00, 0x21, 0x00, 0x00, 0x00, 0x00, 0x00, 0x00, 0x09, 0x7C, 0x00, 0x00, 0x00, 0x04, 0x00, 0x00, 0x00, 0xFF, 0xFF, 0xFF, 0xFF, 0x40, 0x00, 0x00, 0x00, 0x1E, 0x00, 0x00, 0x00, 0x01, 0x00, 0x00, 0x00, 0x14, 0xE5, 0xFF, 0xFF, 0x08, 0x00, 0x00, 0x00, 0x10, 0x00, 0x00, 0x00, 0x01, 0x00, 0x00, 0x00, 0x80, 0xFF, 0xFF, 0xFF, 0xFF, 0xFF, 0xFF, 0xFF, 0x01, 0x00, 0x00, 0x00, 0x83, 0xEA, 0x97, 0x3C, 0x3C, 0x00, 0x00, 0x00, 0x73, 0x65, 0x71, 0x75, 0x65, 0x6E, 0x74, 0x69, 0x61, 0x6C, 0x2F, 0x73, 0x65, 0x70, 0x61, 0x72, 0x61, 0x62, 0x6C, 0x65, 0x5F, 0x63, 0x6F, 0x6E, 0x76, 0x32, 0x64, 0x5F, 0x6F, 0x72, 0x69, 0x67, 0x2F, 0x73, 0x65, 0x70, 0x61, 0x72, 0x61, 0x62, 0x6C, 0x65, 0x5F, 0x63, 0x6F, 0x6E, 0x76, 0x32, 0x64, 0x2F, 0x64, 0x65, 0x70, 0x74, 0x68, 0x77, 0x69, 0x73, 0x65, 0x31, 0x00, 0x00, 0x00, 0x00, 0x04, 0x00, 0x00, 0x00, 0x01, 0x00, 0x00, 0x00, 0x40, 0x00, 0x00, 0x00, 0x1E, 0x00, 0x00, 0x00, 0x01, 0x00, 0x00, 0x00, 0xD0, 0xE5, 0xFF, 0xFF, 0x18, 0x00, 0x00, 0x00, 0x28, 0x00, 0x00, 0x00, 0x44, 0x00, 0x00, 0x00, 0x20, 0x00, 0x00, 0x00, 0x00, 0x00, 0x00, 0x09, 0x34, 0x01, 0x00, 0x00, 0x04, 0x00, 0x00, 0x00, 0xFF, 0xFF, 0xFF, 0xFF, 0x40, 0x00, 0x00, 0x00, 0x1E, 0x00, 0x00, 0x00, 0x01, 0x00, 0x00, 0x00, 0xBC, 0xE5, 0xFF, 0xFF, 0x08, 0x00, 0x00, 0x00, 0x10, 0x00, 0x00, 0x00, 0x01, 0x00, 0x00, 0x00, 0x80, 0xFF, 0xFF, 0xFF, 0xFF, 0xFF, 0xFF, 0xFF, 0x01, 0x00, 0x00, 0x00, 0xFC, 0x49, 0xAC, 0x3C, 0xF6, 0x00, 0x00, 0x00, 0x73, 0x65, 0x71, 0x75, 0x65, 0x6E, 0x74, 0x69, 0x61, 0x6C, 0x2F, 0x64, 0x65, 0x70, 0x74, 0x68, 0x77, 0x69, 0x73, 0x65, 0x5F, 0x63, 0x6F, 0x6E, 0x76, 0x32, 0x64, 0x5F, 0x6F, 0x72, 0x69, 0x67, 0x2F, 0x52, 0x65, 0x6C, 0x75, 0x3B, 0x73, 0x65, 0x71, 0x75, 0x65, 0x6E, 0x74, 0x69, 0x61, 0x6C, 0x2F, 0x64, 0x65, 0x70, 0x74, 0x68, 0x77, 0x69, 0x73, 0x65, 0x5F, 0x63, 0x6F, 0x6E, 0x76, 0x32, 0x64, 0x5F, 0x6F, 0x72, 0x69, 0x67, 0x2F, 0x42, 0x69, 0x61, 0x73, 0x41, 0x64, 0x64, 0x3B, 0x73, 0x65, 0x71, 0x75, 0x65, 0x6E, 0x74, 0x69, 0x61, 0x6C, 0x2F, 0x73, 0x65, 0x70, 0x61, 0x72, 0x61, 0x62, 0x6C, 0x65, 0x5F, 0x63, 0x6F, 0x6E, 0x76, 0x32, 0x64, 0x5F, 0x6F, 0x72, 0x69, 0x67, 0x2F, 0x73, 0x65, 0x70, 0x61, 0x72, 0x61, 0x62, 0x6C, 0x65, 0x5F, 0x63, 0x6F, 0x6E, 0x76, 0x32, 0x64, 0x2F, 0x64, 0x65, 0x70, 0x74, 0x68, 0x77, 0x69, 0x73, 0x65, 0x3B, 0x73, 0x65, 0x71, 0x75, 0x65, 0x6E, 0x74, 0x69, 0x61, 0x6C, 0x2F, 0x64, 0x65, 0x70, 0x74, 0x68, 0x77, 0x69, 0x73, 0x65, 0x5F, 0x63, 0x6F, 0x6E, 0x76, 0x32, 0x64, 0x5F, 0x6F, 0x72, 0x69, 0x67, 0x2F, 0x64, 0x65, 0x70, 0x74, 0x68, 0x77, 0x69, 0x73, 0x65, 0x3B, 0x73, 0x65, 0x71, 0x75, 0x65, 0x6E, 0x74, 0x69, 0x61, 0x6C, 0x2F, 0x64, 0x65, 0x70, 0x74, 0x68, 0x77, 0x69, 0x73, 0x65, 0x5F, 0x63, 0x6F, 0x6E, 0x76, 0x32, 0x64, 0x5F, 0x6F, 0x72, 0x69, 0x67, 0x2F, 0x42, 0x69, 0x61, 0x73, 0x41, 0x64, 0x64, 0x2F, 0x52, 0x65, 0x61, 0x64, 0x56, 0x61, 0x72, 0x69, 0x61, 0x62, 0x6C, 0x65, 0x4F, 0x70, 0x2F, 0x72, 0x65, 0x73, 0x6F, 0x75, 0x72, 0x63, 0x65, 0x00, 0x00, 0x04, 0x00, 0x00, 0x00, 0x01, 0x00, 0x00, 0x00, 0x40, 0x00, 0x00, 0x00, 0x1E, 0x00, 0x00, 0x00, 0x01, 0x00, 0x00, 0x00, 0x30, 0xE7, 0xFF, 0xFF, 0x18, 0x00, 0x00, 0x00, 0x28, 0x00, 0x00, 0x00, 0x44, 0x00, 0x00, 0x00, 0x1F, 0x00, 0x00, 0x00, 0x00, 0x00, 0x00, 0x09, 0x4C, 0x00, 0x00, 0x00, 0x04, 0x00, 0x00, 0x00, 0xFF, 0xFF, 0xFF, 0xFF, 0x40, 0x00, 0x00, 0x00, 0x1E, 0x00, 0x00, 0x00, 0x01, 0x00, 0x00, 0x00, 0x1C, 0xE7, 0xFF, 0xFF, 0x08, 0x00, 0x00, 0x00, 0x10, 0x00, 0x00, 0x00, 0x01, 0x00, 0x00, 0x00, 0x80, 0xFF, 0xFF, 0xFF, 0xFF, 0xFF, 0xFF, 0xFF, 0x01, 0x00, 0x00, 0x00, 0x81, 0x80, 0x80, 0x3B, 0x0C, 0x00, 0x00, 0x00, 0x74, 0x66, 0x6C, 0x2E, 0x71, 0x75, 0x61, 0x6E, 0x74, 0x69, 0x7A, 0x65, 0x00, 0x00, 0x00, 0x00, 0x04, 0x00, 0x00, 0x00, 0x01, 0x00, 0x00, 0x00, 0x40, 0x00, 0x00, 0x00, 0x1E, 0x00, 0x00, 0x00, 0x01, 0x00, 0x00, 0x00, 0x22, 0xE8, 0xFF, 0xFF, 0x14, 0x00, 0x00, 0x00, 0x34, 0x00, 0x00, 0x00, 0x1E, 0x00, 0x00, 0x00, 0x00, 0x00, 0x00, 0x02, 0x64, 0x00, 0x00, 0x00, 0x7C, 0xE7, 0xFF, 0xFF, 0x08, 0x00, 0x00, 0x00, 0x14, 0x00, 0x00, 0x00, 0x01, 0x00, 0x00, 0x00, 0x00, 0x00, 0x00, 0x00, 0x00, 0x00, 0x00, 0x00, 0x00, 0x00, 0x00, 0x00, 0x01, 0x00, 0x00, 0x00, 0xFC, 0x82, 0x5D, 0x39, 0x37, 0x00, 0x00, 0x00, 0x73, 0x65, 0x71, 0x75, 0x65, 0x6E, 0x74, 0x69, 0x61, 0x6C, 0x2F, 0x64, 0x65, 0x6E, 0x73, 0x65, 0x5F, 0x31, 0x5F, 0x6F, 0x72, 0x69, 0x67, 0x2F, 0x42, 0x69, 0x61, 0x73, 0x41, 0x64, 0x64, 0x2F, 0x52, 0x65, 0x61, 0x64, 0x56, 0x61, 0x72, 0x69, 0x61, 0x62, 0x6C, 0x65, 0x4F, 0x70, 0x2F, 0x72, 0x65, 0x73, 0x6F, 0x75, 0x72, 0x63, 0x65, 0x00, 0x01, 0x00, 0x00, 0x00, 0x06, 0x00, 0x00, 0x00, 0xA2, 0xE8, 0xFF, 0xFF, 0x14, 0x00, 0x00, 0x00, 0x30, 0x00, 0x00, 0x00, 0x1D, 0x00, 0x00, 0x00, 0x00, 0x00, 0x00, 0x09, 0x48, 0x00, 0x00, 0x00, 0xFC, 0xE7, 0xFF, 0xFF, 0x08, 0x00, 0x00, 0x00, 0x10, 0x00, 0x00, 0x00, 0x01, 0x00, 0x00, 0x00, 0x00, 0x00, 0x00, 0x00, 0x00, 0x00, 0x00, 0x00, 0x01, 0x00, 0x00, 0x00, 0x96, 0x17, 0x36, 0x3D, 0x1E, 0x00, 0x00, 0x00, 0x73, 0x65, 0x71, 0x75, 0x65, 0x6E, 0x74, 0x69, 0x61, 0x6C, 0x2F, 0x64, 0x65, 0x6E, 0x73, 0x65, 0x5F, 0x31, 0x5F, 0x6F, 0x72, 0x69, 0x67, 0x2F, 0x4D, 0x61, 0x74, 0x4D, 0x75, 0x6C, 0x00, 0x00, 0x02, 0x00, 0x00, 0x00, 0x06, 0x00, 0x00, 0x00, 0x20, 0x00, 0x00, 0x00, 0x0A, 0xE9, 0xFF, 0xFF, 0x14, 0x00, 0x00, 0x00, 0x34, 0x00, 0x00, 0x00, 0x1C, 0x00, 0x00, 0x00, 0x00, 0x00, 0x00, 0x02, 0x64, 0x00, 0x00, 0x00, 0x64, 0xE8, 0xFF, 0xFF, 0x08, 0x00, 0x00, 0x00, 0x14, 0x00, 0x00, 0x00, 0x01, 0x00, 0x00, 0x00, 0x00, 0x00, 0x00, 0x00, 0x00, 0x00, 0x00, 0x00, 0x00, 0x00, 0x00, 0x00, 0x01, 0x00, 0x00, 0x00, 0xD0, 0x78, 0xB5, 0x38, 0x35, 0x00, 0x00, 0x00, 0x73, 0x65, 0x71, 0x75, 0x65, 0x6E, 0x74, 0x69, 0x61, 0x6C, 0x2F, 0x64, 0x65, 0x6E, 0x73, 0x65, 0x5F, 0x6F, 0x72, 0x69, 0x67, 0x2F, 0x42, 0x69, 0x61, 0x73, 0x41, 0x64, 0x64, 0x2F, 0x52, 0x65, 0x61, 0x64, 0x56, 0x61, 0x72, 0x69, 0x61, 0x62, 0x6C, 0x65, 0x4F, 0x70, 0x2F, 0x72, 0x65, 0x73, 0x6F, 0x75, 0x72, 0x63, 0x65, 0x00, 0x00, 0x00, 0x01, 0x00, 0x00, 0x00, 0x20, 0x00, 0x00, 0x00, 0x8A, 0xE9, 0xFF, 0xFF, 0x14, 0x00, 0x00, 0x00, 0x30, 0x00, 0x00, 0x00, 0x1B, 0x00, 0x00, 0x00, 0x00, 0x00, 0x00, 0x09, 0x48, 0x00, 0x00, 0x00, 0xE4, 0xE8, 0xFF, 0xFF, 0x08, 0x00, 0x00, 0x00, 0x10, 0x00, 0x00, 0x00, 0x01, 0x00, 0x00, 0x00, 0x00, 0x00, 0x00, 0x00, 0x00, 0x00, 0x00, 0x00, 0x01, 0x00, 0x00, 0x00, 0x54, 0xC0, 0x5D, 0x3C, 0x1C, 0x00, 0x00, 0x00, 0x73, 0x65, 0x71, 0x75, 0x65, 0x6E, 0x74, 0x69, 0x61, 0x6C, 0x2F, 0x64, 0x65, 0x6E, 0x73, 0x65, 0x5F, 0x6F, 0x72, 0x69, 0x67, 0x2F, 0x4D, 0x61, 0x74, 0x4D, 0x75, 0x6C, 0x00, 0x00, 0x00, 0x00, 0x02, 0x00, 0x00, 0x00, 0x20, 0x00, 0x00, 0x00, 0x20, 0x00, 0x00, 0x00, 0xF2, 0xE9, 0xFF, 0xFF, 0x14, 0x00, 0x00, 0x00, 0x34, 0x00, 0x00, 0x00, 0x1A, 0x00, 0x00, 0x00, 0x00, 0x00, 0x00, 0x09, 0x6C, 0x00, 0x00, 0x00, 0x4C, 0xE9, 0xFF, 0xFF, 0x08, 0x00, 0x00, 0x00, 0x14, 0x00, 0x00, 0x00, 0x01, 0x00, 0x00, 0x00, 0x7F, 0x00, 0x00, 0x00, 0x00, 0x00, 0x00, 0x00, 0x00, 0x00, 0x00, 0x00, 0x01, 0x00, 0x00, 0x00, 0xFE, 0xFE, 0x64, 0x3C, 0x3C, 0x00, 0x00, 0x00, 0x73, 0x65, 0x71, 0x75, 0x65, 0x6E, 0x74, 0x69, 0x61, 0x6C, 0x2F, 0x71, 0x75, 0x61, 0x6E, 0x74, 0x5F, 0x62, 0x61, 0x74, 0x63, 0x68, 0x5F, 0x6E, 0x6F, 0x72, 0x6D, 0x61, 0x6C, 0x69, 0x7A, 0x61, 0x74, 0x69, 0x6F, 0x6E, 0x5F, 0x32, 0x5F, 0x6F, 0x72, 0x69, 0x67, 0x2F, 0x46, 0x75, 0x73, 0x65, 0x64, 0x42, 0x61, 0x74, 0x63, 0x68, 0x4E, 0x6F, 0x72, 0x6D, 0x56, 0x33, 0x00, 0x00, 0x00, 0x00, 0x01, 0x00, 0x00, 0x00, 0x20, 0x00, 0x00, 0x00, 0x7A, 0xEA, 0xFF, 0xFF, 0x14, 0x00, 0x00, 0x00, 0x34, 0x00, 0x00, 0x00, 0x19, 0x00, 0x00, 0x00, 0x00, 0x00, 0x00, 0x09, 0x6C, 0x00, 0x00, 0x00, 0xD4, 0xE9, 0xFF, 0xFF, 0x08, 0x00, 0x00, 0x00, 0x14, 0x00, 0x00, 0x00, 0x01, 0x00, 0x00, 0x00, 0x80, 0xFF, 0xFF, 0xFF, 0xFF, 0xFF, 0xFF, 0xFF, 0x00, 0x00, 0x00, 0x00, 0x01, 0x00, 0x00, 0x00, 0xD8, 0x52, 0x64, 0x3E, 0x3D, 0x00, 0x00, 0x00, 0x73, 0x65, 0x71, 0x75, 0x65, 0x6E, 0x74, 0x69, 0x61, 0x6C, 0x2F, 0x71, 0x75, 0x61, 0x6E, 0x74, 0x5F, 0x62, 0x61, 0x74, 0x63, 0x68, 0x5F, 0x6E, 0x6F, 0x72, 0x6D, 0x61, 0x6C, 0x69, 0x7A, 0x61, 0x74, 0x69, 0x6F, 0x6E, 0x5F, 0x32, 0x5F, 0x6F, 0x72, 0x69, 0x67, 0x2F, 0x46, 0x75, 0x73, 0x65, 0x64, 0x42, 0x61, 0x74, 0x63, 0x68, 0x4E, 0x6F, 0x72, 0x6D, 0x56, 0x33, 0x31, 0x00, 0x00, 0x00, 0x01, 0x00, 0x00, 0x00, 0x20, 0x00, 0x00, 0x00, 0x02, 0xEB, 0xFF, 0xFF, 0x14, 0x00, 0x00, 0x00, 0xA8, 0x01, 0x00, 0x00, 0x18, 0x00, 0x00, 0x00, 0x00, 0x00, 0x00, 0x02, 0xE4, 0x01, 0x00, 0x00, 0x5C, 0xEA, 0xFF, 0xFF, 0x08, 0x00, 0x00, 0x00, 0x0C, 0x01, 0x00, 0x00, 0x20, 0x00, 0x00, 0x00, 0x00, 0x00, 0x00, 0x00, 0x00, 0x00, 0x00, 0x00, 0x00, 0x00, 0x00, 0x00, 0x00, 0x00, 0x00, 0x00, 0x00, 0x00, 0x00, 0x00, 0x00, 0x00, 0x00, 0x00, 0x00, 0x00, 0x00, 0x00, 0x00, 0x00, 0x00, 0x00, 0x00, 0x00, 0x00, 0x00, 0x00, 0x00, 0x00, 0x00, 0x00, 0x00, 0x00, 0x00, 0x00, 0x00, 0x00, 0x00, 0x00, 0x00, 0x00, 0x00, 0x00, 0x00, 0x00, 0x00, 0x00, 0x00, 0x00, 0x00, 0x00, 0x00, 0x00, 0x00, 0x00, 0x00, 0x00, 0x00, 0x00, 0x00, 0x00, 0x00, 0x00, 0x00, 0x00, 0x00, 0x00, 0x00, 0x00, 0x00, 0x00, 0x00, 0x00, 0x00, 0x00, 0x00, 0x00, 0x00, 0x00, 0x00, 0x00, 0x00, 0x00, 0x00, 0x00, 0x00, 0x00, 0x00, 0x00, 0x00, 0x00, 0x00, 0x00, 0x00, 0x00, 0x00, 0x00, 0x00, 0x00, 0x00, 0x00, 0x00, 0x00, 0x00, 0x00, 0x00, 0x00, 0x00, 0x00, 0x00, 0x00, 0x00, 0x00, 0x00, 0x00, 0x00, 0x00, 0x00, 0x00, 0x00, 0x00, 0x00, 0x00, 0x00, 0x00, 0x00, 0x00, 0x00, 0x00, 0x00, 0x00, 0x00, 0x00, 0x00, 0x00, 0x00, 0x00, 0x00, 0x00, 0x00, 0x00, 0x00, 0x00, 0x00, 0x00, 0x00, 0x00, 0x00, 0x00, 0x00, 0x00, 0x00, 0x00, 0x00, 0x00, 0x00, 0x00, 0x00, 0x00, 0x00, 0x00, 0x00, 0x00, 0x00, 0x00, 0x00, 0x00, 0x00, 0x00, 0x00, 0x00, 0x00, 0x00, 0x00, 0x00, 0x00, 0x00, 0x00, 0x00, 0x00, 0x00, 0x00, 0x00, 0x00, 0x00, 0x00, 0x00, 0x00, 0x00, 0x00, 0x00, 0x00, 0x00, 0x00, 0x00, 0x00, 0x00, 0x00, 0x00, 0x00, 0x00, 0x00, 0x00, 0x00, 0x00, 0x00, 0x00, 0x00, 0x00, 0x00, 0x00, 0x00, 0x00, 0x00, 0x00, 0x00, 0x00, 0x00, 0x00, 0x00, 0x00, 0x00, 0x00, 0x00, 0x00, 0x00, 0x00, 0x00, 0x00, 0x00, 0x00, 0x00, 0x00, 0x00, 0x00, 0x00, 0x00, 0x00, 0x00, 0x00, 0x00, 0x00, 0x00, 0x00, 0x00, 0x00, 0x00, 0x00, 0x00, 0x00, 0x20, 0x00, 0x00, 0x00, 0x4A, 0x9D, 0xC3, 0x39, 0x7B, 0x54, 0xAF, 0x38, 0x7C, 0x22, 0xE7, 0x38, 0x0D, 0x86, 0x07, 0x39, 0x08, 0xC7, 0x11, 0x39, 0x37, 0x91, 0x7E, 0x39, 0xD8, 0xF3, 0x8C, 0x38, 0xAB, 0x9C, 0xD3, 0x38, 0xF8, 0x03, 0xA5, 0x39, 0x81, 0x49, 0xE1, 0x38, 0x5F, 0x2A, 0x73, 0x39, 0x76, 0xE8, 0xB0, 0x38, 0x07, 0x07, 0x90, 0x38, 0x02, 0x61, 0xBD, 0x38, 0xDB, 0x01, 0xCD, 0x39, 0xC3, 0x27, 0x86, 0x38, 0x3F, 0xD5, 0x27, 0x39, 0x74, 0x0E, 0xDF, 0x38, 0xC5, 0x5A, 0xCD, 0x38, 0x4A, 0x86, 0xB4, 0x38, 0x4B, 0xDE, 0xC6, 0x38, 0xC0, 0x90, 0x1D, 0x39, 0x58, 0xD7, 0x4E, 0x38, 0x1D, 0xD2, 0xA4, 0x38, 0x9D, 0x44, 0x0B, 0x39, 0xCE, 0x02, 0xC4, 0x38, 0xFA, 0x83, 0x8C, 0x39, 0xA7, 0xA1, 0x25, 0x39, 0xE2, 0xD3, 0xFE, 0x38, 0xA9, 0x19, 0x4E, 0x39, 0x0B, 0xCB, 0xD9, 0x38, 0x34, 0x24, 0x04, 0x39, 0x42, 0x00, 0x00, 0x00, 0x73, 0x65, 0x71, 0x75, 0x65, 0x6E, 0x74, 0x69, 0x61, 0x6C, 0x2F, 0x73, 0x65, 0x70, 0x61, 0x72, 0x61, 0x62, 0x6C, 0x65, 0x5F, 0x63, 0x6F, 0x6E, 0x76, 0x32, 0x64, 0x5F, 0x32, 0x5F, 0x6F, 0x72, 0x69, 0x67, 0x2F, 0x42, 0x69, 0x61, 0x73, 0x41, 0x64, 0x64, 0x2F, 0x52, 0x65, 0x61, 0x64, 0x56, 0x61, 0x72, 0x69, 0x61, 0x62, 0x6C, 0x65, 0x4F, 0x70, 0x2F, 0x72, 0x65, 0x73, 0x6F, 0x75, 0x72, 0x63, 0x65, 0x00, 0x00, 0x01, 0x00, 0x00, 0x00, 0x20, 0x00, 0x00, 0x00, 0x02, 0xED, 0xFF, 0xFF, 0x14, 0x00, 0x00, 0x00, 0xA4, 0x01, 0x00, 0x00, 0x17, 0x00, 0x00, 0x00, 0x00, 0x00, 0x00, 0x09, 0xD0, 0x01, 0x00, 0x00, 0x5C, 0xEC, 0xFF, 0xFF, 0x08, 0x00, 0x00, 0x00, 0x08, 0x01, 0x00, 0x00, 0x20, 0x00, 0x00, 0x00, 0x00, 0x00, 0x00, 0x00, 0x00, 0x00, 0x00, 0x00, 0x00, 0x00, 0x00, 0x00, 0x00, 0x00, 0x00, 0x00, 0x00, 0x00, 0x00, 0x00, 0x00, 0x00, 0x00, 0x00, 0x00, 0x00, 0x00, 0x00, 0x00, 0x00, 0x00, 0x00, 0x00, 0x00, 0x00, 0x00, 0x00, 0x00, 0x00, 0x00, 0x00, 0x00, 0x00, 0x00, 0x00, 0x00, 0x00, 0x00, 0x00, 0x00, 0x00, 0x00, 0x00, 0x00, 0x00, 0x00, 0x00, 0x00, 0x00, 0x00, 0x00, 0x00, 0x00, 0x00, 0x00, 0x00, 0x00, 0x00, 0x00, 0x00, 0x00, 0x00, 0x00, 0x00, 0x00, 0x00, 0x00, 0x00, 0x00, 0x00, 0x00, 0x00, 0x00, 0x00, 0x00, 0x00, 0x00, 0x00, 0x00, 0x00, 0x00, 0x00, 0x00, 0x00, 0x00, 0x00, 0x00, 0x00, 0x00, 0x00, 0x00, 0x00, 0x00, 0x00, 0x00, 0x00, 0x00, 0x00, 0x00, 0x00, 0x00, 0x00, 0x00, 0x00, 0x00, 0x00, 0x00, 0x00, 0x00, 0x00, 0x00, 0x00, 0x00, 0x00, 0x00, 0x00, 0x00, 0x00, 0x00, 0x00, 0x00, 0x00, 0x00, 0x00, 0x00, 0x00, 0x00, 0x00, 0x00, 0x00, 0x00, 0x00, 0x00, 0x00, 0x00, 0x00, 0x00, 0x00, 0x00, 0x00, 0x00, 0x00, 0x00, 0x00, 0x00, 0x00, 0x00, 0x00, 0x00, 0x00, 0x00, 0x00, 0x00, 0x00, 0x00, 0x00, 0x00, 0x00, 0x00, 0x00, 0x00, 0x00, 0x00, 0x00, 0x00, 0x00, 0x00, 0x00, 0x00, 0x00, 0x00, 0x00, 0x00, 0x00, 0x00, 0x00, 0x00, 0x00, 0x00, 0x00, 0x00, 0x00, 0x00, 0x00, 0x00, 0x00, 0x00, 0x00, 0x00, 0x00, 0x00, 0x00, 0x00, 0x00, 0x00, 0x00, 0x00, 0x00, 0x00, 0x00, 0x00, 0x00, 0x00, 0x00, 0x00, 0x00, 0x00, 0x00, 0x00, 0x00, 0x00, 0x00, 0x00, 0x00, 0x00, 0x00, 0x00, 0x00, 0x00, 0x00, 0x00, 0x00, 0x00, 0x00, 0x00, 0x00, 0x00, 0x00, 0x00, 0x00, 0x00, 0x00, 0x00, 0x00, 0x00, 0x00, 0x00, 0x00, 0x00, 0x00, 0x00, 0x00, 0x00, 0x00, 0x00, 0x00, 0x20, 0x00, 0x00, 0x00, 0x12, 0xFB, 0xD8, 0x3C, 0x11, 0x7B, 0xC2, 0x3B, 0xBE, 0x30, 0x00, 0x3C, 0x92, 0x53, 0x16, 0x3C, 0x45, 0xB3, 0x21, 0x3C, 0xB8, 0x2F, 0x8D, 0x3C, 0x2B, 0x59, 0x9C, 0x3B, 0xC6, 0xB9, 0xEA, 0x3B, 0x24, 0x0A, 0xB7, 0x3C, 0xFF, 0xE4, 0xF9, 0x3B, 0xE4, 0xDC, 0x86, 0x3C, 0x2C, 0x3B, 0xC4, 0x3B, 0x55, 0xC2, 0x9F, 0x3B, 0x6F, 0x10, 0xD2, 0x3B, 0x48, 0x66, 0xE3, 0x3C, 0x05, 0xCF, 0x94, 0x3B, 0x34, 0x2A, 0x3A, 0x3C, 0x92, 0x6B, 0xF7, 0x3B, 0xE8, 0xC8, 0xE3, 0x3B, 0x21, 0x3E, 0xC8, 0x3B, 0x0F, 0x97, 0xDC, 0x3B, 0x9A, 0xC6, 0x2E, 0x3C, 0x0C, 0x6F, 0x65, 0x3B, 0xD7, 0xD2, 0xB6, 0x3B, 0xD5, 0x7A, 0x1A, 0x3C, 0xAD, 0x6B, 0xD9, 0x3B, 0x14, 0xDD, 0x9B, 0x3C, 0x0C, 0xB9, 0x37, 0x3C, 0xB2, 0x54, 0x0D, 0x3C, 0xA6, 0x9C, 0x64, 0x3C, 0xFD, 0x94, 0xF1, 0x3B, 0x26, 0x93, 0x12, 0x3C, 0x33, 0x00, 0x00, 0x00, 0x73, 0x65, 0x71, 0x75, 0x65, 0x6E, 0x74, 0x69, 0x61, 0x6C, 0x2F, 0x73, 0x65, 0x70, 0x61, 0x72, 0x61, 0x62, 0x6C, 0x65, 0x5F, 0x63, 0x6F, 0x6E, 0x76, 0x32, 0x64, 0x5F, 0x32, 0x5F, 0x6F, 0x72, 0x69, 0x67, 0x2F, 0x73, 0x65, 0x70, 0x61, 0x72, 0x61, 0x62, 0x6C, 0x65, 0x5F, 0x63, 0x6F, 0x6E, 0x76, 0x32, 0x64, 0x00, 0x04, 0x00, 0x00, 0x00, 0x20, 0x00, 0x00, 0x00, 0x01, 0x00, 0x00, 0x00, 0x01, 0x00, 0x00, 0x00, 0x10, 0x00, 0x00, 0x00, 0xFA, 0xEE, 0xFF, 0xFF, 0x14, 0x00, 0x00, 0x00, 0xE8, 0x00, 0x00, 0x00, 0x16, 0x00, 0x00, 0x00, 0x00, 0x00, 0x00, 0x02, 0x20, 0x01, 0x00, 0x00, 0x54, 0xEE, 0xFF, 0xFF, 0x08, 0x00, 0x00, 0x00, 0x8C, 0x00, 0x00, 0x00, 0x10, 0x00, 0x00, 0x00, 0x00, 0x00, 0x00, 0x00, 0x00, 0x00, 0x00, 0x00, 0x00, 0x00, 0x00, 0x00, 0x00, 0x00, 0x00, 0x00, 0x00, 0x00, 0x00, 0x00, 0x00, 0x00, 0x00, 0x00, 0x00, 0x00, 0x00, 0x00, 0x00, 0x00, 0x00, 0x00, 0x00, 0x00, 0x00, 0x00, 0x00, 0x00, 0x00, 0x00, 0x00, 0x00, 0x00, 0x00, 0x00, 0x00, 0x00, 0x00, 0x00, 0x00, 0x00, 0x00, 0x00, 0x00, 0x00, 0x00, 0x00, 0x00, 0x00, 0x00, 0x00, 0x00, 0x00, 0x00, 0x00, 0x00, 0x00, 0x00, 0x00, 0x00, 0x00, 0x00, 0x00, 0x00, 0x00, 0x00, 0x00, 0x00, 0x00, 0x00, 0x00, 0x00, 0x00, 0x00, 0x00, 0x00, 0x00, 0x00, 0x00, 0x00, 0x00, 0x00, 0x00, 0x00, 0x00, 0x00, 0x00, 0x00, 0x00, 0x00, 0x00, 0x00, 0x00, 0x00, 0x00, 0x00, 0x00, 0x00, 0x00, 0x00, 0x00, 0x00, 0x00, 0x00, 0x00, 0x00, 0x00, 0x00, 0x00, 0x00, 0x00, 0x00, 0x00, 0x00, 0x00, 0x00, 0x00, 0x00, 0x00, 0x00, 0x00, 0x00, 0x10, 0x00, 0x00, 0x00, 0x61, 0x22, 0x60, 0x38, 0x74, 0x9F, 0x11, 0x38, 0x5F, 0xDD, 0x4A, 0x37, 0x01, 0xFE, 0x4D, 0x38, 0xF8, 0xBC, 0x13, 0x38, 0xDE, 0xEA, 0x8E, 0x38, 0x63, 0x0D, 0x8B, 0x38, 0xAB, 0xF7, 0x80, 0x38, 0xEC, 0x84, 0x9A, 0x38, 0x05, 0x98, 0x80, 0x38, 0x4A, 0x6B, 0xFF, 0x34, 0xA9, 0xC4, 0x79, 0x38, 0x36, 0xDB, 0x4C, 0x38, 0x7F, 0xFB, 0x99, 0x38, 0x9F, 0x79, 0x80, 0x38, 0x27, 0xF9, 0x5A, 0x36, 0x3D, 0x00, 0x00, 0x00, 0x73, 0x65, 0x71, 0x75, 0x65, 0x6E, 0x74, 0x69, 0x61, 0x6C, 0x2F, 0x73, 0x65, 0x70, 0x61, 0x72, 0x61, 0x62, 0x6C, 0x65, 0x5F, 0x63, 0x6F, 0x6E, 0x76, 0x32, 0x64, 0x5F, 0x32, 0x5F, 0x6F, 0x72, 0x69, 0x67, 0x2F, 0x73, 0x65, 0x70, 0x61, 0x72, 0x61, 0x62, 0x6C, 0x65, 0x5F, 0x63, 0x6F, 0x6E, 0x76, 0x32, 0x64, 0x2F, 0x64, 0x65, 0x70, 0x74, 0x68, 0x77, 0x69, 0x73, 0x65, 0x00, 0x00, 0x00, 0x01, 0x00, 0x00, 0x00, 0x10, 0x00, 0x00, 0x00, 0x36, 0xF0, 0xFF, 0xFF, 0x14, 0x00, 0x00, 0x00, 0xEC, 0x00, 0x00, 0x00, 0x15, 0x00, 0x00, 0x00, 0x00, 0x00, 0x00, 0x09, 0x24, 0x01, 0x00, 0x00, 0xCA, 0xF0, 0xFF, 0xFF, 0x03, 0x00, 0x00, 0x00, 0x08, 0x00, 0x00, 0x00, 0x8C, 0x00, 0x00, 0x00, 0x10, 0x00, 0x00, 0x00, 0x00, 0x00, 0x00, 0x00, 0x00, 0x00, 0x00, 0x00, 0x00, 0x00, 0x00, 0x00, 0x00, 0x00, 0x00, 0x00, 0x00, 0x00, 0x00, 0x00, 0x00, 0x00, 0x00, 0x00, 0x00, 0x00, 0x00, 0x00, 0x00, 0x00, 0x00, 0x00, 0x00, 0x00, 0x00, 0x00, 0x00, 0x00, 0x00, 0x00, 0x00, 0x00, 0x00, 0x00, 0x00, 0x00, 0x00, 0x00, 0x00, 0x00, 0x00, 0x00, 0x00, 0x00, 0x00, 0x00, 0x00, 0x00, 0x00, 0x00, 0x00, 0x00, 0x00, 0x00, 0x00, 0x00, 0x00, 0x00, 0x00, 0x00, 0x00, 0x00, 0x00, 0x00, 0x00, 0x00, 0x00, 0x00, 0x00, 0x00, 0x00, 0x00, 0x00, 0x00, 0x00, 0x00, 0x00, 0x00, 0x00, 0x00, 0x00, 0x00, 0x00, 0x00, 0x00, 0x00, 0x00, 0x00, 0x00, 0x00, 0x00, 0x00, 0x00, 0x00, 0x00, 0x00, 0x00, 0x00, 0x00, 0x00, 0x00, 0x00, 0x00, 0x00, 0x00, 0x00, 0x00, 0x00, 0x00, 0x00, 0x00, 0x00, 0x00, 0x00, 0x00, 0x00, 0x00, 0x00, 0x00, 0x00, 0x00, 0x00, 0x10, 0x00, 0x00, 0x00, 0x13, 0x50, 0x78, 0x3B, 0xFA, 0x54, 0x21, 0x3B, 0xAF, 0xBF, 0x60, 0x3A, 0xAF, 0x36, 0x64, 0x3B, 0xE8, 0xAC, 0x23, 0x3B, 0xAD, 0x55, 0x9E, 0x3B, 0x75, 0x0D, 0x9A, 0x3B, 0x3C, 0xE1, 0x8E, 0x3B, 0x20, 0x30, 0xAB, 0x3B, 0x44, 0x77, 0x8E, 0x3B, 0x79, 0x7C, 0x0D, 0x38, 0x21, 0x5B, 0x8A, 0x3B, 0x86, 0xF4, 0x62, 0x3B, 0xE0, 0x97, 0xAA, 0x3B, 0x97, 0x55, 0x8E, 0x3B, 0x51, 0x98, 0x72, 0x39, 0x3E, 0x00, 0x00, 0x00, 0x73, 0x65, 0x71, 0x75, 0x65, 0x6E, 0x74, 0x69, 0x61, 0x6C, 0x2F, 0x73, 0x65, 0x70, 0x61, 0x72, 0x61, 0x62, 0x6C, 0x65, 0x5F, 0x63, 0x6F, 0x6E, 0x76, 0x32, 0x64, 0x5F, 0x32, 0x5F, 0x6F, 0x72, 0x69, 0x67, 0x2F, 0x73, 0x65, 0x70, 0x61, 0x72, 0x61, 0x62, 0x6C, 0x65, 0x5F, 0x63, 0x6F, 0x6E, 0x76, 0x32, 0x64, 0x2F, 0x64, 0x65, 0x70, 0x74, 0x68, 0x77, 0x69, 0x73, 0x65, 0x31, 0x00, 0x00, 0x04, 0x00, 0x00, 0x00, 0x01, 0x00, 0x00, 0x00, 0x01, 0x00, 0x00, 0x00, 0x01, 0x00, 0x00, 0x00, 0x10, 0x00, 0x00, 0x00, 0x82, 0xF1, 0xFF, 0xFF, 0x14, 0x00, 0x00, 0x00, 0xE4, 0x00, 0x00, 0x00, 0x14, 0x00, 0x00, 0x00, 0x00, 0x00, 0x00, 0x02, 0x20, 0x01, 0x00, 0x00, 0xDC, 0xF0, 0xFF, 0xFF, 0x08, 0x00, 0x00, 0x00, 0x88, 0x00, 0x00, 0x00, 0x10, 0x00, 0x00, 0x00, 0x00, 0x00, 0x00, 0x00, 0x00, 0x00, 0x00, 0x00, 0x00, 0x00, 0x00, 0x00, 0x00, 0x00, 0x00, 0x00, 0x00, 0x00, 0x00, 0x00, 0x00, 0x00, 0x00, 0x00, 0x00, 0x00, 0x00, 0x00, 0x00, 0x00, 0x00, 0x00, 0x00, 0x00, 0x00, 0x00, 0x00, 0x00, 0x00, 0x00, 0x00, 0x00, 0x00, 0x00, 0x00, 0x00, 0x00, 0x00, 0x00, 0x00, 0x00, 0x00, 0x00, 0x00, 0x00, 0x00, 0x00, 0x00, 0x00, 0x00, 0x00, 0x00, 0x00, 0x00, 0x00, 0x00, 0x00, 0x00, 0x00, 0x00, 0x00, 0x00, 0x00, 0x00, 0x00, 0x00, 0x00, 0x00, 0x00, 0x00, 0x00, 0x00, 0x00, 0x00, 0x00, 0x00, 0x00, 0x00, 0x00, 0x00, 0x00, 0x00, 0x00, 0x00, 0x00, 0x00, 0x00, 0x00, 0x00, 0x00, 0x00, 0x00, 0x00, 0x00, 0x00, 0x00, 0x00, 0x00, 0x00, 0x00, 0x00, 0x00, 0x00, 0x00, 0x00, 0x00, 0x00, 0x00, 0x00, 0x00, 0x00, 0x00, 0x00, 0x00, 0x00, 0x00, 0x00, 0x00, 0x10, 0x00, 0x00, 0x00, 0x78, 0x90, 0xD7, 0x38, 0x09, 0x82, 0xAB, 0x38, 0x21, 0x5E, 0xCD, 0x37, 0xDC, 0x28, 0xCD, 0x37, 0xC2, 0x06, 0xCE, 0x37, 0x76, 0xF3, 0xC4, 0x38, 0xCE, 0x12, 0x23, 0x39, 0x7D, 0x60, 0xDB, 0x37, 0x92, 0xF0, 0x14, 0x39, 0x56, 0x15, 0xD4, 0x37, 0x47, 0x09, 0xB8, 0x37, 0x55, 0x38, 0xBA, 0x38, 0xC7, 0x24, 0xB9, 0x38, 0x45, 0x1E, 0x95, 0x39, 0x5C, 0x09, 0xBF, 0x37, 0xFB, 0x97, 0xCD, 0x37, 0x42, 0x00, 0x00, 0x00, 0x73, 0x65, 0x71, 0x75, 0x65, 0x6E, 0x74, 0x69, 0x61, 0x6C, 0x2F, 0x64, 0x65, 0x70, 0x74, 0x68, 0x77, 0x69, 0x73, 0x65, 0x5F, 0x63, 0x6F, 0x6E, 0x76, 0x32, 0x64, 0x5F, 0x32, 0x5F, 0x6F, 0x72, 0x69, 0x67, 0x2F, 0x42, 0x69, 0x61, 0x73, 0x41, 0x64, 0x64, 0x2F, 0x52, 0x65, 0x61, 0x64, 0x56, 0x61, 0x72, 0x69, 0x61, 0x62, 0x6C, 0x65, 0x4F, 0x70, 0x2F, 0x72, 0x65, 0x73, 0x6F, 0x75, 0x72, 0x63, 0x65, 0x00, 0x00, 0x01, 0x00, 0x00, 0x00, 0x10, 0x00, 0x00, 0x00, 0xBE, 0xF2, 0xFF, 0xFF, 0x14, 0x00, 0x00, 0x00, 0xEC, 0x00, 0x00, 0x00, 0x13, 0x00, 0x00, 0x00, 0x00, 0x00, 0x00, 0x09, 0x14, 0x01, 0x00, 0x00, 0x52, 0xF3, 0xFF, 0xFF, 0x03, 0x00, 0x00, 0x00, 0x08, 0x00, 0x00, 0x00, 0x8C, 0x00, 0x00, 0x00, 0x10, 0x00, 0x00, 0x00, 0x00, 0x00, 0x00, 0x00, 0x00, 0x00, 0x00, 0x00, 0x00, 0x00, 0x00, 0x00, 0x00, 0x00, 0x00, 0x00, 0x00, 0x00, 0x00, 0x00, 0x00, 0x00, 0x00, 0x00, 0x00, 0x00, 0x00, 0x00, 0x00, 0x00, 0x00, 0x00, 0x00, 0x00, 0x00, 0x00, 0x00, 0x00, 0x00, 0x00, 0x00, 0x00, 0x00, 0x00, 0x00, 0x00, 0x00, 0x00, 0x00, 0x00, 0x00, 0x00, 0x00, 0x00, 0x00, 0x00, 0x00, 0x00, 0x00, 0x00, 0x00, 0x00, 0x00, 0x00, 0x00, 0x00, 0x00, 0x00, 0x00, 0x00, 0x00, 0x00, 0x00, 0x00, 0x00, 0x00, 0x00, 0x00, 0x00, 0x00, 0x00, 0x00, 0x00, 0x00, 0x00, 0x00, 0x00, 0x00, 0x00, 0x00, 0x00, 0x00, 0x00, 0x00, 0x00, 0x00, 0x00, 0x00, 0x00, 0x00, 0x00, 0x00, 0x00, 0x00, 0x00, 0x00, 0x00, 0x00, 0x00, 0x00, 0x00, 0x00, 0x00, 0x00, 0x00, 0x00, 0x00, 0x00, 0x00, 0x00, 0x00, 0x00, 0x00, 0x00, 0x00, 0x00, 0x00, 0x00, 0x00, 0x00, 0x00, 0x00, 0x10, 0x00, 0x00, 0x00, 0xE0, 0xF5, 0xC7, 0x3B, 0xD8, 0x17, 0x9F, 0x3B, 0x7C, 0x80, 0xBE, 0x3A, 0x13, 0x4F, 0xBE, 0x3A, 0xE9, 0x1C, 0xBF, 0x3A, 0xC9, 0xB1, 0xB6, 0x3B, 0xE9, 0x44, 0x17, 0x3C, 0x3E, 0x7F, 0xCB, 0x3A, 0x96, 0x28, 0x0A, 0x3C, 0x3F, 0xBB, 0xC4, 0x3A, 0xED, 0xB6, 0xAA, 0x3A, 0x83, 0xBD, 0xAC, 0x3B, 0xE7, 0xBD, 0xAB, 0x3B, 0xFA, 0x52, 0x8A, 0x3C, 0x49, 0x35, 0xB1, 0x3A, 0x26, 0xB6, 0xBE, 0x3A, 0x2C, 0x00, 0x00, 0x00, 0x73, 0x65, 0x71, 0x75, 0x65, 0x6E, 0x74, 0x69, 0x61, 0x6C, 0x2F, 0x64, 0x65, 0x70, 0x74, 0x68, 0x77, 0x69, 0x73, 0x65, 0x5F, 0x63, 0x6F, 0x6E, 0x76, 0x32, 0x64, 0x5F, 0x32, 0x5F, 0x6F, 0x72, 0x69, 0x67, 0x2F, 0x64, 0x65, 0x70, 0x74, 0x68, 0x77, 0x69, 0x73, 0x65, 0x00, 0x00, 0x00, 0x00, 0x04, 0x00, 0x00, 0x00, 0x01, 0x00, 0x00, 0x00, 0x03, 0x00, 0x00, 0x00, 0x03, 0x00, 0x00, 0x00, 0x10, 0x00, 0x00, 0x00, 0xFA, 0xF3, 0xFF, 0xFF, 0x14, 0x00, 0x00, 0x00, 0x34, 0x00, 0x00, 0x00, 0x12, 0x00, 0x00, 0x00, 0x00, 0x00, 0x00, 0x09, 0x6C, 0x00, 0x00, 0x00, 0x54, 0xF3, 0xFF, 0xFF, 0x08, 0x00, 0x00, 0x00, 0x14, 0x00, 0x00, 0x00, 0x01, 0x00, 0x00, 0x00, 0x7C, 0x00, 0x00, 0x00, 0x00, 0x00, 0x00, 0x00, 0x00, 0x00, 0x00, 0x00, 0x01, 0x00, 0x00, 0x00, 0x83, 0x3A, 0xBF, 0x3C, 0x3C, 0x00, 0x00, 0x00, 0x73, 0x65, 0x71, 0x75, 0x65, 0x6E, 0x74, 0x69, 0x61, 0x6C, 0x2F, 0x71, 0x75, 0x61, 0x6E, 0x74, 0x5F, 0x62, 0x61, 0x74, 0x63, 0x68, 0x5F, 0x6E, 0x6F, 0x72, 0x6D, 0x61, 0x6C, 0x69, 0x7A, 0x61, 0x74, 0x69, 0x6F, 0x6E, 0x5F, 0x31, 0x5F, 0x6F, 0x72, 0x69, 0x67, 0x2F, 0x46, 0x75, 0x73, 0x65, 0x64, 0x42, 0x61, 0x74, 0x63, 0x68, 0x4E, 0x6F, 0x72, 0x6D, 0x56, 0x33, 0x00, 0x00, 0x00, 0x00, 0x01, 0x00, 0x00, 0x00, 0x10, 0x00, 0x00, 0x00, 0x82, 0xF4, 0xFF, 0xFF, 0x14, 0x00, 0x00, 0x00, 0x34, 0x00, 0x00, 0x00, 0x11, 0x00, 0x00, 0x00, 0x00, 0x00, 0x00, 0x09, 0x6C, 0x00, 0x00, 0x00, 0xDC, 0xF3, 0xFF, 0xFF, 0x08, 0x00, 0x00, 0x00, 0x14, 0x00, 0x00, 0x00, 0x01, 0x00, 0x00, 0x00, 0x80, 0xFF, 0xFF, 0xFF, 0xFF, 0xFF, 0xFF, 0xFF, 0x00, 0x00, 0x00, 0x00, 0x01, 0x00, 0x00, 0x00, 0x6A, 0xF9, 0xFD, 0x3D, 0x3D, 0x00, 0x00, 0x00, 0x73, 0x65, 0x71, 0x75, 0x65, 0x6E, 0x74, 0x69, 0x61, 0x6C, 0x2F, 0x71, 0x75, 0x61, 0x6E, 0x74, 0x5F, 0x62, 0x61, 0x74, 0x63, 0x68, 0x5F, 0x6E, 0x6F, 0x72, 0x6D, 0x61, 0x6C, 0x69, 0x7A, 0x61, 0x74, 0x69, 0x6F, 0x6E, 0x5F, 0x31, 0x5F, 0x6F, 0x72, 0x69, 0x67, 0x2F, 0x46, 0x75, 0x73, 0x65, 0x64, 0x42, 0x61, 0x74, 0x63, 0x68, 0x4E, 0x6F, 0x72, 0x6D, 0x56, 0x33, 0x31, 0x00, 0x00, 0x00, 0x01, 0x00, 0x00, 0x00, 0x10, 0x00, 0x00, 0x00, 0x0A, 0xF5, 0xFF, 0xFF, 0x14, 0x00, 0x00, 0x00, 0xE8, 0x00, 0x00, 0x00, 0x10, 0x00, 0x00, 0x00, 0x00, 0x00, 0x00, 0x02, 0x24, 0x01, 0x00, 0x00, 0x64, 0xF4, 0xFF, 0xFF, 0x08, 0x00, 0x00, 0x00, 0x8C, 0x00, 0x00, 0x00, 0x10, 0x00, 0x00, 0x00, 0x00, 0x00, 0x00, 0x00, 0x00, 0x00, 0x00, 0x00, 0x00, 0x00, 0x00, 0x00, 0x00, 0x00, 0x00, 0x00, 0x00, 0x00, 0x00, 0x00, 0x00, 0x00, 0x00, 0x00, 0x00, 0x00, 0x00, 0x00, 0x00, 0x00, 0x00, 0x00, 0x00, 0x00, 0x00, 0x00, 0x00, 0x00, 0x00, 0x00, 0x00, 0x00, 0x00, 0x00, 0x00, 0x00, 0x00, 0x00, 0x00, 0x00, 0x00, 0x00, 0x00, 0x00, 0x00, 0x00, 0x00, 0x00, 0x00, 0x00, 0x00, 0x00, 0x00, 0x00, 0x00, 0x00, 0x00, 0x00, 0x00, 0x00, 0x00, 0x00, 0x00, 0x00, 0x00, 0x00, 0x00, 0x00, 0x00, 0x00, 0x00, 0x00, 0x00, 0x00, 0x00, 0x00, 0x00, 0x00, 0x00, 0x00, 0x00, 0x00, 0x00, 0x00, 0x00, 0x00, 0x00, 0x00, 0x00, 0x00, 0x00, 0x00, 0x00, 0x00, 0x00, 0x00, 0x00, 0x00, 0x00, 0x00, 0x00, 0x00, 0x00, 0x00, 0x00, 0x00, 0x00, 0x00, 0x00, 0x00, 0x00, 0x00, 0x00, 0x00, 0x00, 0x00, 0x00, 0x00, 0x00, 0x00, 0x00, 0x00, 0x10, 0x00, 0x00, 0x00, 0x18, 0x6E, 0x6A, 0x37, 0x5A, 0xBF, 0x83, 0x37, 0x62, 0x64, 0x58, 0x37, 0xCC, 0x7D, 0x6D, 0x37, 0xA4, 0xDA, 0x75, 0x37, 0x01, 0x90, 0x84, 0x37, 0xA3, 0x6B, 0xB7, 0x37, 0xB8, 0xD7, 0x69, 0x37, 0x6F, 0x19, 0x7F, 0x37, 0x50, 0xEA, 0x77, 0x37, 0x7B, 0x2E, 0x78, 0x37, 0xFA, 0xC3, 0x8D, 0x37, 0x24, 0x58, 0x56, 0x38, 0x18, 0xB8, 0xAA, 0x37, 0x95, 0xAB, 0x64, 0x37, 0x34, 0x10, 0x68, 0x37, 0x42, 0x00, 0x00, 0x00, 0x73, 0x65, 0x71, 0x75, 0x65, 0x6E, 0x74, 0x69, 0x61, 0x6C, 0x2F, 0x73, 0x65, 0x70, 0x61, 0x72, 0x61, 0x62, 0x6C, 0x65, 0x5F, 0x63, 0x6F, 0x6E, 0x76, 0x32, 0x64, 0x5F, 0x31, 0x5F, 0x6F, 0x72, 0x69, 0x67, 0x2F, 0x42, 0x69, 0x61, 0x73, 0x41, 0x64, 0x64, 0x2F, 0x52, 0x65, 0x61, 0x64, 0x56, 0x61, 0x72, 0x69, 0x61, 0x62, 0x6C, 0x65, 0x4F, 0x70, 0x2F, 0x72, 0x65, 0x73, 0x6F, 0x75, 0x72, 0x63, 0x65, 0x00, 0x00, 0x01, 0x00, 0x00, 0x00, 0x10, 0x00, 0x00, 0x00, 0x4A, 0xF6, 0xFF, 0xFF, 0x14, 0x00, 0x00, 0x00, 0xE4, 0x00, 0x00, 0x00, 0x0F, 0x00, 0x00, 0x00, 0x00, 0x00, 0x00, 0x09, 0x10, 0x01, 0x00, 0x00, 0xA4, 0xF5, 0xFF, 0xFF, 0x08, 0x00, 0x00, 0x00, 0x88, 0x00, 0x00, 0x00, 0x10, 0x00, 0x00, 0x00, 0x00, 0x00, 0x00, 0x00, 0x00, 0x00, 0x00, 0x00, 0x00, 0x00, 0x00, 0x00, 0x00, 0x00, 0x00, 0x00, 0x00, 0x00, 0x00, 0x00, 0x00, 0x00, 0x00, 0x00, 0x00, 0x00, 0x00, 0x00, 0x00, 0x00, 0x00, 0x00, 0x00, 0x00, 0x00, 0x00, 0x00, 0x00, 0x00, 0x00, 0x00, 0x00, 0x00, 0x00, 0x00, 0x00, 0x00, 0x00, 0x00, 0x00, 0x00, 0x00, 0x00, 0x00, 0x00, 0x00, 0x00, 0x00, 0x00, 0x00, 0x00, 0x00, 0x00, 0x00, 0x00, 0x00, 0x00, 0x00, 0x00, 0x00, 0x00, 0x00, 0x00, 0x00, 0x00, 0x00, 0x00, 0x00, 0x00, 0x00, 0x00, 0x00, 0x00, 0x00, 0x00, 0x00, 0x00, 0x00, 0x00, 0x00, 0x00, 0x00, 0x00, 0x00, 0x00, 0x00, 0x00, 0x00, 0x00, 0x00, 0x00, 0x00, 0x00, 0x00, 0x00, 0x00, 0x00, 0x00, 0x00, 0x00, 0x00, 0x00, 0x00, 0x00, 0x00, 0x00, 0x00, 0x00, 0x00, 0x00, 0x00, 0x00, 0x00, 0x00, 0x00, 0x00, 0x00, 0x00, 0x10, 0x00, 0x00, 0x00, 0x78, 0xE2, 0x6C, 0x3B, 0x7E, 0x20, 0x85, 0x3B, 0x69, 0xA8, 0x5A, 0x3B, 0x61, 0xFA, 0x6F, 0x3B, 0xA3, 0x6D, 0x78, 0x3B, 0x54, 0xF3, 0x85, 0x3B, 0x49, 0x57, 0xB9, 0x3B, 0x85, 0x4A, 0x6C, 0x3B, 0x9B, 0xE2, 0x80, 0x3B, 0xD6, 0x82, 0x7A, 0x3B, 0xB7, 0xC7, 0x7A, 0x3B, 0xF8, 0x3F, 0x8F, 0x3B, 0xAD, 0x96, 0x58, 0x3C, 0xB2, 0x81, 0xAC, 0x3B, 0x85, 0x10, 0x67, 0x3B, 0x3C, 0x7E, 0x6A, 0x3B, 0x33, 0x00, 0x00, 0x00, 0x73, 0x65, 0x71, 0x75, 0x65, 0x6E, 0x74, 0x69, 0x61, 0x6C, 0x2F, 0x73, 0x65, 0x70, 0x61, 0x72, 0x61, 0x62, 0x6C, 0x65, 0x5F, 0x63, 0x6F, 0x6E, 0x76, 0x32, 0x64, 0x5F, 0x31, 0x5F, 0x6F, 0x72, 0x69, 0x67, 0x2F, 0x73, 0x65, 0x70, 0x61, 0x72, 0x61, 0x62, 0x6C, 0x65, 0x5F, 0x63, 0x6F, 0x6E, 0x76, 0x32, 0x64, 0x00, 0x04, 0x00, 0x00, 0x00, 0x10, 0x00, 0x00, 0x00, 0x01, 0x00, 0x00, 0x00, 0x01, 0x00, 0x00, 0x00, 0x08, 0x00, 0x00, 0x00, 0x82, 0xF7, 0xFF, 0xFF, 0x14, 0x00, 0x00, 0x00, 0x88, 0x00, 0x00, 0x00, 0x0E, 0x00, 0x00, 0x00, 0x00, 0x00, 0x00, 0x02, 0xC0, 0x00, 0x00, 0x00, 0xDC, 0xF6, 0xFF, 0xFF, 0x08, 0x00, 0x00, 0x00, 0x4C, 0x00, 0x00, 0x00, 0x08, 0x00, 0x00, 0x00, 0x00, 0x00, 0x00, 0x00, 0x00, 0x00, 0x00, 0x00, 0x00, 0x00, 0x00, 0x00, 0x00, 0x00, 0x00, 0x00, 0x00, 0x00, 0x00, 0x00, 0x00, 0x00, 0x00, 0x00, 0x00, 0x00, 0x00, 0x00, 0x00, 0x00, 0x00, 0x00, 0x00, 0x00, 0x00, 0x00, 0x00, 0x00, 0x00, 0x00, 0x00, 0x00, 0x00, 0x00, 0x00, 0x00, 0x00, 0x00, 0x00, 0x00, 0x00, 0x00, 0x00, 0x00, 0x00, 0x00, 0x00, 0x00, 0x00, 0x00, 0x00, 0x00, 0x00, 0x00, 0x00, 0x00, 0x00, 0x00, 0x08, 0x00, 0x00, 0x00, 0x18, 0x5E, 0x83, 0x37, 0xAB, 0xFF, 0x08, 0x37, 0x6D, 0x03, 0x50, 0x37, 0x83, 0xF7, 0x94, 0x37, 0xF2, 0xD2, 0x8C, 0x37, 0xB0, 0x7E, 0x14, 0x36, 0xA4, 0xEB, 0x72, 0x37, 0x90, 0x5E, 0x14, 0x36, 0x3D, 0x00, 0x00, 0x00, 0x73, 0x65, 0x71, 0x75, 0x65, 0x6E, 0x74, 0x69, 0x61, 0x6C, 0x2F, 0x73, 0x65, 0x70, 0x61, 0x72, 0x61, 0x62, 0x6C, 0x65, 0x5F, 0x63, 0x6F, 0x6E, 0x76, 0x32, 0x64, 0x5F, 0x31, 0x5F, 0x6F, 0x72, 0x69, 0x67, 0x2F, 0x73, 0x65, 0x70, 0x61, 0x72, 0x61, 0x62, 0x6C, 0x65, 0x5F, 0x63, 0x6F, 0x6E, 0x76, 0x32, 0x64, 0x2F, 0x64, 0x65, 0x70, 0x74, 0x68, 0x77, 0x69, 0x73, 0x65, 0x00, 0x00, 0x00, 0x01, 0x00, 0x00, 0x00, 0x08, 0x00, 0x00, 0x00, 0x5E, 0xF8, 0xFF, 0xFF, 0x14, 0x00, 0x00, 0x00, 0x8C, 0x00, 0x00, 0x00, 0x0D, 0x00, 0x00, 0x00, 0x00, 0x00, 0x00, 0x09, 0xC4, 0x00, 0x00, 0x00, 0xF2, 0xF8, 0xFF, 0xFF, 0x03, 0x00, 0x00, 0x00, 0x08, 0x00, 0x00, 0x00, 0x4C, 0x00, 0x00, 0x00, 0x08, 0x00, 0x00, 0x00, 0x00, 0x00, 0x00, 0x00, 0x00, 0x00, 0x00, 0x00, 0x00, 0x00, 0x00, 0x00, 0x00, 0x00, 0x00, 0x00, 0x00, 0x00, 0x00, 0x00, 0x00, 0x00, 0x00, 0x00, 0x00, 0x00, 0x00, 0x00, 0x00, 0x00, 0x00, 0x00, 0x00, 0x00, 0x00, 0x00, 0x00, 0x00, 0x00, 0x00, 0x00, 0x00, 0x00, 0x00, 0x00, 0x00, 0x00, 0x00, 0x00, 0x00, 0x00, 0x00, 0x00, 0x00, 0x00, 0x00, 0x00, 0x00, 0x00, 0x00, 0x00, 0x00, 0x00, 0x00, 0x00, 0x00, 0x00, 0x00, 0x08, 0x00, 0x00, 0x00, 0xB9, 0x00, 0xB7, 0x3B, 0xEC, 0xD8, 0x3E, 0x3B, 0x34, 0xE3, 0x90, 0x3B, 0x0A, 0x85, 0xCF, 0x3B, 0x1C, 0x2D, 0xC4, 0x3B, 0xB9, 0xDC, 0x4E, 0x3A, 0x8B, 0x33, 0xA9, 0x3B, 0xF8, 0xAF, 0x4E, 0x3A, 0x3E, 0x00, 0x00, 0x00, 0x73, 0x65, 0x71, 0x75, 0x65, 0x6E, 0x74, 0x69, 0x61, 0x6C, 0x2F, 0x73, 0x65, 0x70, 0x61, 0x72, 0x61, 0x62, 0x6C, 0x65, 0x5F, 0x63, 0x6F, 0x6E, 0x76, 0x32, 0x64, 0x5F, 0x31, 0x5F, 0x6F, 0x72, 0x69, 0x67, 0x2F, 0x73, 0x65, 0x70, 0x61, 0x72, 0x61, 0x62, 0x6C, 0x65, 0x5F, 0x63, 0x6F, 0x6E, 0x76, 0x32, 0x64, 0x2F, 0x64, 0x65, 0x70, 0x74, 0x68, 0x77, 0x69, 0x73, 0x65, 0x31, 0x00, 0x00, 0x04, 0x00, 0x00, 0x00, 0x01, 0x00, 0x00, 0x00, 0x01, 0x00, 0x00, 0x00, 0x01, 0x00, 0x00, 0x00, 0x08, 0x00, 0x00, 0x00, 0x4A, 0xF9, 0xFF, 0xFF, 0x14, 0x00, 0x00, 0x00, 0x84, 0x00, 0x00, 0x00, 0x0C, 0x00, 0x00, 0x00, 0x00, 0x00, 0x00, 0x02, 0xC0, 0x00, 0x00, 0x00, 0xA4, 0xF8, 0xFF, 0xFF, 0x08, 0x00, 0x00, 0x00, 0x48, 0x00, 0x00, 0x00, 0x08, 0x00, 0x00, 0x00, 0x00, 0x00, 0x00, 0x00, 0x00, 0x00, 0x00, 0x00, 0x00, 0x00, 0x00, 0x00, 0x00, 0x00, 0x00, 0x00, 0x00, 0x00, 0x00, 0x00, 0x00, 0x00, 0x00, 0x00, 0x00, 0x00, 0x00, 0x00, 0x00, 0x00, 0x00, 0x00, 0x00, 0x00, 0x00, 0x00, 0x00, 0x00, 0x00, 0x00, 0x00, 0x00, 0x00, 0x00, 0x00, 0x00, 0x00, 0x00, 0x00, 0x00, 0x00, 0x00, 0x00, 0x00, 0x00, 0x00, 0x00, 0x00, 0x00, 0x00, 0x00, 0x00, 0x00, 0x00, 0x08, 0x00, 0x00, 0x00, 0x62, 0x16, 0x20, 0x37, 0xCD, 0xA8, 0x13, 0x37, 0xB8, 0xED, 0x0F, 0x37, 0xDB, 0xE2, 0xEF, 0x37, 0x74, 0xFA, 0x1C, 0x37, 0xBA, 0x7D, 0x21, 0x37, 0x51, 0xAF, 0x1B, 0x38, 0xF7, 0x55, 0x11, 0x37, 0x42, 0x00, 0x00, 0x00, 0x73, 0x65, 0x71, 0x75, 0x65, 0x6E, 0x74, 0x69, 0x61, 0x6C, 0x2F, 0x64, 0x65, 0x70, 0x74, 0x68, 0x77, 0x69, 0x73, 0x65, 0x5F, 0x63, 0x6F, 0x6E, 0x76, 0x32, 0x64, 0x5F, 0x31, 0x5F, 0x6F, 0x72, 0x69, 0x67, 0x2F, 0x42, 0x69, 0x61, 0x73, 0x41, 0x64, 0x64, 0x2F, 0x52, 0x65, 0x61, 0x64, 0x56, 0x61, 0x72, 0x69, 0x61, 0x62, 0x6C, 0x65, 0x4F, 0x70, 0x2F, 0x72, 0x65, 0x73, 0x6F, 0x75, 0x72, 0x63, 0x65, 0x00, 0x00, 0x01, 0x00, 0x00, 0x00, 0x08, 0x00, 0x00, 0x00, 0x26, 0xFA, 0xFF, 0xFF, 0x14, 0x00, 0x00, 0x00, 0x8C, 0x00, 0x00, 0x00, 0x0B, 0x00, 0x00, 0x00, 0x00, 0x00, 0x00, 0x09, 0xB4, 0x00, 0x00, 0x00, 0xBA, 0xFA, 0xFF, 0xFF, 0x03, 0x00, 0x00, 0x00, 0x08, 0x00, 0x00, 0x00, 0x4C, 0x00, 0x00, 0x00, 0x08, 0x00, 0x00, 0x00, 0x00, 0x00, 0x00, 0x00, 0x00, 0x00, 0x00, 0x00, 0x00, 0x00, 0x00, 0x00, 0x00, 0x00, 0x00, 0x00, 0x00, 0x00, 0x00, 0x00, 0x00, 0x00, 0x00, 0x00, 0x00, 0x00, 0x00, 0x00, 0x00, 0x00, 0x00, 0x00, 0x00, 0x00, 0x00, 0x00, 0x00, 0x00, 0x00, 0x00, 0x00, 0x00, 0x00, 0x00, 0x00, 0x00, 0x00, 0x00, 0x00, 0x00, 0x00, 0x00, 0x00, 0x00, 0x00, 0x00, 0x00, 0x00, 0x00, 0x00, 0x00, 0x00, 0x00, 0x00, 0x00, 0x00, 0x00, 0x00, 0x08, 0x00, 0x00, 0x00, 0x37, 0x25, 0x0A, 0x3B, 0x6B, 0xD7, 0xFE, 0x3A, 0x12, 0x67, 0xF8, 0x3A, 0xB3, 0x01, 0xCF, 0x3B, 0x61, 0x76, 0x07, 0x3B, 0x4E, 0x5B, 0x0B, 0x3B, 0xA1, 0x58, 0x06, 0x3C, 0xCF, 0xD4, 0xFA, 0x3A, 0x2C, 0x00, 0x00, 0x00, 0x73, 0x65, 0x71, 0x75, 0x65, 0x6E, 0x74, 0x69, 0x61, 0x6C, 0x2F, 0x64, 0x65, 0x70, 0x74, 0x68, 0x77, 0x69, 0x73, 0x65, 0x5F, 0x63, 0x6F, 0x6E, 0x76, 0x32, 0x64, 0x5F, 0x31, 0x5F, 0x6F, 0x72, 0x69, 0x67, 0x2F, 0x64, 0x65, 0x70, 0x74, 0x68, 0x77, 0x69, 0x73, 0x65, 0x00, 0x00, 0x00, 0x00, 0x04, 0x00, 0x00, 0x00, 0x01, 0x00, 0x00, 0x00, 0x03, 0x00, 0x00, 0x00, 0x03, 0x00, 0x00, 0x00, 0x08, 0x00, 0x00, 0x00, 0x02, 0xFB, 0xFF, 0xFF, 0x14, 0x00, 0x00, 0x00, 0x30, 0x00, 0x00, 0x00, 0x0A, 0x00, 0x00, 0x00, 0x00, 0x00, 0x00, 0x09, 0x64, 0x00, 0x00, 0x00, 0x5C, 0xFA, 0xFF, 0xFF, 0x08, 0x00, 0x00, 0x00, 0x10, 0x00, 0x00, 0x00, 0x01, 0x00, 0x00, 0x00, 0x3E, 0x00, 0x00, 0x00, 0x00, 0x00, 0x00, 0x00, 0x01, 0x00, 0x00, 0x00, 0x02, 0x45, 0xF0, 0x3B, 0x3A, 0x00, 0x00, 0x00, 0x73, 0x65, 0x71, 0x75, 0x65, 0x6E, 0x74, 0x69, 0x61, 0x6C, 0x2F, 0x71, 0x75, 0x61, 0x6E, 0x74, 0x5F, 0x62, 0x61, 0x74, 0x63, 0x68, 0x5F, 0x6E, 0x6F, 0x72, 0x6D, 0x61, 0x6C, 0x69, 0x7A, 0x61, 0x74, 0x69, 0x6F, 0x6E, 0x5F, 0x6F, 0x72, 0x69, 0x67, 0x2F, 0x46, 0x75, 0x73, 0x65, 0x64, 0x42, 0x61, 0x74, 0x63, 0x68, 0x4E, 0x6F, 0x72, 0x6D, 0x56, 0x33, 0x00, 0x00, 0x01, 0x00, 0x00, 0x00, 0x08, 0x00, 0x00, 0x00, 0x82, 0xFB, 0xFF, 0xFF, 0x14, 0x00, 0x00, 0x00, 0x30, 0x00, 0x00, 0x00, 0x09, 0x00, 0x00, 0x00, 0x00, 0x00, 0x00, 0x09, 0x64, 0x00, 0x00, 0x00, 0xDC, 0xFA, 0xFF, 0xFF, 0x08, 0x00, 0x00, 0x00, 0x10, 0x00, 0x00, 0x00, 0x01, 0x00, 0x00, 0x00, 0x80, 0xFF, 0xFF, 0xFF, 0xFF, 0xFF, 0xFF, 0xFF, 0x01, 0x00, 0x00, 0x00, 0x6A, 0xF9, 0xFD, 0x3D, 0x3B, 0x00, 0x00, 0x00, 0x73, 0x65, 0x71, 0x75, 0x65, 0x6E, 0x74, 0x69, 0x61, 0x6C, 0x2F, 0x71, 0x75, 0x61, 0x6E, 0x74, 0x5F, 0x62, 0x61, 0x74, 0x63, 0x68, 0x5F, 0x6E, 0x6F, 0x72, 0x6D, 0x61, 0x6C, 0x69, 0x7A, 0x61, 0x74, 0x69, 0x6F, 0x6E, 0x5F, 0x6F, 0x72, 0x69, 0x67, 0x2F, 0x46, 0x75, 0x73, 0x65, 0x64, 0x42, 0x61, 0x74, 0x63, 0x68, 0x4E, 0x6F, 0x72, 0x6D, 0x56, 0x33, 0x31, 0x00, 0x01, 0x00, 0x00, 0x00, 0x08, 0x00, 0x00, 0x00, 0x02, 0xFC, 0xFF, 0xFF, 0x14, 0x00, 0x00, 0x00, 0x88, 0x00, 0x00, 0x00, 0x08, 0x00, 0x00, 0x00, 0x00, 0x00, 0x00, 0x02, 0xC4, 0x00, 0x00, 0x00, 0x5C, 0xFB, 0xFF, 0xFF, 0x08, 0x00, 0x00, 0x00, 0x4C, 0x00, 0x00, 0x00, 0x08, 0x00, 0x00, 0x00, 0x00, 0x00, 0x00, 0x00, 0x00, 0x00, 0x00, 0x00, 0x00, 0x00, 0x00, 0x00, 0x00, 0x00, 0x00, 0x00, 0x00, 0x00, 0x00, 0x00, 0x00, 0x00, 0x00, 0x00, 0x00, 0x00, 0x00, 0x00, 0x00, 0x00, 0x00, 0x00, 0x00, 0x00, 0x00, 0x00, 0x00, 0x00, 0x00, 0x00, 0x00, 0x00, 0x00, 0x00, 0x00, 0x00, 0x00, 0x00, 0x00, 0x00, 0x00, 0x00, 0x00, 0x00, 0x00, 0x00, 0x00, 0x00, 0x00, 0x00, 0x00, 0x00, 0x00, 0x00, 0x00, 0x00, 0x00, 0x00, 0x08, 0x00, 0x00, 0x00, 0xAF, 0xB1, 0xF4, 0x38, 0xB2, 0x16, 0x32, 0x38, 0x6E, 0x36, 0xC6, 0x37, 0x2F, 0x63, 0x30, 0x37, 0xDD, 0x60, 0x19, 0x38, 0x44, 0x43, 0x77, 0x38, 0x3C, 0xAA, 0x03, 0x38, 0xE8, 0x9A, 0x0D, 0x38, 0x40, 0x00, 0x00, 0x00, 0x73, 0x65, 0x71, 0x75, 0x65, 0x6E, 0x74, 0x69, 0x61, 0x6C, 0x2F, 0x73, 0x65, 0x70, 0x61, 0x72, 0x61, 0x62, 0x6C, 0x65, 0x5F, 0x63, 0x6F, 0x6E, 0x76, 0x32, 0x64, 0x5F, 0x6F, 0x72, 0x69, 0x67, 0x2F, 0x42, 0x69, 0x61, 0x73, 0x41, 0x64, 0x64, 0x2F, 0x52, 0x65, 0x61, 0x64, 0x56, 0x61, 0x72, 0x69, 0x61, 0x62, 0x6C, 0x65, 0x4F, 0x70, 0x2F, 0x72, 0x65, 0x73, 0x6F, 0x75, 0x72, 0x63, 0x65, 0x00, 0x00, 0x00, 0x00, 0x01, 0x00, 0x00, 0x00, 0x08, 0x00, 0x00, 0x00, 0xE2, 0xFC, 0xFF, 0xFF, 0x14, 0x00, 0x00, 0x00, 0x84, 0x00, 0x00, 0x00, 0x07, 0x00, 0x00, 0x00, 0x00, 0x00, 0x00, 0x09, 0xB0, 0x00, 0x00, 0x00, 0x3C, 0xFC, 0xFF, 0xFF, 0x08, 0x00, 0x00, 0x00, 0x48, 0x00, 0x00, 0x00, 0x08, 0x00, 0x00, 0x00, 0x00, 0x00, 0x00, 0x00, 0x00, 0x00, 0x00, 0x00, 0x00, 0x00, 0x00, 0x00, 0x00, 0x00, 0x00, 0x00, 0x00, 0x00, 0x00, 0x00, 0x00, 0x00, 0x00, 0x00, 0x00, 0x00, 0x00, 0x00, 0x00, 0x00, 0x00, 0x00, 0x00, 0x00, 0x00, 0x00, 0x00, 0x00, 0x00, 0x00, 0x00, 0x00, 0x00, 0x00, 0x00, 0x00, 0x00, 0x00, 0x00, 0x00, 0x00, 0x00, 0x00, 0x00, 0x00, 0x00, 0x00, 0x00, 0x00, 0x00, 0x00, 0x00, 0x00, 0x00, 0x08, 0x00, 0x00, 0x00, 0x0A, 0x2C, 0xCE, 0x3B, 0x61, 0x0D, 0x16, 0x3B, 0x14, 0x02, 0xA7, 0x3A, 0x6E, 0x9E, 0x14, 0x3A, 0x6B, 0x3B, 0x01, 0x3B, 0x19, 0x56, 0x50, 0x3B, 0xC3, 0xDF, 0xDD, 0x3A, 0xE4, 0x9F, 0xEE, 0x3A, 0x31, 0x00, 0x00, 0x00, 0x73, 0x65, 0x71, 0x75, 0x65, 0x6E, 0x74, 0x69, 0x61, 0x6C, 0x2F, 0x73, 0x65, 0x70, 0x61, 0x72, 0x61, 0x62, 0x6C, 0x65, 0x5F, 0x63, 0x6F, 0x6E, 0x76, 0x32, 0x64, 0x5F, 0x6F, 0x72, 0x69, 0x67, 0x2F, 0x73, 0x65, 0x70, 0x61, 0x72, 0x61, 0x62, 0x6C, 0x65, 0x5F, 0x63, 0x6F, 0x6E, 0x76, 0x32, 0x64, 0x00, 0x00, 0x00, 0x04, 0x00, 0x00, 0x00, 0x08, 0x00, 0x00, 0x00, 0x01, 0x00, 0x00, 0x00, 0x01, 0x00, 0x00, 0x00, 0x01, 0x00, 0x00, 0x00, 0xBA, 0xFD, 0xFF, 0xFF, 0x14, 0x00, 0x00, 0x00, 0x34, 0x00, 0x00, 0x00, 0x06, 0x00, 0x00, 0x00, 0x00, 0x00, 0x00, 0x02, 0x68, 0x00, 0x00, 0x00, 0x14, 0xFD, 0xFF, 0xFF, 0x08, 0x00, 0x00, 0x00, 0x14, 0x00, 0x00, 0x00, 0x01, 0x00, 0x00, 0x00, 0x00, 0x00, 0x00, 0x00, 0x00, 0x00, 0x00, 0x00, 0x00, 0x00, 0x00, 0x00, 0x01, 0x00, 0x00, 0x00, 0xBC, 0x1C, 0x19, 0x39, 0x3B, 0x00, 0x00, 0x00, 0x73, 0x65, 0x71, 0x75, 0x65, 0x6E, 0x74, 0x69, 0x61, 0x6C, 0x2F, 0x73, 0x65, 0x70, 0x61, 0x72, 0x61, 0x62, 0x6C, 0x65, 0x5F, 0x63, 0x6F, 0x6E, 0x76, 0x32, 0x64, 0x5F, 0x6F, 0x72, 0x69, 0x67, 0x2F, 0x73, 0x65, 0x70, 0x61, 0x72, 0x61, 0x62, 0x6C, 0x65, 0x5F, 0x63, 0x6F, 0x6E, 0x76, 0x32, 0x64, 0x2F, 0x64, 0x65, 0x70, 0x74, 0x68, 0x77, 0x69, 0x73, 0x65, 0x00, 0x01, 0x00, 0x00, 0x00, 0x01, 0x00, 0x00, 0x00, 0x3E, 0xFE, 0xFF, 0xFF, 0x14, 0x00, 0x00, 0x00, 0x38, 0x00, 0x00, 0x00, 0x05, 0x00, 0x00, 0x00, 0x00, 0x00, 0x00, 0x09, 0x7C, 0x00, 0x00, 0x00, 0xD2, 0xFE, 0xFF, 0xFF, 0x03, 0x00, 0x00, 0x00, 0x08, 0x00, 0x00, 0x00, 0x14, 0x00, 0x00, 0x00, 0x01, 0x00, 0x00, 0x00, 0x00, 0x00, 0x00, 0x00, 0x00, 0x00, 0x00, 0x00, 0x00, 0x00, 0x00, 0x00, 0x01, 0x00, 0x00, 0x00, 0x78, 0x81, 0xE3, 0x3B, 0x49, 0x00, 0x00, 0x00, 0x73, 0x65, 0x71, 0x75, 0x65, 0x6E, 0x74, 0x69, 0x61, 0x6C, 0x2F, 0x73, 0x65, 0x70, 0x61, 0x72, 0x61, 0x62, 0x6C, 0x65, 0x5F, 0x63, 0x6F, 0x6E, 0x76, 0x32, 0x64, 0x5F, 0x6F, 0x72, 0x69, 0x67, 0x2F, 0x73, 0x65, 0x70, 0x61, 0x72, 0x61, 0x62, 0x6C, 0x65, 0x5F, 0x63, 0x6F, 0x6E, 0x76, 0x32, 0x64, 0x2F, 0x52, 0x65, 0x61, 0x64, 0x56, 0x61, 0x72, 0x69, 0x61, 0x62, 0x6C, 0x65, 0x4F, 0x70, 0x2F, 0x72, 0x65, 0x73, 0x6F, 0x75, 0x72, 0x63, 0x65, 0x00, 0x00, 0x00, 0x04, 0x00, 0x00, 0x00, 0x01, 0x00, 0x00, 0x00, 0x01, 0x00, 0x00, 0x00, 0x01, 0x00, 0x00, 0x00, 0x01, 0x00, 0x00, 0x00, 0xE2, 0xFE, 0xFF, 0xFF, 0x14, 0x00, 0x00, 0x00, 0x30, 0x00, 0x00, 0x00, 0x04, 0x00, 0x00, 0x00, 0x00, 0x00, 0x00, 0x02, 0x6C, 0x00, 0x00, 0x00, 0x3C, 0xFE, 0xFF, 0xFF, 0x08, 0x00, 0x00, 0x00, 0x10, 0x00, 0x00, 0x00, 0x01, 0x00, 0x00, 0x00, 0x00, 0x00, 0x00, 0x00, 0x00, 0x00, 0x00, 0x00, 0x01, 0x00, 0x00, 0x00, 0x25, 0x3E, 0x54, 0x38, 0x40, 0x00, 0x00, 0x00, 0x73, 0x65, 0x71, 0x75, 0x65, 0x6E, 0x74, 0x69, 0x61, 0x6C, 0x2F, 0x64, 0x65, 0x70, 0x74, 0x68, 0x77, 0x69, 0x73, 0x65, 0x5F, 0x63, 0x6F, 0x6E, 0x76, 0x32, 0x64, 0x5F, 0x6F, 0x72, 0x69, 0x67, 0x2F, 0x42, 0x69, 0x61, 0x73, 0x41, 0x64, 0x64, 0x2F, 0x52, 0x65, 0x61, 0x64, 0x56, 0x61, 0x72, 0x69, 0x61, 0x62, 0x6C, 0x65, 0x4F, 0x70, 0x2F, 0x72, 0x65, 0x73, 0x6F, 0x75, 0x72, 0x63, 0x65, 0x00, 0x00, 0x00, 0x00, 0x01, 0x00, 0x00, 0x00, 0x01, 0x00, 0x00, 0x00, 0x6A, 0xFF, 0xFF, 0xFF, 0x28, 0x00, 0x00, 0x00, 0x48, 0x00, 0x00, 0x00, 0x03, 0x00, 0x00, 0x00, 0x00, 0x00, 0x00, 0x09, 0x6C, 0x00, 0x00, 0x00, 0x00, 0x00, 0x12, 0x00, 0x10, 0x00, 0x00, 0x00, 0x00, 0x00, 0x0C, 0x00, 0x08, 0x00, 0x00, 0x00, 0x00, 0x00, 0x04, 0x00, 0x12, 0x00, 0x00, 0x00, 0x03, 0x00, 0x00, 0x00, 0x08, 0x00, 0x00, 0x00, 0x10, 0x00, 0x00, 0x00, 0x01, 0x00, 0x00, 0x00, 0x00, 0x00, 0x00, 0x00, 0x00, 0x00, 0x00, 0x00, 0x01, 0x00, 0x00, 0x00, 0xE6, 0x69, 0x53, 0x3C, 0x2A, 0x00, 0x00, 0x00, 0x73, 0x65, 0x71, 0x75, 0x65, 0x6E, 0x74, 0x69, 0x61, 0x6C, 0x2F, 0x64, 0x65, 0x70, 0x74, 0x68, 0x77, 0x69, 0x73, 0x65, 0x5F, 0x63, 0x6F, 0x6E, 0x76, 0x32, 0x64, 0x5F, 0x6F, 0x72, 0x69, 0x67, 0x2F, 0x64, 0x65, 0x70, 0x74, 0x68, 0x77, 0x69, 0x73, 0x65, 0x00, 0x00, 0x04, 0x00, 0x00, 0x00, 0x01, 0x00, 0x00, 0x00, 0x03, 0x00, 0x00, 0x00, 0x03, 0x00, 0x00, 0x00, 0x01, 0x00, 0x00, 0x00, 0x00, 0x00, 0x0E, 0x00, 0x18, 0x00, 0x14, 0x00, 0x13, 0x00, 0x0C, 0x00, 0x08, 0x00, 0x04, 0x00, 0x0E, 0x00, 0x00, 0x00, 0x18, 0x00, 0x00, 0x00, 0x18, 0x00, 0x00, 0x00, 0x02, 0x00, 0x00, 0x00, 0x00, 0x00, 0x00, 0x02, 0x50, 0x00, 0x00, 0x00, 0x04, 0x00, 0x04, 0x00, 0x04, 0x00, 0x00, 0x00, 0x3F, 0x00, 0x00, 0x00, 0x73, 0x65, 0x71, 0x75, 0x65, 0x6E, 0x74, 0x69, 0x61, 0x6C, 0x2F, 0x67, 0x6C, 0x6F, 0x62, 0x61, 0x6C, 0x5F, 0x61, 0x76, 0x65, 0x72, 0x61, 0x67, 0x65, 0x5F, 0x70, 0x6F, 0x6F, 0x6C, 0x69, 0x6E, 0x67, 0x32, 0x64, 0x5F, 0x6F, 0x72, 0x69, 0x67, 0x2F, 0x4D, 0x65, 0x61, 0x6E, 0x2F, 0x72, 0x65, 0x64, 0x75, 0x63, 0x74, 0x69, 0x6F, 0x6E, 0x5F, 0x69, 0x6E, 0x64, 0x69, 0x63, 0x65, 0x73, 0x00, 0x01, 0x00, 0x00, 0x00, 0x02, 0x00, 0x00, 0x00, 0x14, 0x00, 0x1C, 0x00, 0x18, 0x00, 0x17, 0x00, 0x10, 0x00, 0x0C, 0x00, 0x08, 0x00, 0x00, 0x00, 0x00, 0x00, 0x04, 0x00, 0x14, 0x00, 0x00, 0x00, 0x18, 0x00, 0x00, 0x00, 0x34, 0x00, 0x00, 0x00, 0x50, 0x00, 0x00, 0x00, 0x01, 0x00, 0x00, 0x00, 0x00, 0x00, 0x00, 0x03, 0x50, 0x00, 0x00, 0x00, 0x04, 0x00, 0x00, 0x00, 0xFF, 0xFF, 0xFF, 0xFF, 0x40, 0x00, 0x00, 0x00, 0x1E, 0x00, 0x00, 0x00, 0x01, 0x00, 0x00, 0x00, 0x0C, 0x00, 0x0C, 0x00, 0x00, 0x00, 0x00, 0x00, 0x08, 0x00, 0x04, 0x00, 0x0C, 0x00, 0x00, 0x00, 0x08, 0x00, 0x00, 0x00, 0x10, 0x00, 0x00, 0x00, 0x01, 0x00, 0x00, 0x00, 0x00, 0x00, 0x00, 0x00, 0x00, 0x00, 0x00, 0x00, 0x01, 0x00, 0x00, 0x00, 0x81, 0x80, 0x80, 0x3B, 0x07, 0x00, 0x00, 0x00, 0x69, 0x6E, 0x70, 0x75, 0x74, 0x5F, 0x31, 0x00, 0x04, 0x00, 0x00, 0x00, 0x01, 0x00, 0x00, 0x00, 0x40, 0x00, 0x00, 0x00, 0x1E, 0x00, 0x00, 0x00, 0x01, 0x00, 0x00, 0x00, 0x09, 0x00, 0x00, 0x00, 0xC8, 0x00, 0x00, 0x00, 0xA8, 0x00, 0x00, 0x00, 0x88, 0x00, 0x00, 0x00, 0x74, 0x00, 0x00, 0x00, 0x68, 0x00, 0x00, 0x00, 0x4C, 0x00, 0x00, 0x00, 0x2C, 0x00, 0x00, 0x00, 0x18, 0x00, 0x00, 0x00, 0x04, 0x00, 0x00, 0x00, 0x84, 0xFF, 0xFF, 0xFF, 0x19, 0x00, 0x00, 0x00, 0x02, 0x00, 0x00, 0x00, 0x00, 0x00, 0x00, 0x19, 0x94, 0xFF, 0xFF, 0xFF, 0x09, 0x00, 0x00, 0x00, 0x04, 