/*
 * Full float32 model
 * Very bad memory usage - 128kb of tensor arena needed
 * Not working there for reasons to be defined
 */

#ifndef TENSORFLOW_LITE_MICRO_MODEL_H_
#define TENSORFLOW_LITE_MICRO_MODEL_H_

extern const unsigned char model_data[];
extern const int model_data_len;

#endif  // TENSORFLOW_LITE_MICRO_MODEL_H_

const int model_data_len = 18476;

alignas(8) const unsigned char model_data[] = 
{ 
0x1C, 0x00, 0x00, 0x00, 0x54, 0x46, 0x4C, 0x33, 0x14, 0x00, 0x20, 0x00, 0x04, 0x00, 0x08, 0x00, 0x0C, 0x00, 0x10, 0x00, 0x14, 0x00, 0x00, 0x00, 0x18, 0x00, 0x1C, 0x00, 0x14, 0x00, 0x00, 0x00, 0x03, 0x00, 0x00, 0x00, 0x18, 0x00, 0x00, 0x00, 0x38, 0x00, 0x00, 0x00, 0x68, 0x01, 0x00, 0x00, 0x38, 0x00, 0x00, 0x00, 0x10, 0x01, 0x00, 0x00, 0x08, 0x01, 0x00, 0x00, 0x08, 0x00, 0x00, 0x00, 0x28, 0x15, 0x00, 0x00, 0x9C, 0x12, 0x00, 0x00, 0xB0, 0x11, 0x00, 0x00, 0xF8, 0x10, 0x00, 0x00, 0x3C, 0x10, 0x00, 0x00, 0xE8, 0x04, 0x00, 0x00, 0x24, 0x04, 0x00, 0x00, 0xE8, 0x02, 0x00, 0x00, 0x01, 0x00, 0x00, 0x00, 0x54, 0x01, 0x00, 0x00, 0x35, 0x00, 0x00, 0x00, 0xBC, 0x47, 0x00, 0x00, 0xB8, 0x47, 0x00, 0x00, 0x4C, 0x46, 0x00, 0x00, 0x8C, 0x45, 0x00, 0x00, 0x00, 0x45, 0x00, 0x00, 0x70, 0x44, 0x00, 0x00, 0xE4, 0x43, 0x00, 0x00, 0x30, 0x43, 0x00, 0x00, 0x9C, 0x42, 0x00, 0x00, 0x28, 0x42, 0x00, 0x00, 0xA8, 0x41, 0x00, 0x00, 0xC0, 0x40, 0x00, 0x00, 0x3C, 0x40, 0x00, 0x00, 0xB4, 0x3F, 0x00, 0x00, 0x0C, 0x3F, 0x00, 0x00, 0x64, 0x3E, 0x00, 0x00, 0x7C, 0x3D, 0x00, 0x00, 0x94, 0x3C, 0x00, 0x00, 0x44, 0x2C, 0x00, 0x00, 0xF0, 0x28, 0x00, 0x00, 0x64, 0x28, 0x00, 0x00, 0xF4, 0x27, 0x00, 0x00, 0x64, 0x27, 0x00, 0x00, 0xDC, 0x25, 0x00, 0x00, 0x4C, 0x25, 0x00, 0x00, 0xB0, 0x24, 0x00, 0x00, 0x40, 0x22, 0x00, 0x00, 0x98, 0x1F, 0x00, 0x00, 0xE8, 0x1E, 0x00, 0x00, 0x2C, 0x1E, 0x00, 0x00, 0xBC, 0x15, 0x00, 0x00, 0x40, 0x47, 0x00, 0x00, 0x3C, 0x47, 0x00, 0x00, 0x38, 0x47, 0x00, 0x00, 0x34, 0x47, 0x00, 0x00, 0x30, 0x47, 0x00, 0x00, 0x2C, 0x47, 0x00, 0x00, 0x28, 0x47, 0x00, 0x00, 0x24, 0x47, 0x00, 0x00, 0x20, 0x47, 0x00, 0x00, 0x1C, 0x47, 0x00, 0x00, 0x18, 0x47, 0x00, 0x00, 0x14, 0x47, 0x00, 0x00, 0x10, 0x47, 0x00, 0x00, 0x0C, 0x47, 0x00, 0x00, 0x08, 0x47, 0x00, 0x00, 0x04, 0x47, 0x00, 0x00, 0x00, 0x47, 0x00, 0x00, 0xFC, 0x46, 0x00, 0x00, 0xF8, 0x46, 0x00, 0x00, 0xF4, 0x46, 0x00, 0x00, 0xF0, 0x46, 0x00, 0x00, 0x3C, 0x00, 0x00, 0x00, 0x00, 0x00, 0x00, 0x00, 0x01, 0x00, 0x00, 0x00, 0x0C, 0x00, 0x00, 0x00, 0x08, 0x00, 0x0C, 0x00, 0x04, 0x00, 0x08, 0x00, 0x08, 0x00, 0x00, 0x00, 0x08, 0x00, 0x00, 0x00, 0x34, 0x00, 0x00, 0x00, 0x13, 0x00, 0x00, 0x00, 0x6D, 0x69, 0x6E, 0x5F, 0x72, 0x75, 0x6E, 0x74, 0x69, 0x6D, 0x65, 0x5F, 0x76, 0x65, 0x72, 0x73, 0x69, 0x6F, 0x6E, 0x00, 0xBE, 0xBA, 0xFF, 0xFF, 0x04, 0x00, 0x00, 0x00, 0x10, 0x00, 0x00, 0x00, 0x31, 0x2E, 0x36, 0x2E, 0x30, 0x00, 0x00, 0x00, 0x00, 0x00, 0x00, 0x00, 0x00, 0x00, 0x00, 0x00, 0x0F, 0x00, 0x00, 0x00, 0x4D, 0x4C, 0x49, 0x52, 0x20, 0x43, 0x6F, 0x6E, 0x76, 0x65, 0x72, 0x74, 0x65, 0x64, 0x2E, 0x00, 0x00, 0x00, 0x0E, 0x00, 0x18, 0x00, 0x04, 0x00, 0x08, 0x00, 0x0C, 0x00, 0x10, 0x00, 0x14, 0x00, 0x0E, 0x00, 0x00, 0x00, 0x14, 0x00, 0x00, 0x00, 0xE0, 0x00, 0x00, 0x00, 0xE4, 0x00, 0x00, 0x00, 0xE8, 0x00, 0x00, 0x00, 0x3C, 0x01, 0x00, 0x00, 0x33, 0x00, 0x00, 0x00, 0x00, 0x46, 0x00, 0x00, 0x84, 0x45, 0x00, 0x00, 0x74, 0x44, 0x00, 0x00, 0xAC, 0x43, 0x00, 0x00, 0x38, 0x43, 0x00, 0x00, 0xA4, 0x42, 0x00, 0x00, 0x18, 0x42, 0x00, 0x00, 0x64, 0x41, 0x00, 0x00, 0xD4, 0x40, 0x00, 0x00, 0x68, 0x40, 0x00, 0x00, 0xE8, 0x3F, 0x00, 0x00, 0x04, 0x3F, 0x00, 0x00, 0x7C, 0x3E, 0x00, 0x00, 0xF4, 0x3D, 0x00, 0x00, 0x4C, 0x3D, 0x00, 0x00, 0xA4, 0x3C, 0x00, 0x00, 0xBC, 0x3B, 0x00, 0x00, 0xEC, 0x3A, 0x00, 0x00, 0x98, 0x2A, 0x00, 0x00, 0x30, 0x27, 0x00, 0x00, 0xA0, 0x26, 0x00, 0x00, 0x2C, 0x26, 0x00, 0x00, 0xA4, 0x25, 0x00, 0x00, 0x14, 0x24, 0x00, 0x00, 0x78, 0x23, 0x00, 0x00, 0xE8, 0x22, 0x00, 0x00, 0x80, 0x20, 0x00, 0x00, 0xD0, 0x1D, 0x00, 0x00, 0x14, 0x1D, 0x00, 0x00, 0x64, 0x1C, 0x00, 0x00, 0x2C, 0x13, 0x00, 0x00, 0x2C, 0x12, 0x00, 0x00, 0x9C, 0x10, 0x00, 0x00, 0xB0, 0x0F, 0x00, 0x00, 0xF0, 0x0E, 0x00, 0x00, 0x3C, 0x0E, 0x00, 0x00, 0x98, 0x0C, 0x00, 0x00, 0xD0, 0x0B, 0x00, 0x00, 0x54, 0x0A, 0x00, 0x00, 0x94, 0x09, 0x00, 0x00, 0xE4, 0x08, 0x00, 0x00, 0x44, 0x08, 0x00, 0x00, 0xD0, 0x06, 0x00, 0x00, 0x08, 0x06, 0x00, 0x00, 0xC4, 0x04, 0x00, 0x00, 0x04, 0x04, 0x00, 0x00, 0x54, 0x03, 0x00, 0x00, 0xBC, 0x02, 0x00, 0x00, 0xF8, 0x01, 0x00, 0x00, 0x34, 0x01, 0x00, 0x00, 0xB8, 0x00, 0x00, 0x00, 0x01, 0x00, 0x00, 0x00, 0x00, 0x00, 0x00, 0x00, 0x01, 0x00, 0x00, 0x00, 0x32, 0x00, 0x00, 0x00, 0x15, 0x00, 0x00, 0x00, 0x58, 0x12, 0x00, 0x00, 0x78, 0x11, 0x00, 0x00, 0xD8, 0x0F, 0x00, 0x00, 0x08, 0x0F, 0x00, 0x00, 0x44, 0x0E, 0x00, 0x00, 0x74, 0x0D, 0x00, 0x00, 0xF0, 0x0B, 0x00, 0x00, 0x28, 0x0B, 0x00, 0x00, 0xAC, 0x09, 0x00, 0x00, 0xFC, 0x08, 0x00, 0x00, 0x4C, 0x08, 0x00, 0x00, 0x9C, 0x07, 0x00, 0x00, 0x28, 0x06, 0x00, 0x00, 0x60, 0x05, 0x00, 0x00, 0x1C, 0x04, 0x00, 0x00, 0x6C, 0x03, 0x00, 0x00, 0xBC, 0x02, 0x00, 0x00, 0x14, 0x02, 0x00, 0x00, 0x40, 0x01, 0x00, 0x00, 0x98, 0x00, 0x00, 0x00, 0x10, 0x00, 0x00, 0x00, 0x04, 0x00, 0x00, 0x00, 0x6D, 0x61, 0x69, 0x6E, 0x00, 0x00, 0x00, 0x00, 0x8E, 0xF0, 0xFF, 0xFF, 0x00, 0x00, 0x00, 0x09, 0x07, 0x00, 0x00, 0x00, 0x1C, 0x00, 0x00, 0x00, 0x10, 0x00, 0x00, 0x00, 0x04, 0x00, 0x00, 0x00, 0x72, 0xBC, 0xFF, 0xFF, 0x00, 0x00, 0x80, 0x3F, 0x01, 0x00, 0x00, 0x00, 0x32, 0x00, 0x00, 0x00, 0x01, 0x00, 0x00, 0x00, 0x31, 0x00, 0x00, 0x00, 0xE8, 0xED, 0xFF, 0xFF, 0x19, 0x00, 0x00, 0x00, 0x00, 0x00, 0x00, 0x19, 0x01, 0x00, 0x00, 0x00, 0x94, 0xBB, 0xFF, 0xFF, 0x14, 0x00, 0x00, 0x00, 0x33, 0x00, 0x00, 0x00, 0x18, 0x00, 0x00, 0x00, 0x30, 0x00, 0x00, 0x00, 0x20, 0x00, 0x00, 0x00, 0x02, 0x00, 0x00, 0x00, 0x01, 0x00, 0x00, 0x00, 0x06, 0x00, 0x00, 0x00, 0x08, 0x00, 0x00, 0x00, 0x49, 0x64, 0x65, 0x6E, 0x74, 0x69, 0x74, 0x79, 0x00, 0x00, 0x00, 0x00, 0x02, 0x00, 0x00, 0x00, 0xFF, 0xFF, 0xFF, 0xFF, 0x06, 0x00, 0x00, 0x00, 0x70, 0xBB, 0xFF, 0xFF, 0x12, 0xF1, 0xFF, 0xFF, 0x00, 0x00, 0x00, 0x08, 0x06, 0x00, 0x00, 0x00, 0x18, 0x00, 0x00, 0x00, 0x0C, 0x00, 0x00, 0x00, 0x04, 0x00, 0x00, 0x00, 0x8C, 0xBB, 0xFF, 0xFF, 0x01, 0x00, 0x00, 0x00, 0x31, 0x00, 0x00, 0x00, 0x03, 0x00, 0x00, 0x00, 0x30, 0x00, 0x00, 0x00, 0x12, 0x00, 0x00, 0x00, 0x09, 0x00, 0x00, 0x00, 0x0C, 0xBC, 0xFF, 0xFF, 0x14, 0x00, 0x00, 0x00, 0x32, 0x00, 0x00, 0x00, 0x18, 0x00, 0x00, 0x00, 0x5C, 0x00, 0x00, 0x00, 0x4C, 0x00, 0x00, 0x00, 0x02, 0x00, 0x00, 0x00, 0x01, 0x00, 0x00, 0x00, 0x06, 0x00, 0x00, 0x00, 0x34, 0x00, 0x00, 0x00, 0x73, 0x65, 0x71, 0x75, 0x65, 0x6E, 0x74, 0x69, 0x61, 0x6C, 0x2F, 0x64, 0x65, 0x6E, 0x73, 0x65, 0x5F, 0x31, 0x2F, 0x4D, 0x61, 0x74, 0x4D, 0x75, 0x6C, 0x3B, 0x73, 0x65, 0x71, 0x75, 0x65, 0x6E, 0x74, 0x69, 0x61, 0x6C, 0x2F, 0x64, 0x65, 0x6E, 0x73, 0x65, 0x5F, 0x31, 0x2F, 0x42, 0x69, 0x61, 0x73, 0x41, 0x64, 0x64, 0x00, 0x00, 0x00, 0x00, 0x02, 0x00, 0x00, 0x00, 0xFF, 0xFF, 0xFF, 0xFF, 0x06, 0x00, 0x00, 0x00, 0x14, 0xBC, 0xFF, 0xFF, 0x0E, 0xF4, 0xFF, 0xFF, 0x00, 0x00, 0x00, 0x08, 0x06, 0x00, 0x00, 0x00, 0x24, 0x00, 0x00, 0x00, 0x18, 0x00, 0x00, 0x00, 0x0C, 0x00, 0x00, 0x00, 0x00, 0x00, 0x06, 0x00, 0x08, 0x00, 0x07, 0x00, 0x06, 0x00, 0x00, 0x00, 0x00, 0x00, 0x00, 0x01, 0x01, 0x00, 0x00, 0x00, 0x30, 0x00, 0x00, 0x00, 0x03, 0x00, 0x00, 0x00, 0x2F, 0x00, 0x00, 0x00, 0x11, 0x00, 0x00, 0x00, 0x0A, 0x00, 0x00, 0x00, 0x20, 0xEF, 0xFF, 0xFF, 0x09, 0x00, 0x00, 0x00, 0x00, 0x00, 0x00, 0x09, 0x01, 0x00, 0x00, 0x00, 0xCC, 0xBC, 0xFF, 0xFF, 0x14, 0x00, 0x00, 0x00, 0x31, 0x00, 0x00, 0x00, 0x18, 0x00, 0x00, 0x00, 0x6C, 0x00, 0x00, 0x00, 0x5C, 0x00, 0x00, 0x00, 0x02, 0x00, 0x00, 0x00, 0x01, 0x00, 0x00, 0x00, 0x20, 0x00, 0x00, 0x00, 0x46, 0x00, 0x00, 0x00, 0x73, 0x65, 0x71, 0x75, 0x65, 0x6E, 0x74, 0x69, 0x61, 0x6C, 0x2F, 0x64, 0x65, 0x6E, 0x73, 0x65, 0x2F, 0x4D, 0x61, 0x74, 0x4D, 0x75, 0x6C, 0x3B, 0x73, 0x65, 0x71, 0x75, 0x65, 0x6E, 0x74, 0x69, 0x61, 0x6C, 0x2F, 0x64, 0x65, 0x6E, 0x73, 0x65, 0x2F, 0x52, 0x65, 0x6C, 0x75, 0x3B, 0x73, 0x65, 0x71, 0x75, 0x65, 0x6E, 0x74, 0x69, 0x61, 0x6C, 0x2F, 0x64, 0x65, 0x6E, 0x73, 0x65, 0x2F, 0x42, 0x69, 0x61, 0x73, 0x41, 0x64, 0x64, 0x00, 0x00, 0x02, 0x00, 0x00, 0x00, 0xFF, 0xFF, 0xFF, 0xFF, 0x20, 0x00, 0x00, 0x00, 0xE4, 0xBC, 0xFF, 0xFF, 0x86, 0xF2, 0xFF, 0xFF, 0x00, 0x00, 0x00, 0x1B, 0x05, 0x00, 0x00, 0x00, 0x18, 0x00, 0x00, 0x00, 0x0C, 0x00, 0x00, 0x00, 0x04, 0x00, 0x00, 0x00, 0x00, 0xBD, 0xFF, 0xFF, 0x01, 0x00, 0x00, 0x00, 0x2F, 0x00, 0x00, 0x00, 0x02, 0x00, 0x00, 0x00, 0x2E, 0x00, 0x00, 0x00, 0x05, 0x00, 0x00, 0x00, 0xE0, 0xEF, 0xFF, 0xFF, 0x28, 0x00, 0x00, 0x00, 0x00, 0x00, 0x00, 0x28, 0x01, 0x00, 0x00, 0x00, 0x8C, 0xBD, 0xFF, 0xFF, 0x14, 0x00, 0x00, 0x00, 0x30, 0x00, 0x00, 0x00, 0x18, 0x00, 0x00, 0x00, 0x50, 0x00, 0x00, 0x00, 0x40, 0x00, 0x00, 0x00, 0x02, 0x00, 0x00, 0x00, 0x01, 0x00, 0x00, 0x00, 0x20, 0x00, 0x00, 0x00, 0x28, 0x00, 0x00, 0x00, 0x73, 0x65, 0x71, 0x75, 0x65, 0x6E, 0x74, 0x69, 0x61, 0x6C, 0x2F, 0x67, 0x6C, 0x6F, 0x62, 0x61, 0x6C, 0x5F, 0x61, 0x76, 0x65, 0x72, 0x61, 0x67, 0x65, 0x5F, 0x70, 0x6F, 0x6F, 0x6C, 0x69, 0x6E, 0x67, 0x32, 0x64, 0x2F, 0x4D, 0x65, 0x61, 0x6E, 0x00, 0x00, 0x00, 0x00, 0x02, 0x00, 0x00, 0x00, 0xFF, 0xFF, 0xFF, 0xFF, 0x20, 0x00, 0x00, 0x00, 0x88, 0xBD, 0xFF, 0xFF, 0x2A, 0xF3, 0xFF, 0xFF, 0x00, 0x00, 0x00, 0x0B, 0x03, 0x00, 0x00, 0x00, 0x18, 0x00, 0x00, 0x00, 0x0C, 0x00, 0x00, 0x00, 0x04, 0x00, 0x00, 0x00, 0xA4, 0xBD, 0xFF, 0xFF, 0x01, 0x00, 0x00, 0x00, 0x2E, 0x00, 0x00, 0x00, 0x02, 0x00, 0x00, 0x00, 0x2D, 0x00, 0x00, 0x00, 0x0F, 0x00, 0x00, 0x00, 0x20, 0xBE, 0xFF, 0xFF, 0x14, 0x00, 0x00, 0x00, 0x2F, 0x00, 0x00, 0x00, 0x20, 0x00, 0x00, 0x00, 0x68, 0x00, 0x00, 0x00, 0x50, 0x00, 0x00, 0x00, 0x04, 0x00, 0x00, 0x00, 0x01, 0x00, 0x00, 0x00, 0x10, 0x00, 0x00, 0x00, 0x07, 0x00, 0x00, 0x00, 0x20, 0x00, 0x00, 0x00, 0x32, 0x00, 0x00, 0x00, 0x73, 0x65, 0x71, 0x75, 0x65, 0x6E, 0x74, 0x69, 0x61, 0x6C, 0x2F, 0x62, 0x61, 0x74, 0x63, 0x68, 0x5F, 0x6E, 0x6F, 0x72, 0x6D, 0x61, 0x6C, 0x69, 0x7A, 0x61, 0x74, 0x69, 0x6F, 0x6E, 0x5F, 0x32, 0x2F, 0x46, 0x75, 0x73, 0x65, 0x64, 0x42, 0x61, 0x74, 0x63, 0x68, 0x4E, 0x6F, 0x72, 0x6D, 0x56, 0x33, 0x33, 0x00, 0x00, 0x04, 0x00, 0x00, 0x00, 0xFF, 0xFF, 0xFF, 0xFF, 0x10, 0x00, 0x00, 0x00, 0x07, 0x00, 0x00, 0x00, 0x20, 0x00, 0x00, 0x00, 0x34, 0xBE, 0xFF, 0xFF, 0xD6, 0xF3, 0xFF, 0xFF, 0x00, 0x00, 0x00, 0x15, 0x02, 0x00, 0x00, 0x00, 0x18, 0x00, 0x00, 0x00, 0x0C, 0x00, 0x00, 0x00, 0x04, 0x00, 0x00, 0x00, 0x50, 0xBE, 0xFF, 0xFF, 0x01, 0x00, 0x00, 0x00, 0x2D, 0x00, 0x00, 0x00, 0x02, 0x00, 0x00, 0x00, 0x2C, 0x00, 0x00, 0x00, 0x10, 0x00, 0x00, 0x00, 0xCC, 0xBE, 0xFF, 0xFF, 0x14, 0x00, 0x00, 0x00, 0x2E, 0x00, 0x00, 0x00, 0x20, 0x00, 0x00, 0x00, 0x68, 0x00, 0x00, 0x00, 0x50, 0x00, 0x00, 0x00, 0x04, 0x00, 0x00, 0x00, 0x01, 0x00, 0x00, 0x00, 0x10, 0x00, 0x00, 0x00, 0x07, 0x00, 0x00, 0x00, 0x20, 0x00, 0x00, 0x00, 0x32, 0x00, 0x00, 0x00, 0x73, 0x65, 0x71, 0x75, 0x65, 0x6E, 0x74, 0x69, 0x61, 0x6C, 0x2F, 0x62, 0x61, 0x74, 0x63, 0x68, 0x5F, 0x6E, 0x6F, 0x72, 0x6D, 0x61, 0x6C, 0x69, 0x7A, 0x61, 0x74, 0x69, 0x6F, 0x6E, 0x5F, 0x32, 0x2F, 0x46, 0x75, 0x73, 0x65, 0x64, 0x42, 0x61, 0x74, 0x63, 0x68, 0x4E, 0x6F, 0x72, 0x6D, 0x56, 0x33, 0x32, 0x00, 0x00, 0x04, 0x00, 0x00, 0x00, 0xFF, 0xFF, 0xFF, 0xFF, 0x10, 0x00, 0x00, 0x00, 0x07, 0x00, 0x00, 0x00, 0x20, 0x00, 0x00, 0x00, 0xE0, 0xBE, 0xFF, 0xFF, 0x82, 0xF4, 0xFF, 0xFF, 0x00, 0x00, 0x00, 0x01, 0x01, 0x00, 0x00, 0x00, 0x24, 0x00, 0x00, 0x00, 0x18, 0x00, 0x00, 0x00, 0x04, 0x00, 0x00, 0x00, 0x74, 0xF4, 0xFF, 0xFF, 0x01, 0x00, 0x00, 0x00, 0x01, 0x00, 0x00, 0x00, 0x00, 0x00, 0x01, 0x01, 0x01, 0x00, 0x00, 0x00, 0x2C, 0x00, 0x00, 0x00, 0x03, 0x00, 0x00, 0x00, 0x2B, 0x00, 0x00, 0x00, 0x1D, 0x00, 0x00, 0x00, 0x01, 0x00, 0x00, 0x00, 0x88, 0xBF, 0xFF, 0xFF, 0x14, 0x00, 0x00, 0x00, 0x2D, 0x00, 0x00, 0x00, 0x20, 0x00, 0x00, 0x00, 0xEC, 0x00, 0x00, 0x00, 0xD4, 0x00, 0x00, 0x00, 0x04, 0x00, 0x00, 0x00, 0x01, 0x00, 0x00, 0x00, 0x10, 0x00, 0x00, 0x00, 0x07, 0x00, 0x00, 0x00, 0x20, 0x00, 0x00, 0x00, 0xB5, 0x00, 0x00, 0x00, 0x73, 0x65, 0x71, 0x75, 0x65, 0x6E, 0x74, 0x69, 0x61, 0x6C, 0x2F, 0x73, 0x65, 0x70, 0x61, 0x72, 0x61, 0x62, 0x6C, 0x65, 0x5F, 0x63, 0x6F, 0x6E, 0x76, 0x32, 0x64, 0x5F, 0x32, 0x2F, 0x52, 0x65, 0x6C, 0x75, 0x3B, 0x73, 0x65, 0x71, 0x75, 0x65, 0x6E, 0x74, 0x69, 0x61, 0x6C, 0x2F, 0x73, 0x65, 0x70, 0x61, 0x72, 0x61, 0x62, 0x6C, 0x65, 0x5F, 0x63, 0x6F, 0x6E, 0x76, 0x32, 0x64, 0x5F, 0x32, 0x2F, 0x42, 0x69, 0x61, 0x73, 0x41, 0x64, 0x64, 0x3B, 0x73, 0x65, 0x71, 0x75, 0x65, 0x6E, 0x74, 0x69, 0x61, 0x6C, 0x2F, 0x73, 0x65, 0x70, 0x61, 0x72, 0x61, 0x62, 0x6C, 0x65, 0x5F, 0x63, 0x6F, 0x6E, 0x76, 0x32, 0x64, 0x5F, 0x32, 0x2F, 0x73, 0x65, 0x70, 0x61, 0x72, 0x61, 0x62, 0x6C, 0x65, 0x5F, 0x63, 0x6F, 0x6E, 0x76, 0x32, 0x64, 0x3B, 0x73, 0x65, 0x71, 0x75, 0x65, 0x6E, 0x74, 0x69, 0x61, 0x6C, 0x2F, 0x73, 0x65, 0x70, 0x61, 0x72, 0x61, 0x62, 0x6C, 0x65, 0x5F, 0x63, 0x6F, 0x6E, 0x76, 0x32, 0x64, 0x5F, 0x32, 0x2F, 0x42, 0x69, 0x61, 0x73, 0x41, 0x64, 0x64, 0x2F, 0x52, 0x65, 0x61, 0x64, 0x56, 0x61, 0x72, 0x69, 0x61, 0x62, 0x6C, 0x65, 0x4F, 0x70, 0x2F, 0x72, 0x65, 0x73, 0x6F, 0x75, 0x72, 0x63, 0x65, 0x00, 0x00, 0x00, 0x04, 0x00, 0x00, 0x00, 0xFF, 0xFF, 0xFF, 0xFF, 0x10, 0x00, 0x00, 0x00, 0x07, 0x00, 0x00, 0x00, 0x20, 0x00, 0x00, 0x00, 0x20, 0xC0, 0xFF, 0xFF, 0x26, 0xF4, 0xFF, 0xFF, 0x00, 0x00, 0x00, 0x02, 0x28, 0x00, 0x00, 0x00, 0x1C, 0x00, 0x00, 0x00, 0x04, 0x00, 0x00, 0x00, 0x18, 0xF4, 0xFF, 0xFF, 0x01, 0x00, 0x00, 0x00, 0x01, 0x00, 0x00, 0x00, 0x01, 0x00, 0x00, 0x00, 0x00, 0x00, 0x00, 0x01, 0x01, 0x00, 0x00, 0x00, 0x2B, 0x00, 0x00, 0x00, 0x03, 0x00, 0x00, 0x00, 0x2A, 0x00, 0x00, 0x00, 0x1C, 0x00, 0x00, 0x00, 0x1B, 0x00, 0x00, 0x00, 0xC8, 0xC0, 0xFF, 0xFF, 0x14, 0x00, 0x00, 0x00, 0x2C, 0x00, 0x00, 0x00, 0x20, 0x00, 0x00, 0x00, 0x70, 0x00, 0x00, 0x00, 0x58, 0x00, 0x00, 0x00, 0x04, 0x00, 0x00, 0x00, 0x01, 0x00, 0x00, 0x00, 0x10, 0x00, 0x00, 0x00, 0x07, 0x00, 0x00, 0x00, 0x10, 0x00, 0x00, 0x00, 0x39, 0x00, 0x00, 0x00, 0x73, 0x65, 0x71, 0x75, 0x65, 0x6E, 0x74, 0x69, 0x61, 0x6C, 0x2F, 0x73, 0x65, 0x70, 0x61, 0x72, 0x61, 0x62, 0x6C, 0x65, 0x5F, 0x63, 0x6F, 0x6E, 0x76, 0x32, 0x64, 0x5F, 0x32, 0x2F, 0x73, 0x65, 0x70, 0x61, 0x72, 0x61, 0x62, 0x6C, 0x65, 0x5F, 0x63, 0x6F, 0x6E, 0x76, 0x32, 0x64, 0x2F, 0x64, 0x65, 0x70, 0x74, 0x68, 0x77, 0x69, 0x73, 0x65, 0x32, 0x00, 0x00, 0x00, 0x04, 0x00, 0x00, 0x00, 0xFF, 0xFF, 0xFF, 0xFF, 0x10, 0x00, 0x00, 0x00, 0x07, 0x00, 0x00, 0x00, 0x10, 0x00, 0x00, 0x00, 0xE4, 0xC0, 0xFF, 0xFF, 0xEA, 0xF4, 0xFF, 0xFF, 0x00, 0x00, 0x00, 0x02, 0x28, 0x00, 0x00, 0x00, 0x1C, 0x00, 0x00, 0x00, 0x04, 0x00, 0x00, 0x00, 0xFE, 0xF3, 0xFF, 0xFF, 0x01, 0x00, 0x00, 0x00, 0x01, 0x00, 0x00, 0x00, 0x01, 0x00, 0x00, 0x00, 0x00, 0x00, 0x00, 0x01, 0x01, 0x00, 0x00, 0x00, 0x2A, 0x00, 0x00, 0x00, 0x03, 0x00, 0x00, 0x00, 0x29, 0x00, 0x00, 0x00, 0x1A, 0x00, 0x00, 0x00, 0x06, 0x00, 0x00, 0x00, 0x8C, 0xC1, 0xFF, 0xFF, 0x14, 0x00, 0x00, 0x00, 0x2B, 0x00, 0x00, 0x00, 0x20, 0x00, 0x00, 0x00, 0x1C, 0x01, 0x00, 0x00, 0x04, 0x01, 0x00, 0x00, 0x04, 0x00, 0x00, 0x00, 0x01, 0x00, 0x00, 0x00, 0x10, 0x00, 0x00, 0x00, 0x07, 0x00, 0x00, 0x00, 0x10, 0x00, 0x00, 0x00, 0xE7, 0x00, 0x00, 0x00, 0x73, 0x65, 0x71, 0x75, 0x65, 0x6E, 0x74, 0x69, 0x61, 0x6C, 0x2F, 0x64, 0x65, 0x70, 0x74, 0x68, 0x77, 0x69, 0x73, 0x65, 0x5F, 0x63, 0x6F, 0x6E, 0x76, 0x32, 0x64, 0x5F, 0x32, 0x2F, 0x52, 0x65, 0x6C, 0x75, 0x3B, 0x73, 0x65, 0x71, 0x75, 0x65, 0x6E, 0x74, 0x69, 0x61, 0x6C, 0x2F, 0x64, 0x65, 0x70, 0x74, 0x68, 0x77, 0x69, 0x73, 0x65, 0x5F, 0x63, 0x6F, 0x6E, 0x76, 0x32, 0x64, 0x5F, 0x32, 0x2F, 0x42, 0x69, 0x61, 0x73, 0x41, 0x64, 0x64, 0x3B, 0x73, 0x65, 0x71, 0x75, 0x65, 0x6E, 0x74, 0x69, 0x61, 0x6C, 0x2F, 0x73, 0x65, 0x70, 0x61, 0x72, 0x61, 0x62, 0x6C, 0x65, 0x5F, 0x63, 0x6F, 0x6E, 0x76, 0x32, 0x64, 0x5F, 0x32, 0x2F, 0x73, 0x65, 0x70, 0x61, 0x72, 0x61, 0x62, 0x6C, 0x65, 0x5F, 0x63, 0x6F, 0x6E, 0x76, 0x32, 0x64, 0x2F, 0x64, 0x65, 0x70, 0x74, 0x68, 0x77, 0x69, 0x73, 0x65, 0x3B, 0x73, 0x65, 0x71, 0x75, 0x65, 0x6E, 0x74, 0x69, 0x61, 0x6C, 0x2F, 0x64, 0x65, 0x70, 0x74, 0x68, 0x77, 0x69, 0x73, 0x65, 0x5F, 0x63, 0x6F, 0x6E, 0x76, 0x32, 0x64, 0x5F, 0x32, 0x2F, 0x64, 0x65, 0x70, 0x74, 0x68, 0x77, 0x69, 0x73, 0x65, 0x3B, 0x73, 0x65, 0x71, 0x75, 0x65, 0x6E, 0x74, 0x69, 0x61, 0x6C, 0x2F, 0x64, 0x65, 0x70, 0x74, 0x68, 0x77, 0x69, 0x73, 0x65, 0x5F, 0x63, 0x6F, 0x6E, 0x76, 0x32, 0x64, 0x5F, 0x32, 0x2F, 0x42, 0x69, 0x61, 0x73, 0x41, 0x64, 0x64, 0x2F, 0x52, 0x65, 0x61, 0x64, 0x56, 0x61, 0x72, 0x69, 0x61, 0x62, 0x6C, 0x65, 0x4F, 0x70, 0x2F, 0x72, 0x65, 0x73, 0x6F, 0x75, 0x72, 0x63, 0x65, 0x00, 0x04, 0x00, 0x00, 0x00, 0xFF, 0xFF, 0xFF, 0xFF, 0x10, 0x00, 0x00, 0x00, 0x07, 0x00, 0x00, 0x00, 0x10, 0x00, 0x00, 0x00, 0x54, 0xC2, 0xFF, 0xFF, 0xF6, 0xF7, 0xFF, 0xFF, 0x00, 0x00, 0x00, 0x05, 0x04, 0x00, 0x00, 0x00, 0x2C, 0x00, 0x00, 0x00, 0x20, 0x00, 0x00, 0x00, 0x04, 0x00, 0x00, 0x00, 0x3E, 0xFA, 0xFF, 0xFF, 0x02, 0x00, 0x00, 0x00, 0x02, 0x00, 0x00, 0x00, 0x02, 0x00, 0x00, 0x00, 0x02, 0x00, 0x00, 0x00, 0x00, 0x00, 0x00, 0x01, 0x01, 0x00, 0x00, 0x00, 0x29, 0x00, 0x00, 0x00, 0x01, 0x00, 0x00, 0x00, 0x28, 0x00, 0x00, 0x00, 0xFC, 0xC2, 0xFF, 0xFF, 0x14, 0x00, 0x00, 0x00, 0x2A, 0x00, 0x00, 0x00, 0x20, 0x00, 0x00, 0x00, 0x58, 0x00, 0x00, 0x00, 0x40, 0x00, 0x00, 0x00, 0x04, 0x00, 0x00, 0x00, 0x01, 0x00, 0x00, 0x00, 0x10, 0x00, 0x00, 0x00, 0x07, 0x00, 0x00, 0x00, 0x10, 0x00, 0x00, 0x00, 0x22, 0x00, 0x00, 0x00, 0x73, 0x65, 0x71, 0x75, 0x65, 0x6E, 0x74, 0x69, 0x61, 0x6C, 0x2F, 0x6D, 0x61, 0x78, 0x5F, 0x70, 0x6F, 0x6F, 0x6C, 0x69, 0x6E, 0x67, 0x32, 0x64, 0x5F, 0x31, 0x2F, 0x4D, 0x61, 0x78, 0x50, 0x6F, 0x6F, 0x6C, 0x00, 0x00, 0x04, 0x00, 0x00, 0x00, 0xFF, 0xFF, 0xFF, 0xFF, 0x10, 0x00, 0x00, 0x00, 0x07, 0x00, 0x00, 0x00, 0x10, 0x00, 0x00, 0x00, 0x00, 0xC3, 0xFF, 0xFF, 0xA2, 0xF8, 0xFF, 0xFF, 0x00, 0x00, 0x00, 0x0B, 0x03, 0x00, 0x00, 0x00, 0x18, 0x00, 0x00, 0x00, 0x0C, 0x00, 0x00, 0x00, 0x04, 0x00, 0x00, 0x00, 0x1C, 0xC3, 0xFF, 0xFF, 0x01, 0x00, 0x00, 0x00, 0x28, 0x00, 0x00, 0x00, 0x02, 0x00, 0x00, 0x00, 0x27, 0x00, 0x00, 0x00, 0x0D, 0x00, 0x00, 0x00, 0x98, 0xC3, 0xFF, 0xFF, 0x14, 0x00, 0x00, 0x00, 0x29, 0x00, 0x00, 0x00, 0x20, 0x00, 0x00, 0x00, 0x68, 0x00, 0x00, 0x00, 0x50, 0x00, 0x00, 0x00, 0x04, 0x00, 0x00, 0x00, 0x01, 0x00, 0x00, 0x00, 0x20, 0x00, 0x00, 0x00, 0x0F, 0x00, 0x00, 0x00, 0x10, 0x00, 0x00, 0x00, 0x32, 0x00, 0x00, 0x00, 0x73, 0x65, 0x71, 0x75, 0x65, 0x6E, 0x74, 0x69, 0x61, 0x6C, 0x2F, 0x62, 0x61, 0x74, 0x63, 0x68, 0x5F, 0x6E, 0x6F, 0x72, 0x6D, 0x61, 0x6C, 0x69, 0x7A, 0x61, 0x74, 0x69, 0x6F, 0x6E, 0x5F, 0x31, 0x2F, 0x46, 0x75, 0x73, 0x65, 0x64, 0x42, 0x61, 0x74, 0x63, 0x68, 0x4E, 0x6F, 0x72, 0x6D, 0x56, 0x33, 0x33, 0x00, 0x00, 0x04, 0x00, 0x00, 0x00, 0xFF, 0xFF, 0xFF, 0xFF, 0x20, 0x00, 0x00, 0x00, 0x0F, 0x00, 0x00, 0x00, 0x10, 0x00, 0x00, 0x00, 0xAC, 0xC3, 0xFF, 0xFF, 0x4E, 0xF9, 0xFF, 0xFF, 0x00, 0x00, 0x00, 0x15, 0x02, 0x00, 0x00, 0x00, 0x18, 0x00, 0x00, 0x00, 0x0C, 0x00, 0x00, 0x00, 0x04, 0x00, 0x00, 0x00, 0xC8, 0xC3, 0xFF, 0xFF, 0x01, 0x00, 0x00, 0x00, 0x27, 0x00, 0x00, 0x00, 0x02, 0x00, 0x00, 0x00, 0x26, 0x00, 0x00, 0x00, 0x0E, 0x00, 0x00, 0x00, 0x44, 0xC4, 0xFF, 0xFF, 0x14, 0x00, 0x00, 0x00, 0x28, 0x00, 0x00, 0x00, 0x20, 0x00, 0x00, 0x00, 0x68, 0x00, 0x00, 0x00, 0x50, 0x00, 0x00, 0x00, 0x04, 0x00, 0x00, 0x00, 0x01, 0x00, 0x00, 0x00, 0x20, 0x00, 0x00, 0x00, 0x0F, 0x00, 0x00, 0x00, 0x10, 0x00, 0x00, 0x00, 0x32, 0x00, 0x00, 0x00, 0x73, 0x65, 0x71, 0x75, 0x65, 0x6E, 0x74, 0x69, 0x61, 0x6C, 0x2F, 0x62, 0x61, 0x74, 0x63, 0x68, 0x5F, 0x6E, 0x6F, 0x72, 0x6D, 0x61, 0x6C, 0x69, 0x7A, 0x61, 0x74, 0x69, 0x6F, 0x6E, 0x5F, 0x31, 0x2F, 0x46, 0x75, 0x73, 0x65, 0x64, 0x42, 0x61, 0x74, 0x63, 0x68, 0x4E, 0x6F, 0x72, 0x6D, 0x56, 0x33, 0x32, 0x00, 0x00, 0x04, 0x00, 0x00, 0x00, 0xFF, 0xFF, 0xFF, 0xFF, 0x20, 0x00, 0x00, 0x00, 0x0F, 0x00, 0x00, 0x00, 0x10, 0x00, 0x00, 0x00, 0x58, 0xC4, 0xFF, 0xFF, 0xFA, 0xF9, 0xFF, 0xFF, 0x00, 0x00, 0x00, 0x01, 0x01, 0x00, 0x00, 0x00, 0x24, 0x00, 0x00, 0x00, 0x18, 0x00, 0x00, 0x00, 0x04, 0x00, 0x00, 0x00, 0xEC, 0xF9, 0xFF, 0xFF, 0x01, 0x00, 0x00, 0x00, 0x01, 0x00, 0x00, 0x00, 0x00, 0x00, 0x01, 0x01, 0x01, 0x00, 0x00, 0x00, 0x26, 0x00, 0x00, 0x00, 0x03, 0x00, 0x00, 0x00, 0x25, 0x00, 0x00, 0x00, 0x19, 0x00, 0x00, 0x00, 0x02, 0x00, 0x00, 0x00, 0x00, 0xC5, 0xFF, 0xFF, 0x14, 0x00, 0x00, 0x00, 0x27, 0x00, 0x00, 0x00, 0x20, 0x00, 0x00, 0x00, 0x24, 0x01, 0x00, 0x00, 0x0C, 0x01, 0x00, 0x00, 0x04, 0x00, 0x00, 0x00, 0x01, 0x00, 0x00, 0x00, 0x20, 0x00, 0x00, 0x00, 0x0F, 0x00, 0x00, 0x00, 0x10, 0x00, 0x00, 0x00, 0xEE, 0x00, 0x00, 0x00, 0x73, 0x65, 0x71, 0x75, 0x65, 0x6E, 0x74, 0x69, 0x61, 0x6C, 0x2F, 0x73, 0x65, 0x70, 0x61, 0x72, 0x61, 0x62, 0x6C, 0x65, 0x5F, 0x63, 0x6F, 0x6E, 0x76, 0x32, 0x64, 0x5F, 0x31, 0x2F, 0x52, 0x65, 0x6C, 0x75, 0x3B, 0x73, 0x65, 0x71, 0x75, 0x65, 0x6E, 0x74, 0x69, 0x61, 0x6C, 0x2F, 0x73, 0x65, 0x70, 0x61, 0x72, 0x61, 0x62, 0x6C, 0x65, 0x5F, 0x63, 0x6F, 0x6E, 0x76, 0x32, 0x64, 0x5F, 0x31, 0x2F, 0x42, 0x69, 0x61, 0x73, 0x41, 0x64, 0x64, 0x3B, 0x73, 0x65, 0x71, 0x75, 0x65, 0x6E, 0x74, 0x69, 0x61, 0x6C, 0x2F, 0x73, 0x65, 0x70, 0x61, 0x72, 0x61, 0x62, 0x6C, 0x65, 0x5F, 0x63, 0x6F, 0x6E, 0x76, 0x32, 0x64, 0x5F, 0x32, 0x2F, 0x73, 0x65, 0x70, 0x61, 0x72, 0x61, 0x62, 0x6C, 0x65, 0x5F, 0x63, 0x6F, 0x6E, 0x76, 0x32, 0x64, 0x2F, 0x64, 0x65, 0x70, 0x74, 0x68, 0x77, 0x69, 0x73, 0x65, 0x3B, 0x73, 0x65, 0x71, 0x75, 0x65, 0x6E, 0x74, 0x69, 0x61, 0x6C, 0x2F, 0x73, 0x65, 0x70, 0x61, 0x72, 0x61, 0x62, 0x6C, 0x65, 0x5F, 0x63, 0x6F, 0x6E, 0x76, 0x32, 0x64, 0x5F, 0x31, 0x2F, 0x73, 0x65, 0x70, 0x61, 0x72, 0x61, 0x62, 0x6C, 0x65, 0x5F, 0x63, 0x6F, 0x6E, 0x76, 0x32, 0x64, 0x3B, 0x73, 0x65, 0x71, 0x75, 0x65, 0x6E, 0x74, 0x69, 0x61, 0x6C, 0x2F, 0x73, 0x65, 0x70, 0x61, 0x72, 0x61, 0x62, 0x6C, 0x65, 0x5F, 0x63, 0x6F, 0x6E, 0x76, 0x32, 0x64, 0x5F, 0x31, 0x2F, 0x42, 0x69, 0x61, 0x73, 0x41, 0x64, 0x64, 0x2F, 0x52, 0x65, 0x61, 0x64, 0x56, 0x61, 0x72, 0x69, 0x61, 0x62, 0x6C, 0x65, 0x4F, 0x70, 0x2F, 0x72, 0x65, 0x73, 0x6F, 0x75, 0x72, 0x63, 0x65, 0x00, 0x00, 0x04, 0x00, 0x00, 0x00, 0xFF, 0xFF, 0xFF, 0xFF, 0x20, 0x00, 0x00, 0x00, 0x0F, 0x00, 0x00, 0x00, 0x10, 0x00, 0x00, 0x00, 0xD0, 0xC5, 0xFF, 0xFF, 0xD6, 0xF9, 0xFF, 0xFF, 0x00, 0x00, 0x00, 0x02, 0x28, 0x00, 0x00, 0x00, 0x1C, 0x00, 0x00, 0x00, 0x04, 0x00, 0x00, 0x00, 0xC8, 0xF9, 0xFF, 0xFF, 0x01, 0x00, 0x00, 0x00, 0x01, 0x00, 0x00, 0x00, 0x01, 0x00, 0x00, 0x00, 0x00, 0x00, 0x00, 0x01, 0x01, 0x00, 0x00, 0x00, 0x25, 0x00, 0x00, 0x00, 0x03, 0x00, 0x00, 0x00, 0x24, 0x00, 0x00, 0x00, 0x18, 0x00, 0x00, 0x00, 0x17, 0x00, 0x00, 0x00, 0x78, 0xC6, 0xFF, 0xFF, 0x14, 0x00, 0x00, 0x00, 0x26, 0x00, 0x00, 0x00, 0x20, 0x00, 0x00, 0x00, 0x70, 0x00, 0x00, 0x00, 0x58, 0x00, 0x00, 0x00, 0x04, 0x00, 0x00, 0x00, 0x01, 0x00, 0x00, 0x00, 0x20, 0x00, 0x00, 0x00, 0x0F, 0x00, 0x00, 0x00, 0x08, 0x00, 0x00, 0x00, 0x39, 0x00, 0x00, 0x00, 0x73, 0x65, 0x71, 0x75, 0x65, 0x6E, 0x74, 0x69, 0x61, 0x6C, 0x2F, 0x73, 0x65, 0x70, 0x61, 0x72, 0x61, 0x62, 0x6C, 0x65, 0x5F, 0x63, 0x6F, 0x6E, 0x76, 0x32, 0x64, 0x5F, 0x31, 0x2F, 0x73, 0x65, 0x70, 0x61, 0x72, 0x61, 0x62, 0x6C, 0x65, 0x5F, 0x63, 0x6F, 0x6E, 0x76, 0x32, 0x64, 0x2F, 0x64, 0x65, 0x70, 0x74, 0x68, 0x77, 0x69, 0x73, 0x65, 0x32, 0x00, 0x00, 0x00, 0x04, 0x00, 0x00, 0x00, 0xFF, 0xFF, 0xFF, 0xFF, 0x20, 0x00, 0x00, 0x00, 0x0F, 0x00, 0x00, 0x00, 0x08, 0x00, 0x00, 0x00, 0x94, 0xC6, 0xFF, 0xFF, 0x9A, 0xFA, 0xFF, 0xFF, 0x00, 0x00, 0x00, 0x02, 0x28, 0x00, 0x00, 0x00, 0x1C, 0x00, 0x00, 0x00, 0x04, 0x00, 0x00, 0x00, 0xAE, 0xF9, 0xFF, 0xFF, 0x01, 0x00, 0x00, 0x00, 0x01, 0x00, 0x00, 0x00, 0x01, 0x00, 0x00, 0x00, 0x00, 0x00, 0x00, 0x01, 0x01, 0x00, 0x00, 0x00, 0x24, 0x00, 0x00, 0x00, 0x03, 0x00, 0x00, 0x00, 0x23, 0x00, 0x00, 0x00, 0x16, 0x00, 0x00, 0x00, 0x07, 0x00, 0x00, 0x00, 0x3C, 0xC7, 0xFF, 0xFF, 0x14, 0x00, 0x00, 0x00, 0x25, 0x00, 0x00, 0x00, 0x20, 0x00, 0x00, 0x00, 0x1C, 0x01, 0x00, 0x00, 0x04, 0x01, 0x00, 0x00, 0x04, 0x00, 0x00, 0x00, 0x01, 0x00, 0x00, 0x00, 0x20, 0x00, 0x00, 0x00, 0x0F, 0x00, 0x00, 0x00, 0x08, 0x00, 0x00, 0x00, 0xE7, 0x00, 0x00, 0x00, 0x73, 0x65, 0x71, 0x75, 0x65, 0x6E, 0x74, 0x69, 0x61, 0x6C, 0x2F, 0x64, 0x65, 0x70, 0x74, 0x68, 0x77, 0x69, 0x73, 0x65, 0x5F, 0x63, 0x6F, 0x6E, 0x76, 0x32, 0x64, 0x5F, 0x31, 0x2F, 0x52, 0x65, 0x6C, 0x75, 0x3B, 0x73, 0x65, 0x71, 0x75, 0x65, 0x6E, 0x74, 0x69, 0x61, 0x6C, 0x2F, 0x64, 0x65, 0x70, 0x74, 0x68, 0x77, 0x69, 0x73, 0x65, 0x5F, 0x63, 0x6F, 0x6E, 0x76, 0x32, 0x64, 0x5F, 0x31, 0x2F, 0x42, 0x69, 0x61, 0x73, 0x41, 0x64, 0x64, 0x3B, 0x73, 0x65, 0x71, 0x75, 0x65, 0x6E, 0x74, 0x69, 0x61, 0x6C, 0x2F, 0x73, 0x65, 0x70, 0x61, 0x72, 0x61, 0x62, 0x6C, 0x65, 0x5F, 0x63, 0x6F, 0x6E, 0x76, 0x32, 0x64, 0x5F, 0x31, 0x2F, 0x73, 0x65, 0x70, 0x61, 0x72, 0x61, 0x62, 0x6C, 0x65, 0x5F, 0x63, 0x6F, 0x6E, 0x76, 0x32, 0x64, 0x2F, 0x64, 0x65, 0x70, 0x74, 0x68, 0x77, 0x69, 0x73, 0x65, 0x3B, 0x73, 0x65, 0x71, 0x75, 0x65, 0x6E, 0x74, 0x69, 0x61, 0x6C, 0x2F, 0x64, 0x65, 0x70, 0x74, 0x68, 0x77, 0x69, 0x73, 0x65, 0x5F, 0x63, 0x6F, 0x6E, 0x76, 0x32, 0x64, 0x5F, 0x31, 0x2F, 0x64, 0x65, 0x70, 0x74, 0x68, 0x77, 0x69, 0x73, 0x65, 0x3B, 0x73, 0x65, 0x71, 0x75, 0x65, 0x6E, 0x74, 0x69, 0x61, 0x6C, 0x2F, 0x64, 0x65, 0x70, 0x74, 0x68, 0x77, 0x69, 0x73, 0x65, 0x5F, 0x63, 0x6F, 0x6E, 0x76, 0x32, 0x64, 0x5F, 0x31, 0x2F, 0x42, 0x69, 0x61, 0x73, 0x41, 0x64, 0x64, 0x2F, 0x52, 0x65, 0x61, 0x64, 0x56, 0x61, 0x72, 0x69, 0x61, 0x62, 0x6C, 0x65, 0x4F, 0x70, 0x2F, 0x72, 0x65, 0x73, 0x6F, 0x75, 0x72, 0x63, 0x65, 0x00, 0x04, 0x00, 0x00, 0x00, 0xFF, 0xFF, 0xFF, 0xFF, 0x20, 0x00, 0x00, 0x00, 0x0F, 0x00, 0x00, 0x00, 0x08, 0x00, 0x00, 0x00, 0x78, 0xC9, 0xFF, 0xFF, 0x00, 0x00, 0x0E, 0x00, 0x1A, 0x00, 0x08, 0x00, 0x0C, 0x00, 0x10, 0x00, 0x07, 0x00, 0x14, 0x00, 0x0E, 0x00, 0x00, 0x00, 0x00, 0x00, 0x00, 0x05, 0x04, 0x00, 0x00, 0x00, 0x3C, 0x00, 0x00, 0x00, 0x30, 0x00, 0x00, 0x00, 0x14, 0x00, 0x00, 0x00, 0x00, 0x00, 0x0E, 0x00, 0x18, 0x00, 0x17, 0x00, 0x10, 0x00, 0x0C, 0x00, 0x08, 0x00, 0x04, 0x00, 0x0E, 0x00, 0x00, 0x00, 0x02, 0x00, 0x00, 0x00, 0x02, 0x00, 0x00, 0x00, 0x02, 0x00, 0x00, 0x00, 0x02, 0x00, 0x00, 0x00, 0x00, 0x00, 0x00, 0x01, 0x01, 0x00, 0x00, 0x00, 0x23, 0x00, 0x00, 0x00, 0x01, 0x00, 0x00, 0x00, 0x22, 0x00, 0x00, 0x00, 0x30, 0xFB, 0xFF, 0xFF, 0x11, 0x00, 0x00, 0x00, 0x00, 0x00, 0x00, 0x11, 0x01, 0x00, 0x00, 0x00, 0xDC, 0xC8, 0xFF, 0xFF, 0x14, 0x00, 0x00, 0x00, 0x24, 0x00, 0x00, 0x00, 0x20, 0x00, 0x00, 0x00, 0x58, 0x00, 0x00, 0x00, 0x40, 0x00, 0x00, 0x00, 0x04, 0x00, 0x00, 0x00, 0x01, 0x00, 0x00, 0x00, 0x20, 0x00, 0x00, 0x00, 0x0F, 0x00, 0x00, 0x00, 0x08, 0x00, 0x00, 0x00, 0x20, 0x00, 0x00, 0x00, 0x73, 0x65, 0x71, 0x75, 0x65, 0x6E, 0x74, 0x69, 0x61, 0x6C, 0x2F, 0x6D, 0x61, 0x78, 0x5F, 0x70, 0x6F, 0x6F, 0x6C, 0x69, 0x6E, 0x67, 0x32, 0x64, 0x2F, 0x4D, 0x61, 0x78, 0x50, 0x6F, 0x6F, 0x6C, 0x00, 0x00, 0x00, 0x00, 0x04, 0x00, 0x00, 0x00, 0xFF, 0xFF, 0xFF, 0xFF, 0x20, 0x00, 0x00, 0x00, 0x0F, 0x00, 0x00, 0x00, 0x08, 0x00, 0x00, 0x00, 0xE0, 0xC8, 0xFF, 0xFF, 0x82, 0xFE, 0xFF, 0xFF, 0x00, 0x00, 0x00, 0x0B, 0x03, 0x00, 0x00, 0x00, 0x18, 0x00, 0x00, 0x00, 0x0C, 0x00, 0x00, 0x00, 0x04, 0x00, 0x00, 0x00, 0xFC, 0xC8, 0xFF, 0xFF, 0x01, 0x00, 0x00, 0x00, 0x22, 0x00, 0x00, 0x00, 0x02, 0x00, 0x00, 0x00, 0x21, 0x00, 0x00, 0x00, 0x0B, 0x00, 0x00, 0x00, 0x00, 0x00, 0x0A, 0x00, 0x08, 0x00, 0x00, 0x00, 0x00, 0x00, 0x04, 0x00, 0x0A, 0x00, 0x00, 0x00, 0x01, 0x00, 0x00, 0x00, 0x8C, 0xC9, 0xFF, 0xFF, 0x14, 0x00, 0x00, 0x00, 0x23, 0x00, 0x00, 0x00, 0x20, 0x00, 0x00, 0x00, 0x68, 0x00, 0x00, 0x00, 0x50, 0x00, 0x00, 0x00, 0x04, 0x00, 0x00, 0x00, 0x01, 0x00, 0x00, 0x00, 0x40, 0x00, 0x00, 0x00, 0x1E, 0x00, 0x00, 0x00, 0x08, 0x00, 0x00, 0x00, 0x30, 0x00, 0x00, 0x00, 0x73, 0x65, 0x71, 0x75, 0x65, 0x6E, 0x74, 0x69, 0x61, 0x6C, 0x2F, 0x62, 0x61, 0x74, 0x63, 0x68, 0x5F, 0x6E, 0x6F, 0x72, 0x6D, 0x61, 0x6C, 0x69, 0x7A, 0x61, 0x74, 0x69, 0x6F, 0x6E, 0x2F, 0x46, 0x75, 0x73, 0x65, 0x64, 0x42, 0x61, 0x74, 0x63, 0x68, 0x4E, 0x6F, 0x72, 0x6D, 0x56, 0x33, 0x33, 0x00, 0x00, 0x00, 0x00, 0x04, 0x00, 0x00, 0x00, 0xFF, 0xFF, 0xFF, 0xFF, 0x40, 0x00, 0x00, 0x00, 0x1E, 0x00, 0x00, 0x00, 0x08, 0x00, 0x00, 0x00, 0xA0, 0xC9, 0xFF, 0xFF, 0x42, 0xFF, 0xFF, 0xFF, 0x00, 0x00, 0x00, 0x15, 0x02, 0x00, 0x00, 0x00, 0x18, 0x00, 0x00, 0x00, 0x0C, 0x00, 0x00, 0x00, 0x04, 0x00, 0x00, 0x00, 0xBC, 0xC9, 0xFF, 0xFF, 0x01, 0x00, 0x00, 0x00, 0x21, 0x00, 0x00, 0x00, 0x02, 0x00, 0x00, 0x00, 0x20, 0x00, 0x00, 0x00, 0x0C, 0x00, 0x00, 0x00, 0x9C, 0xFC, 0xFF, 0xFF, 0x12, 0x00, 0x00, 0x00, 0x00, 0x00, 0x00, 0x12, 0x01, 0x00, 0x00, 0x00, 0x48, 0xCA, 0xFF, 0xFF, 0x14, 0x00, 0x00, 0x00, 0x22, 0x00, 0x00, 0x00, 0x20, 0x00, 0x00, 0x00, 0x68, 0x00, 0x00, 0x00, 0x50, 0x00, 0x00, 0x00, 0x04, 0x00, 0x00, 0x00, 0x01, 0x00, 0x00, 0x00, 0x40, 0x00, 0x00, 0x00, 0x1E, 0x00, 0x00, 0x00, 0x08, 0x00, 0x00, 0x00, 0x30, 0x00, 0x00, 0x00, 0x73, 0x65, 0x71, 0x75, 0x65, 0x6E, 0x74, 0x69, 0x61, 0x6C, 0x2F, 0x62, 0x61, 0x74, 0x63, 0x68, 0x5F, 0x6E, 0x6F, 0x72, 0x6D, 0x61, 0x6C, 0x69, 0x7A, 0x61, 0x74, 0x69, 0x6F, 0x6E, 0x2F, 0x46, 0x75, 0x73, 0x65, 0x64, 0x42, 0x61, 0x74, 0x63, 0x68, 0x4E, 0x6F, 0x72, 0x6D, 0x56, 0x33, 0x32, 0x00, 0x00, 0x00, 0x00, 0x04, 0x00, 0x00, 0x00, 0xFF, 0xFF, 0xFF, 0xFF, 0x40, 0x00, 0x00, 0x00, 0x1E, 0x00, 0x00, 0x00, 0x08, 0x00, 0x00, 0x00, 0xD0, 0xCB, 0xFF, 0xFF, 0x00, 0x00, 0x0E, 0x00, 0x18, 0x00, 0x08, 0x00, 0x0C, 0x00, 0x10, 0x00, 0x07, 0x00, 0x14, 0x00, 0x0E, 0x00, 0x00, 0x00, 0x00, 0x00, 0x00, 0x01, 0x01, 0x00, 0x00, 0x00, 0x30, 0x00, 0x00, 0x00, 0x24, 0x00, 0x00, 0x00, 0x10, 0x00, 0x00, 0x00, 0x0C, 0x00, 0x10, 0x00, 0x0E, 0x00, 0x04, 0x00, 0x08, 0x00, 0x0F, 0x00, 0x0C, 0x00, 0x00, 0x00, 0x01, 0x00, 0x00, 0x00, 0x01, 0x00, 0x00, 0x00, 0x00, 0x00, 0x01, 0x01, 0x01, 0x00, 0x00, 0x00, 0x20, 0x00, 0x00, 0x00, 0x03, 0x00, 0x00, 0x00, 0x1F, 0x00, 0x00, 0x00, 0x15, 0x00, 0x00, 0x00, 0x04, 0x00, 0x00, 0x00, 0x84, 0xFD, 0xFF, 0xFF, 0x03, 0x00, 0x00, 0x00, 0x00, 0x00, 0x00, 0x03, 0x01, 0x00, 0x00, 0x00, 0x30, 0xCB, 0xFF, 0xFF, 0x14, 0x00, 0x00, 0x00, 0x21, 0x00, 0x00, 0x00, 0x20, 0x00, 0x00, 0x00, 0x1C, 0x01, 0x00, 0x00, 0x04, 0x01, 0x00, 0x00, 0x04, 0x00, 0x00, 0x00, 0x01, 0x00, 0x00, 0x00, 0x40, 0x00, 0x00, 0x00, 0x1E, 0x00, 0x00, 0x00, 0x08, 0x00, 0x00, 0x00, 0xE6, 0x00, 0x00, 0x00, 0x73, 0x65, 0x71, 0x75, 0x65, 0x6E, 0x74, 0x69, 0x61, 0x6C, 0x2F, 0x73, 0x65, 0x70, 0x61, 0x72, 0x61, 0x62, 0x6C, 0x65, 0x5F, 0x63, 0x6F, 0x6E, 0x76, 0x32, 0x64, 0x2F, 0x52, 0x65, 0x6C, 0x75, 0x3B, 0x73, 0x65, 0x71, 0x75, 0x65, 0x6E, 0x74, 0x69, 0x61, 0x6C, 0x2F, 0x73, 0x65, 0x70, 0x61, 0x72, 0x61, 0x62, 0x6C, 0x65, 0x5F, 0x63, 0x6F, 0x6E, 0x76, 0x32, 0x64, 0x2F, 0x42, 0x69, 0x61, 0x73, 0x41, 0x64, 0x64, 0x3B, 0x73, 0x65, 0x71, 0x75, 0x65, 0x6E, 0x74, 0x69, 0x61, 0x6C, 0x2F, 0x73, 0x65, 0x70, 0x61, 0x72, 0x61, 0x62, 0x6C, 0x65, 0x5F, 0x63, 0x6F, 0x6E, 0x76, 0x32, 0x64, 0x5F, 0x31, 0x2F, 0x73, 0x65, 0x70, 0x61, 0x72, 0x61, 0x62, 0x6C, 0x65, 0x5F, 0x63, 0x6F, 0x6E, 0x76, 0x32, 0x64, 0x2F, 0x64, 0x65, 0x70, 0x74, 0x68, 0x77, 0x69, 0x73, 0x65, 0x3B, 0x73, 0x65, 0x71, 0x75, 0x65, 0x6E, 0x74, 0x69, 0x61, 0x6C, 0x2F, 0x73, 0x65, 0x70, 0x61, 0x72, 0x61, 0x62, 0x6C, 0x65, 0x5F, 0x63, 0x6F, 0x6E, 0x76, 0x32, 0x64, 0x2F, 0x73, 0x65, 0x70, 0x61, 0x72, 0x61, 0x62, 0x6C, 0x65, 0x5F, 0x63, 0x6F, 0x6E, 0x76, 0x32, 0x64, 0x3B, 0x73, 0x65, 0x71, 0x75, 0x65, 0x6E, 0x74, 0x69, 0x61, 0x6C, 0x2F, 0x73, 0x65, 0x70, 0x61, 0x72, 0x61, 0x62, 0x6C, 0x65, 0x5F, 0x63, 0x6F, 0x6E, 0x76, 0x32, 0x64, 0x2F, 0x42, 0x69, 0x61, 0x73, 0x41, 0x64, 0x64, 0x2F, 0x52, 0x65, 0x61, 0x64, 0x56, 0x61, 0x72, 0x69, 0x61, 0x62, 0x6C, 0x65, 0x4F, 0x70, 0x2F, 0x72, 0x65, 0x73, 0x6F, 0x75, 0x72, 0x63, 0x65, 0x00, 0x00, 0x04, 0x00, 0x00, 0x00, 0xFF, 0xFF, 0xFF, 0xFF, 0x40, 0x00, 0x00, 0x00, 0x1E, 0x00, 0x00, 0x00, 0x08, 0x00, 0x00, 0x00, 0x6C, 0xCD, 0xFF, 0xFF, 0x00, 0x00, 0x0E, 0x00, 0x14, 0x00, 0x00, 0x00, 0x08, 0x00, 0x0C, 0x00, 0x07, 0x00, 0x10, 0x00, 0x0E, 0x00, 0x00, 0x00, 0x00, 0x00, 0x00, 0x02, 0x34, 0x00, 0x00, 0x00, 0x28, 0x00, 0x00, 0x00, 0x10, 0x00, 0x00, 0x00, 0x0C, 0x00, 0x14, 0x00, 0x13, 0x00, 0x08, 0x00, 0x0C, 0x00, 0x04, 0x00, 0x0C, 0x00, 0x00, 0x00, 0x01, 0x00, 0x00, 0x00, 0x01, 0x00, 0x00, 0x00, 0x01, 0x00, 0x00, 0x00, 0x00, 0x00, 0x00, 0x01, 0x01, 0x00, 0x00, 0x00, 0x1F, 0x00, 0x00, 0x00, 0x03, 0x00, 0x00, 0x00, 0x1E, 0x00, 0x00, 0x00, 0x03, 0x00, 0x00, 0x00, 0x14, 0x00, 0x00, 0x00, 0xBC, 0xCC, 0xFF, 0xFF, 0x14, 0x00, 0x00, 0x00, 0x20, 0x00, 0x00, 0x00, 0x20, 0x00, 0x00, 0x00, 0x6C, 0x00, 0x00, 0x00, 0x54, 0x00, 0x00, 0x00, 0x04, 0x00, 0x00, 0x00, 0x01, 0x00, 0x00, 0x00, 0x40, 0x00, 0x00, 0x00, 0x1E, 0x00, 0x00, 0x00, 0x01, 0x00, 0x00, 0x00, 0x37, 0x00, 0x00, 0x00, 0x73, 0x65, 0x71, 0x75, 0x65, 0x6E, 0x74, 0x69, 0x61, 0x6C, 0x2F, 0x73, 0x65, 0x70, 0x61, 0x72, 0x61, 0x62, 0x6C, 0x65, 0x5F, 0x63, 0x6F, 0x6E, 0x76, 0x32, 0x64, 0x2F, 0x73, 0x65, 0x70, 0x61, 0x72, 0x61, 0x62, 0x6C, 0x65, 0x5F, 0x63, 0x6F, 0x6E, 0x76, 0x32, 0x64, 0x2F, 0x64, 0x65, 0x70, 0x74, 0x68, 0x77, 0x69, 0x73, 0x65, 0x31, 0x00, 0x04, 0x00, 0x00, 0x00, 0xFF, 0xFF, 0xFF, 0xFF, 0x40, 0x00, 0x00, 0x00, 0x1E, 0x00, 0x00, 0x00, 0x01, 0x00, 0x00, 0x00, 0x48, 0xCE, 0xFF, 0xFF, 0x00, 0x00, 0x0E, 0x00, 0x16, 0x00, 0x00, 0x00, 0x08, 0x00, 0x0C, 0x00, 0x07, 0x00, 0x10, 0x00, 0x0E, 0x00, 0x00, 0x00, 0x00, 0x00, 0x00, 0x02, 0x38, 0x00, 0x00, 0x00, 0x2C, 0x00, 0x00, 0x00, 0x14, 0x00, 0x00, 0x00, 0x00, 0x00, 0x0E, 0x00, 0x14, 0x00, 0x00, 0x00, 0x08, 0x00, 0x0C, 0x00, 0x04, 0x00, 0x13, 0x00, 0x0E, 0x00, 0x00, 0x00, 0x01, 0x00, 0x00, 0x00, 0x01, 0x00, 0x00, 0x00, 0x01, 0x00, 0x00, 0x00, 0x00, 0x00, 0x00, 0x01, 0x01, 0x00, 0x00, 0x00, 0x1E, 0x00, 0x00, 0x00, 0x03, 0x00, 0x00, 0x00, 0x00, 0x00, 0x00, 0x00, 0x13, 0x00, 0x00, 0x00, 0x08, 0x00, 0x00, 0x00, 0x0C, 0x00, 0x10, 0x00, 0x0B, 0x00, 0x00, 0x00, 0x0C, 0x00, 0x04, 0x00, 0x0C, 0x00, 0x00, 0x00, 0x04, 0x00, 0x00, 0x00, 0x00, 0x00, 0x00, 0x04, 0x01, 0x00, 0x00, 0x00, 0xB8, 0xCD, 0xFF, 0xFF, 0x14, 0x00, 0x00, 0x00, 0x1F, 0x00, 0x00, 0x00, 0x20, 0x00, 0x00, 0x00, 0x14, 0x01, 0x00, 0x00, 0xFC, 0x00, 0x00, 0x00, 0x04, 0x00, 0x00, 0x00, 0x01, 0x00, 0x00, 0x00, 0x40, 0x00, 0x00, 0x00, 0x1E, 0x00, 0x00, 0x00, 0x01, 0x00, 0x00, 0x00, 0xDD, 0x00, 0x00, 0x00, 0x73, 0x65, 0x71, 0x75, 0x65, 0x6E, 0x74, 0x69, 0x61, 0x6C, 0x2F, 0x64, 0x65, 0x70, 0x74, 0x68, 0x77, 0x69, 0x73, 0x65, 0x5F, 0x63, 0x6F, 0x6E, 0x76, 0x32, 0x64, 0x2F, 0x52, 0x65, 0x6C, 0x75, 0x3B, 0x73, 0x65, 0x71, 0x75, 0x65, 0x6E, 0x74, 0x69, 0x61, 0x6C, 0x2F, 0x64, 0x65, 0x70, 0x74, 0x68, 0x77, 0x69, 0x73, 0x65, 0x5F, 0x63, 0x6F, 0x6E, 0x76, 0x32, 0x64, 0x2F, 0x42, 0x69, 0x61, 0x73, 0x41, 0x64, 0x64, 0x3B, 0x73, 0x65, 0x71, 0x75, 0x65, 0x6E, 0x74, 0x69, 0x61, 0x6C, 0x2F, 0x73, 0x65, 0x70, 0x61, 0x72, 0x61, 0x62, 0x6C, 0x65, 0x5F, 0x63, 0x6F, 0x6E, 0x76, 0x32, 0x64, 0x2F, 0x73, 0x65, 0x70, 0x61, 0x72, 0x61, 0x62, 0x6C, 0x65, 0x5F, 0x63, 0x6F, 0x6E, 0x76, 0x32, 0x64, 0x2F, 0x64, 0x65, 0x70, 0x74, 0x68, 0x77, 0x69, 0x73, 0x65, 0x3B, 0x73, 0x65, 0x71, 0x75, 0x65, 0x6E, 0x74, 0x69, 0x61, 0x6C, 0x2F, 0x64, 0x65, 0x70, 0x74, 0x68, 0x77, 0x69, 0x73, 0x65, 0x5F, 0x63, 0x6F, 0x6E, 0x76, 0x32, 0x64, 0x2F, 0x64, 0x65, 0x70, 0x74, 0x68, 0x77, 0x69, 0x73, 0x65, 0x3B, 0x73, 0x65, 0x71, 0x75, 0x65, 0x6E, 0x74, 0x69, 0x61, 0x6C, 0x2F, 0x64, 0x65, 0x70, 0x74, 0x68, 0x77, 0x69, 0x73, 0x65, 0x5F, 0x63, 0x6F, 0x6E, 0x76, 0x32, 0x64, 0x2F, 0x42, 0x69, 0x61, 0x73, 0x41, 0x64, 0x64, 0x2F, 0x52, 0x65, 0x61, 0x64, 0x56, 0x61, 0x72, 0x69, 0x61, 0x62, 0x6C, 0x65, 0x4F, 0x70, 0x2F, 0x72, 0x65, 0x73, 0x6F, 0x75, 0x72, 0x63, 0x65, 0x00, 0x00, 0x00, 0x04, 0x00, 0x00, 0x00, 0xFF, 0xFF, 0xFF, 0xFF, 0x40, 0x00, 0x00, 0x00, 0x1E, 0x00, 0x00, 0x00, 0x01, 0x00, 0x00, 0x00, 0x78, 0xCE, 0xFF, 0xFF, 0xE6, 0xCF, 0xFF, 0xFF, 0x04, 0x00, 0x00, 0x00, 0x00, 0x08, 0x00, 0x00, 0xF1, 0xA5, 0x88, 0xBD, 0xE1, 0xA3, 0x95, 0x3F, 0xE7, 0x07, 0x47, 0xBE, 0xD4, 0x64, 0x97, 0x3D, 0x38, 0x48, 0xFF, 0xBD, 0x3B, 0x3A, 0x45, 0x40, 0xE5, 0x8D, 0x34, 0x3E, 0x23, 0x8D, 0xA8, 0x3E, 0x41, 0x7B, 0x2D, 0x3F, 0x18, 0x09, 0x3C, 0x3D, 0x70, 0x94, 0xC4, 0x3C, 0xBA, 0x29, 0xD6, 0x3F, 0xAA, 0x2F, 0x19, 0xBD, 0x46, 0x39, 0x23, 0x3F, 0x54, 0xD8, 0x9E, 0xBE, 0xB8, 0x4E, 0x06, 0xBD, 0xDD, 0x3E, 0x81, 0x3D, 0xF2, 0x2F, 0x1E, 0x3E, 0x08, 0xB7, 0xD6, 0x3D, 0xF8, 0x95, 0x03, 0x3E, 0xC8, 0xFE, 0x20, 0xBD, 0xB5, 0x56, 0x36, 0x3F, 0x87, 0x8F, 0xB7, 0x3E, 0x80, 0x1E, 0xE6, 0xBB, 0x08, 0x52, 0x0C, 0xBF, 0x9C, 0x41, 0x86, 0xBE, 0x72, 0x2B, 0x23, 0x3E, 0xBD, 0x5E, 0xE6, 0x3E, 0xDA, 0x94, 0x23, 0x3F, 0xFE, 0x3E, 0x99, 0x3E, 0x44, 0xFB, 0x87, 0xBD, 0x08, 0x09, 0x36, 0xBE, 0x83, 0x87, 0x08, 0x3F, 0xBE, 0xB6, 0x85, 0xBE, 0x14, 0x4B, 0xDC, 0x3D, 0xEC, 0x7C, 0x95, 0x3D, 0x89, 0xD5, 0xB3, 0x3E, 0x80, 0xF0, 0xB3, 0x3E, 0xAC, 0xCA, 0x01, 0x3D, 0x0A, 0xCF, 0x2A, 0x3E, 0x18, 0xEE, 0x2D, 0x3F, 0x00, 0x06, 0x8C, 0xBB, 0x10, 0x7B, 0xCE, 0xBC, 0x7D, 0xB8, 0xA3, 0xBE, 0x29, 0x1F, 0x7B, 0x3F, 0xE1, 0x1A, 0xA2, 0x3E, 0x50, 0xF8, 0xB2, 0xBD, 0xC4, 0xFC, 0xC3, 0x3D, 0xDB, 0xD0, 0xF0, 0xBB, 0xD4, 0x2B, 0x8C, 0x3F, 0xFC, 0xE5, 0x5B, 0xBE, 0x49, 0x22, 0xB3, 0x3E, 0x9D, 0xA5, 0x9D, 0x3E, 0x95, 0xC1, 0xF7, 0xBE, 0xCE, 0x3B, 0x80, 0xBE, 0x2A, 0x9D, 0xF7, 0xBD, 0x49, 0x95, 0x63, 0xBD, 0xF8, 0xDE, 0xE7, 0x3D, 0x78, 0xBD, 0x6D, 0xBD, 0xAE, 0x80, 0xB6, 0xBE, 0xAA, 0x1B, 0x9E, 0xBE, 0xAF, 0xB3, 0x31, 0x3F, 0x40, 0xF4, 0xE5, 0x3C, 0x68, 0x97, 0xB3, 0xBE, 0x4A, 0x54, 0xA4, 0xBF, 0x98, 0x81, 0x8C, 0x3D, 0x16, 0x8A, 0x6C, 0x3E, 0x2B, 0x9A, 0x9D, 0x3E, 0x7D, 0xFA, 0x64, 0xBE, 0xAE, 0x4F, 0x8F, 0x3E, 0x6E, 0x1E, 0x84, 0x3E, 0x77, 0x05, 0xAD, 0x3E, 0x8D, 0x8D, 0xB0, 0xBE, 0xB1, 0xE6, 0x96, 0xBE, 0xF0, 0xCF, 0xF7, 0xBD, 0xF2, 0xBF, 0xA7, 0x3A, 0xCC, 0xA6, 0xDC, 0xBE, 0x16, 0x5C, 0xA3, 0x3E, 0x7F, 0x02, 0xAD, 0xBE, 0xF8, 0x72, 0x73, 0x3D, 0x11, 0x12, 0xD1, 0xBD, 0x2B, 0x31, 0x14, 0x3E, 0xAF, 0x27, 0x57, 0xBE, 0x7C, 0x41, 0xEE, 0xBD, 0x30, 0x69, 0x5B, 0xBD, 0x0F, 0x5C, 0xEA, 0x3F, 0xC4, 0x40, 0x9A, 0xBF, 0x80, 0xEF, 0x30, 0x3D, 0x67, 0xB0, 0x0C, 0x3F, 0x68, 0x57, 0x7D, 0xBD, 0x29, 0xF7, 0x99, 0x3E, 0xED, 0xEE, 0xA9, 0x3E, 0x7C, 0x30, 0xD4, 0x3D, 0x23, 0x0D, 0xE6, 0xBE, 0xA6, 0xF9, 0x53, 0x3E, 0x48, 0x58, 0x99, 0xBE, 0x23, 0xC7, 0x62, 0xBD, 0x20, 0x19, 0xA0, 0xBD, 0x00, 0x16, 0x00, 0x3C, 0x12, 0xE6, 0x19, 0x3E, 0x4C, 0xD3, 0xB5, 0x3D, 0x59, 0xF7, 0x0A, 0xBD, 0x4E, 0x6A, 0xB0, 0x3E, 0x30, 0xC4, 0x4A, 0x3D, 0x13, 0xB2, 0xF4, 0xBB, 0x7B, 0xE1, 0x8F, 0x3E, 0xC0, 0xA7, 0xC2, 0x3C, 0xC5, 0xE2, 0x9C, 0x3D, 0x13, 0xB5, 0x8A, 0xBE, 0xF4, 0x0D, 0x29, 0xBF, 0x5D, 0x38, 0x25, 0xBE, 0x40, 0x0A, 0xDE, 0x3B, 0x88, 0xD5, 0x8A, 0x3E, 0xF8, 0x51, 0x62, 0xBF, 0xDC, 0x9F, 0xFF, 0x3D, 0x98, 0x08, 0x03, 0xBE, 0x25, 0x5A, 0xB1, 0xBE, 0xF5, 0x24, 0xB0, 0xBE, 0x22, 0xC9, 0x19, 0xBD, 0xB2, 0xD6, 0x7C, 0xBE, 0xA9, 0x73, 0x8D, 0xBD, 0xAA, 0xCA, 0x64, 0x3E, 0x9E, 0x19, 0x49, 0x3E, 0xEF, 0x19, 0x00, 0xBF, 0x02, 0xA6, 0xC7, 0x3E, 0xDF, 0x27, 0xDB, 0xBE, 0x6C, 0xFF, 0x92, 0x3D, 0xC8, 0xFE, 0x0B, 0x3E, 0x79, 0x24, 0x26, 0xBF, 0x68, 0xE8, 0x9E, 0x3E, 0x82, 0xBB, 0x33, 0x3E, 0x94, 0x92, 0x9D, 0x3D, 0x50, 0x3A, 0x8F, 0xBC, 0xB0, 0x52, 0x9C, 0x3E, 0xC5, 0x7D, 0x3B, 0x3E, 0xE4, 0x99, 0x23, 0xBE, 0x4C, 0x58, 0x16, 0x3C, 0x80, 0xB7, 0x3B, 0x3D, 0xBE, 0x2C, 0x37, 0x3E, 0xB9, 0x2A, 0xC8, 0x3F, 0xF9, 0x8A, 0x51, 0x3D, 0x47, 0x76, 0x1A, 0xC0, 0x41, 0x73, 0x90, 0xBE, 0x42, 0x40, 0xA0, 0xBE, 0x68, 0x19, 0x90, 0xBE, 0x85, 0xBE, 0xCD, 0xBE, 0xB5, 0x52, 0x89, 0x3E, 0xFE, 0x8F, 0x7E, 0x3E, 0xF2, 0x11, 0x93, 0xBE, 0x38, 0x9C, 0x91, 0x3E, 0x2B, 0xCC, 0x7A, 0xBE, 0x7E, 0x56, 0x23, 0xBE, 0xCF, 0x51, 0x65, 0x3F, 0xA9, 0x36, 0x80, 0x3E, 0xB0, 0x16, 0xFB, 0x3C, 0x68, 0x89, 0xF9, 0xBE, 0x30, 0x6C, 0xEC, 0xBE, 0x86, 0xE9, 0x88, 0x3E, 0x89, 0x35, 0x86, 0x3E, 0xD6, 0x68, 0xAF, 0xBE, 0x28, 0xFB, 0x88, 0x3F, 0xB4, 0x82, 0xE3, 0xBD, 0xA0, 0x85, 0xB5, 0xBC, 0x60, 0xBF, 0x2B, 0x3D, 0x80, 0x4C, 0x98, 0x3B, 0xBE, 0x79, 0x03, 0x40, 0xE8, 0xB2, 0xC1, 0xBD, 0xD4, 0xF0, 0xC8, 0xBD, 0xB9, 0x25, 0xC1, 0x3F, 0x1C, 0xBB, 0x2E, 0xBE, 0x5A, 0x38, 0x8E, 0xBE, 0xA9, 0x37, 0x0A, 0xBF, 0xFC, 0xBE, 0xAB, 0x3C, 0xD0, 0xE9, 0x8D, 0x3E, 0x22, 0x4A, 0x3E, 0x3E, 0xC2, 0xAE, 0xD8, 0xBD, 0xC2, 0xCE, 0x08, 0xBF, 0x05, 0x59, 0xD1, 0xBE, 0xE6, 0x57, 0x42, 0xBE, 0xD6, 0x8A, 0xA2, 0xBE, 0xC8, 0x13, 0x46, 0x3D, 0xE8, 0x2A, 0xCB, 0xBD, 0x10, 0xA1, 0x29, 0x3F, 0x43, 0x0F, 0x88, 0x3E, 0x7D, 0xCC, 0x8D, 0xBE, 0x94, 0xC6, 0xBE, 0xBD, 0x42, 0x78, 0x2A, 0x3E, 0x7D, 0x70, 0x91, 0xBD, 0xC9, 0xF6, 0x46, 0x3D, 0xCA, 0x3A, 0x3B, 0xBF, 0xB6, 0xD6, 0x14, 0x3E, 0x0F, 0xBD, 0x90, 0xBE, 0x46, 0xD7, 0xBB, 0xBD, 0x93, 0x18, 0x17, 0xBE, 0x52, 0xEE, 0x29, 0x3E, 0xEC, 0x39, 0xAA, 0x3D, 0xAC, 0xB4, 0x12, 0xBE, 0x75, 0xFC, 0xC7, 0x3E, 0x41, 0xEE, 0xD1, 0x3E, 0x09, 0x7A, 0xB2, 0xBE, 0xBE, 0xB8, 0x70, 0xBE, 0x16, 0x99, 0x31, 0x3E, 0x6A, 0x36, 0x48, 0x3E, 0xC3, 0x8E, 0x24, 0x3F, 0x91, 0x6F, 0x88, 0xBE, 0xCC, 0x40, 0x90, 0xBE, 0x4F, 0x76, 0x85, 0x3E, 0xD0, 0x3D, 0x0A, 0x3D, 0x66, 0x6D, 0x56, 0xBE, 0xC4, 0x13, 0x2B, 0x3E, 0x3C, 0x19, 0xAF, 0xBE, 0xD8, 0x4D, 0x50, 0x3D, 0x74, 0xBE, 0x8F, 0x3D, 0x87, 0xC1, 0xFA, 0xBE, 0x12, 0x3B, 0xAB, 0xBD, 0xA0, 0xEE, 0x41, 0x3C, 0x04, 0x65, 0x00, 0xBE, 0x38, 0x95, 0x7B, 0xBD, 0x09, 0x03, 0x98, 0x3E, 0x23, 0xB9, 0xFB, 0x3E, 0xA9, 0x15, 0x4E, 0xBF, 0x0B, 0xBC, 0xC5, 0xBE, 0xC2, 0xE9, 0x2A, 0x3E, 0x40, 0x8D, 0x4D, 0xBE, 0x90, 0x33, 0xC5, 0xBD, 0xC9, 0x7D, 0xF7, 0x3C, 0x00, 0x2E, 0x80, 0x3D, 0xE5, 0x09, 0x03, 0xBE, 0xE7, 0x8B, 0x51, 0xBE, 0xA1, 0x85, 0x39, 0x3F, 0x08, 0xEB, 0x53, 0xC0, 0x77, 0x66, 0x97, 0x3E, 0x96, 0x51, 0x41, 0xBC, 0x7A, 0x2E, 0x06, 0x3E, 0x40, 0xFF, 0xB5, 0xBC, 0x09, 0x59, 0x5D, 0xBE, 0xAF, 0x61, 0xA6, 0xBD, 0xA1, 0x7E, 0x95, 0x3D, 0xE0, 0xE1, 0xCA, 0xBD, 0x29, 0x82, 0xA6, 0x3E, 0x08, 0x2D, 0xDA, 0xBD, 0x87, 0xDF, 0x97, 0xBE, 0xED, 0xD7, 0x92, 0x3E, 0x00, 0x66, 0xCA, 0x3A, 0x1A, 0xBE, 0x35, 0xBE, 0x2E, 0xEF, 0x32, 0xBE, 0xBA, 0xA0, 0xA3, 0xBE, 0xDF, 0x18, 0x22, 0xBE, 0x5F, 0x41, 0xD1, 0xBE, 0x2A, 0xC1, 0x2F, 0x3E, 0x7A, 0x70, 0x17, 0x3E, 0x50, 0x9A, 0x79, 0xBD, 0x44, 0xE5, 0x82, 0x3D, 0x11, 0x95, 0x12, 0x3F, 0x1B, 0x4D, 0x05, 0xBE, 0xAD, 0x38, 0x1C, 0xBE, 0x79, 0xFF, 0x17, 0xBF, 0xED, 0xEF, 0x81, 0x3B, 0x60, 0xC6, 0xAC, 0x3D, 0x8E, 0x96, 0xE6, 0xBD, 0x20, 0x12, 0x92, 0x3C, 0x5E, 0xF7, 0x25, 0x3E, 0xA1, 0x17, 0x83, 0xBF, 0x03, 0x68, 0xB1, 0x3E, 0x45, 0x3F, 0xE1, 0xBE, 0x8C, 0xC3, 0x9C, 0xBE, 0xB0, 0x19, 0x39, 0x3D, 0x83, 0x0E, 0x25, 0xBE, 0x2A, 0xD9, 0xA6, 0xBF, 0x56, 0x3B, 0x5A, 0xBE, 0x76, 0x87, 0x02, 0x3E, 0xB1, 0xD8, 0x2B, 0xBE, 0xEA, 0xAC, 0x89, 0xBE, 0x9F, 0x2E, 0x62, 0x3F, 0xF8, 0xFE, 0x94, 0x3D, 0x76, 0x67, 0x18, 0x3E, 0x28, 0x58, 0xBC, 0xBD, 0xF7, 0x03, 0xF2, 0x3D, 0x3E, 0xA6, 0x3A, 0xBE, 0x22, 0xD1, 0x0A, 0xBE, 0xB3, 0x41, 0x72, 0x3E, 0xEA, 0xA9, 0x5E, 0x3E, 0x0B, 0x21, 0x62, 0xBE, 0x94, 0x87, 0x6D, 0x3F, 0x7F, 0xD4, 0x50, 0xBE, 0xA9, 0xEA, 0x8A, 0xBE, 0x78, 0x90, 0xDA, 0x3D, 0x7F, 0xF8, 0x0C, 0xBE, 0xAD, 0xF4, 0x9C, 0x3E, 0x97, 0x6C, 0x91, 0xBE, 0x69, 0x7A, 0x8E, 0x3E, 0xA0, 0xE0, 0xBC, 0x3D, 0x40, 0x26, 0x0B, 0x3E, 0x5E, 0xC9, 0x1B, 0x3F, 0x84, 0xC4, 0x6B, 0x3E, 0x20, 0x95, 0xEB, 0x3C, 0xE3, 0x10, 0xB6, 0x3E, 0x20, 0xAE, 0xE2, 0xBC, 0x2C, 0x79, 0xC4, 0xBD, 0xB4, 0x4D, 0x0A, 0x3F, 0x41, 0x33, 0x50, 0xBF, 0x73, 0xD5, 0x9C, 0x3D, 0xF0, 0xE9, 0xC3, 0xBD, 0xC0, 0xDE, 0x2B, 0x3D, 0x2A, 0xA0, 0xA3, 0xBD, 0xB6, 0x60, 0xBD, 0xBE, 0xAC, 0x06, 0xD7, 0x3D, 0xC2, 0x3A, 0x45, 0x3E, 0xF0, 0x73, 0xA3, 0xBC, 0xBE, 0x97, 0x4A, 0x3F, 0x36, 0x94, 0x03, 0x3F, 0xD8, 0x3F, 0xCC, 0xBD, 0xA7, 0x20, 0x70, 0x3E, 0x1A, 0x57, 0x10, 0x3E, 0x78, 0x15, 0x9A, 0xBD, 0x4F, 0x70, 0xAD, 0xBE, 0x25, 0x83, 0x9B, 0x3D, 0x48, 0x85, 0x8D, 0xBC, 0xA0, 0xCD, 0x78, 0xBD, 0xD4, 0x62, 0x33, 0xBE, 0x08, 0x41, 0x46, 0xBE, 0xF6, 0xFB, 0xAF, 0x3C, 0x38, 0xF5, 0x54, 0xBD, 0x29, 0x80, 0x3A, 0xBE, 0x3A, 0x84, 0xD7, 0xBD, 0x85, 0xA4, 0x19, 0xBF, 0x9C, 0xF5, 0x37, 0xBE, 0xE7, 0xFB, 0xB0, 0x3E, 0xB7, 0xFA, 0x5B, 0xBD, 0x58, 0xF1, 0xC5, 0xBD, 0x52, 0xA1, 0x25, 0x3E, 0x1F, 0x59, 0x4A, 0x3E, 0xFC, 0x4E, 0xEF, 0x3D, 0x30, 0x86, 0x68, 0x3F, 0x45, 0x63, 0x95, 0x3E, 0x30, 0xEB, 0x9E, 0x3C, 0x56, 0xF1, 0xF1, 0xBC, 0x14, 0xD2, 0x2F, 0x3F, 0xF6, 0xD5, 0x1E, 0x3E, 0x10, 0xC8, 0xE4, 0x3C, 0xA4, 0xED, 0x1E, 0xBE, 0xAB, 0x08, 0x9C, 0x3F, 0xEA, 0xE0, 0xAB, 0xBC, 0xBA, 0x6A, 0xB1, 0xBE, 0x34, 0x63, 0x46, 0x3F, 0x21, 0xFF, 0xB0, 0x3E, 0x18, 0x2B, 0xA8, 0x3D, 0xB6, 0xE6, 0xE6, 0xBE, 0xBA, 0x39, 0x01, 0x3E, 0x41, 0xB1, 0x80, 0x3E, 0xDA, 0xB4, 0x22, 0xBE, 0x90, 0x8A, 0xAA, 0xBE, 0x0E, 0x3D, 0x3F, 0xBE, 0xD3, 0x66, 0x92, 0x3E, 0xAC, 0x4D, 0xA4, 0xBE, 0x80, 0x62, 0x2E, 0xBE, 0xB8, 0x56, 0xC8, 0x3D, 0xDF, 0x97, 0x4B, 0xBC, 0xFA, 0x48, 0x8E, 0x3E, 0xBD, 0x63, 0x1D, 0xBE, 0x5A, 0x80, 0x91, 0xBD, 0xA8, 0x7A, 0xD8, 0xBD, 0x00, 0xEB, 0x03, 0x3E, 0x6A, 0x23, 0xEA, 0xBE, 0x35, 0xC8, 0x0D, 0x3D, 0x45, 0xFE, 0xB3, 0xBC, 0x02, 0x98, 0x40, 0x3E, 0xC0, 0xE0, 0x5B, 0xBE, 0x24, 0xAD, 0x6E, 0xBD, 0x8A, 0xF0, 0x00, 0xBE, 0x1D, 0x8C, 0x99, 0x3E, 0x2E, 0x6F, 0x4B, 0x3E, 0xC6, 0xCA, 0x7A, 0x3E, 0xF6, 0x41, 0x87, 0x3E, 0x55, 0x3A, 0x31, 0x3F, 0x9D, 0xEB, 0x00, 0xBE, 0x4E, 0x62, 0x16, 0xBD, 0x00, 0x63, 0xF5, 0x3C, 0x1A, 0x63, 0x0B, 0x3E, 0x45, 0xA8, 0x11, 0xBE, 0x3C, 0x7B, 0xA4, 0xBE, 0xA7, 0xE8, 0xCD, 0xBE, 0xF5, 0x9E, 0xA1, 0x3E, 0x00, 0x5B, 0xAE, 0xBE, 0x83, 0x99, 0xE0, 0xBE, 0x90, 0xFE, 0x3C, 0x3C, 0x22, 0xB8, 0x3E, 0x3E, 0xBA, 0xA1, 0x53, 0x3E, 0xCE, 0x58, 0x07, 0x3E, 0x2C, 0xBA, 0x96, 0x3F, 0x39, 0xC0, 0x80, 0x3E, 0x9F, 0xF6, 0x92, 0x3E, 0xF6, 0x79, 0x4B, 0x3F, 0xA2, 0x77, 0x02, 0x3E, 0x61, 0xF2, 0x2D, 0xBE, 0x4F, 0x1B, 0x4C, 0x3E, 0xB2, 0x4E, 0x8A, 0xBD, 0x28, 0x93, 0x31, 0x3F, 0x78, 0xBD, 0xA8, 0xBD, 0x04, 0xFC, 0xB9, 0x3D, 0x80, 0x96, 0xD5, 0xBE, 0x8A, 0xA3, 0x56, 0xBF, 0xC6, 0x6F, 0x90, 0xBE, 0x55, 0x84, 0x86, 0xBE, 0x9C, 0xDE, 0x81, 0x3D, 0x05, 0x66, 0x7C, 0xBD, 0x59, 0xD6, 0xB8, 0x3C, 0x68, 0x75, 0x1B, 0xBE, 0x62, 0x0D, 0xB7, 0xBE, 0xE8, 0x22, 0x97, 0xBE, 0xEA, 0xB3, 0x78, 0xBE, 0x91, 0xE5, 0xBD, 0x3E, 0x43, 0x84, 0x3F, 0x3F, 0xE8, 0xD9, 0x35, 0xBF, 0xFB, 0x0C, 0x05, 0xBE, 0xC9, 0xF7, 0x9A, 0x3E, 0x22, 0x0F, 0x98, 0x3F, 0x3C, 0xCA, 0xBB, 0xBE, 0xE4, 0xFD, 0x88, 0x3D, 0xA8, 0x05, 0x4F, 0xBD, 0x20, 0x3D, 0xAD, 0x3D, 0x7E, 0x13, 0xD7, 0xBE, 0xCA, 0xD0, 0x63, 0xBE, 0x22, 0x1E, 0x53, 0x3E, 0x69, 0xC0, 0x25, 0x3E, 0x94, 0xBB, 0x96, 0xBE, 0x52, 0x36, 0xA9, 0xBE, 0x6F, 0xD5, 0xC5, 0xBD, 0xE0, 0x84, 0x5E, 0xBE, 0xF7, 0x56, 0x13, 0xC0, 0xFC, 0xDB, 0x8A, 0x3D, 0xFE, 0x4F, 0x5E, 0x3E, 0x41, 0x02, 0xF4, 0x3D, 0xD5, 0xF2, 0x67, 0x3B, 0xD4, 0xCA, 0x8F, 0xBD, 0x40, 0x82, 0x0A, 0x3C, 0x0D, 0xBA, 0x90, 0x3E, 0xD6, 0x44, 0xFE, 0xBD, 0xA9, 0x69, 0x41, 0x3E, 0x55, 0xC4, 0xA2, 0x3E, 0xD3, 0x56, 0x52, 0xBE, 0x24, 0x3D, 0x1C, 0xBE, 0xDC, 0xE9, 0x34, 0xBE, 0xE9, 0xD6, 0x7A, 0x3F, 0xD9, 0x78, 0x1A, 0x3E, 0x36, 0x06, 0xAE, 0x3F, 0xB1, 0xB0, 0x95, 0x3E, 0x20, 0xB9, 0x63, 0x3C, 0xA0, 0xFD, 0x16, 0xBE, 0x0D, 0x54, 0x85, 0xBF, 0x1B, 0x9E, 0x13, 0xBE, 0x7F, 0x09, 0x8C, 0xBE, 0x40, 0x84, 0xB1, 0xBB, 0x84, 0x0A, 0x97, 0xBE, 0x85, 0xCA, 0x77, 0xBE, 0x1A, 0x72, 0x18, 0x3E, 0x54, 0xFC, 0x0B, 0xBE, 0x67, 0x0E, 0xA5, 0x3E, 0x69, 0x03, 0x23, 0xBE, 0x9A, 0x52, 0x48, 0xBE, 0xDB, 0xE0, 0x23, 0xBF, 0x59, 0xD2, 0x1C, 0xBF, 0xD5, 0x66, 0x8C, 0x3E, 0x20, 0x79, 0x7B, 0xBD, 0x13, 0xF8, 0x06, 0xBF, 0x02, 0xAF, 0xC7, 0xBE, 0x42, 0xB5, 0x10, 0xBE, 0x98, 0x83, 0x9A, 0x3D, 0x31, 0x1F, 0xA2, 0x3E, 0xE4, 0x7D, 0xD0, 0xBC, 0xD2, 0xC4, 0x0F, 0xBF, 0x95, 0xB2, 0x21, 0xBE, 0xD3, 0xB6, 0x9E, 0xBE, 0xF6, 0xB1, 0x50, 0xBE, 0xE1, 0x4F, 0xA6, 0x3E, 0x92, 0x49, 0x0A, 0xBF, 0x04, 0xC7, 0xED, 0xBF, 0x6C, 0x56, 0x10, 0xBF, 0x8C, 0xFB, 0xB2, 0xBD, 0xB9, 0x24, 0xAD, 0xBE, 0x9C, 0x55, 0x6D, 0xBF, 0x9C, 0xE1, 0x4B, 0xBE, 0xE7, 0xFF, 0x9A, 0xBE, 0xD6, 0xD8, 0xA0, 0xBE, 0x28, 0x53, 0xA7, 0xBD, 0x0E, 0xD9, 0x4B, 0xBE, 0xC5, 0xE4, 0xC4, 0xBE, 0xFD, 0x98, 0x2F, 0xBE, 0x29, 0x65, 0x11, 0x3F, 0x38, 0xC9, 0x3A, 0x3D, 0x3F, 0x8C, 0xA3, 0xBE, 0xA1, 0x43, 0xB2, 0x3E, 0xE6, 0x6B, 0xC4, 0xBE, 0x9B, 0xD8, 0xBF, 0xBE, 0xEE, 0x53, 0x4C, 0x3E, 0xA8, 0xFC, 0x93, 0x3D, 0xD8, 0xA0, 0x70, 0x3F, 0xB9, 0x0F, 0x31, 0x3F, 0x6E, 0x91, 0x2B, 0x3E, 0x60, 0x6E, 0x09, 0x3D, 0xD8, 0x83, 0x43, 0xBD, 0xF4, 0xE3, 0xB3, 0xBE, 0xD2, 0xD8, 0x1D, 0xBF, 0xD8, 0x7F, 0x78, 0xBD, 0xC5, 0xFE, 0x5F, 0x3E, 0x15, 0x65, 0xA0, 0xBE, 0x52, 0x8C, 0x7C, 0x3E, 0x4A, 0x47, 0xF8, 0xBD, 0x75, 0x10, 0x2F, 0x3E, 0xC8, 0xF2, 0x85, 0xBF, 0xE5, 0x41, 0x8F, 0xBE, 0xE2, 0x04, 0x4B, 0x3E, 0x5E, 0xD7, 0xFF, 0xFF, 0x10, 0x00, 0x00, 0x00, 0x1E, 0x00, 0x00, 0x00, 0x1C, 0x00, 0x00, 0x00, 0x4C, 0x00, 0x00, 0x00, 0x04, 0x00, 0x00, 0x00, 0x20, 0x00, 0x00, 0x00, 0x01, 0x00, 0x00, 0x00, 0x01, 0x00, 0x00, 0x00, 0x10, 0x00, 0x00, 0x00, 0x2E, 0x00, 0x00, 0x00, 0x73, 0x65, 0x71, 0x75, 0x65, 0x6E, 0x74, 0x69, 0x61, 0x6C, 0x2F, 0x73, 0x65, 0x70, 0x61, 0x72, 0x61, 0x62, 0x6C, 0x65, 0x5F, 0x63, 0x6F, 0x6E, 0x76, 0x32, 0x64, 0x5F, 0x32, 0x2F, 0x73, 0x65, 0x70, 0x61, 0x72, 0x61, 0x62, 0x6C, 0x65, 0x5F, 0x63, 0x6F, 0x6E, 0x76, 0x32, 0x64, 0x00, 0x00, 0xE4, 0xD6, 0xFF, 0xFF, 0x52, 0xD8, 0xFF, 0xFF, 0x04, 0x00, 0x00, 0x00, 0x40, 0x00, 0x00, 0x00, 0x86, 0x03, 0x02, 0xBF, 0x91, 0x42, 0x9F, 0xBE, 0x30, 0xFE, 0xDE, 0x3D, 0x42, 0x6E, 0xE2, 0xBE, 0x8E, 0x65, 0xA2, 0xBE, 0xED, 0xE7, 0x1B, 0xBF, 0x1C, 0x94, 0x14, 0x3F, 0x7A, 0xC3, 0x0D, 0x3F, 0x2C, 0xEF, 0x27, 0xBF, 0x55, 0x5A, 0x0D, 0xBF, 0x80, 0x61, 0x8C, 0xBB, 0xC6, 0xE4, 0x04, 0xBF, 0x79, 0xFF, 0xE5, 0x3E, 0xF3, 0xBC, 0x28, 0x3F, 0xEC, 0x38, 0x0D, 0x3F, 0x20, 0xB3, 0xF0, 0x3C, 0x0A, 0xD8, 0xFF, 0xFF, 0x10, 0x00, 0x00, 0x00, 0x1D, 0x00, 0x00, 0x00, 0x1C, 0x00, 0x00, 0x00, 0x58, 0x00, 0x00, 0x00, 0x04, 0x00, 0x00, 0x00, 0x01, 0x00, 0x00, 0x00, 0x01, 0x00, 0x00, 0x00, 0x01, 0x00, 0x00, 0x00, 0x10, 0x00, 0x00, 0x00, 0x39, 0x00, 0x00, 0x00, 0x73, 0x65, 0x71, 0x75, 0x65, 0x6E, 0x74, 0x69, 0x61, 0x6C, 0x2F, 0x73, 0x65, 0x70, 0x61, 0x72, 0x61, 0x62, 0x6C, 0x65, 0x5F, 0x63, 0x6F, 0x6E, 0x76, 0x32, 0x64, 0x5F, 0x32, 0x2F, 0x73, 0x65, 0x70, 0x61, 0x72, 0x61, 0x62, 0x6C, 0x65, 0x5F, 0x63, 0x6F, 0x6E, 0x76, 0x32, 0x64, 0x2F, 0x64, 0x65, 0x70, 0x74, 0x68, 0x77, 0x69, 0x73, 0x65, 0x31, 0x00, 0x00, 0x00, 0x9C, 0xD7, 0xFF, 0xFF, 0x0A, 0xD9, 0xFF, 0xFF, 0x04, 0x00, 0x00, 0x00, 0x40, 0x00, 0x00, 0x00, 0x00, 0x00, 0x00, 0x00, 0x00, 0x00, 0x00, 0x00, 0x00, 0x00, 0x00, 0x00, 0x00, 0x00, 0x00, 0x00, 0x00, 0x00, 0x00, 0x00, 0x00, 0x00, 0x00, 0x00, 0x00, 0x00, 0x00, 0x00, 0x00, 0x00, 0x00, 0x00, 0x00, 0x00, 0x00, 0x00, 0x00, 0x00, 0x00, 0x00, 0x00, 0x00, 0x00, 0x00, 0x00, 0x00, 0x00, 0x00, 0x00, 0x00, 0x00, 0x00, 0x00, 0x00, 0x00, 0x00, 0x00, 0x00, 0x00, 0x00, 0x00, 0x00, 0x00, 0x00, 0xC2, 0xD8, 0xFF, 0xFF, 0x10, 0x00, 0x00, 0x00, 0x1C, 0x00, 0x00, 0x00, 0x10, 0x00, 0x00, 0x00, 0x4C, 0x00, 0x00, 0x00, 0x01, 0x00, 0x00, 0x00, 0x10, 0x00, 0x00, 0x00, 0x38, 0x00, 0x00, 0x00, 0x73, 0x65, 0x71, 0x75, 0x65, 0x6E, 0x74, 0x69, 0x61, 0x6C, 0x2F, 0x73, 0x65, 0x70, 0x61, 0x72, 0x61, 0x62, 0x6C, 0x65, 0x5F, 0x63, 0x6F, 0x6E, 0x76, 0x32, 0x64, 0x5F, 0x32, 0x2F, 0x73, 0x65, 0x70, 0x61, 0x72, 0x61, 0x62, 0x6C, 0x65, 0x5F, 0x63, 0x6F, 0x6E, 0x76, 0x32, 0x64, 0x2F, 0x64, 0x65, 0x70, 0x74, 0x68, 0x77, 0x69, 0x73, 0x65, 0x00, 0x00, 0x00, 0x00, 0x48, 0xD8, 0xFF, 0xFF, 0xB6, 0xD9, 0xFF, 0xFF, 0x04, 0x00, 0x00, 0x00, 0x40, 0x02, 0x00, 0x00, 0x78, 0x4F, 0xCC, 0xBE, 0x4A, 0xFD, 0x45, 0xBE, 0xC0, 0xAD, 0xE7, 0x3C, 0x81, 0x72, 0x0E, 0x3E, 0xAF, 0x9E, 0x3D, 0x3E, 0x39, 0x06, 0xB5, 0x3E, 0xC8, 0x74, 0xA0, 0x3E, 0x40, 0xE8, 0x49, 0xBE, 0x55, 0x9E, 0xB1, 0x3E, 0xB4, 0xE2, 0x2D, 0xBD, 0xA6, 0x50, 0xBA, 0x3D, 0x8D, 0x4A, 0xE2, 0x3D, 0xE9, 0x90, 0x97, 0x3E, 0xCF, 0xE7, 0x40, 0xBF, 0xF3, 0xBE, 0xE0, 0xBD, 0x04, 0x77, 0x74, 0x3D, 0xE6, 0x5E, 0xA6, 0xBD, 0xE5, 0x49, 0x72, 0x3E, 0x9A, 0x32, 0xAB, 0xBD, 0xC4, 0xDE, 0x33, 0x3D, 0xAE, 0xFB, 0x28, 0xBE, 0x64, 0xD2, 0x26, 0x3F, 0x47, 0x17, 0x08, 0xBD, 0x98, 0x47, 0x52, 0xBD, 0xF3, 0x42, 0x81, 0x3F, 0xAB, 0x7D, 0xF1, 0xBD, 0x1C, 0xB9, 0x4F, 0xBD, 0xFE, 0x80, 0x19, 0x3F, 0x3B, 0xE3, 0x04, 0x3D, 0x46, 0x41, 0xFC, 0xBF, 0xC0, 0x50, 0x2E, 0xBB, 0x80, 0x68, 0x54, 0xBC, 0x52, 0x06, 0xF1, 0xBD, 0x9E, 0x2A, 0x46, 0x3E, 0x7B, 0x03, 0x3D, 0xBE, 0xBA, 0xF1, 0x87, 0xBD, 0xB4, 0x6B, 0xF3, 0xBD, 0xCF, 0xD9, 0xDB, 0x3E, 0xE8, 0xCE, 0xD9, 0x3D, 0x40, 0x3C, 0x12, 0xBB, 0xF6, 0xB5, 0x0D, 0x3F, 0x1C, 0x2C, 0x9E, 0xBD, 0x34, 0x98, 0x78, 0x3D, 0xD6, 0x56, 0x30, 0x3E, 0x7D, 0x2D, 0xFC, 0x3D, 0x4C, 0xD5, 0xA0, 0xBD, 0xAD, 0xCD, 0x2C, 0xBE, 0x4A, 0xEB, 0xA0, 0x3D, 0xE3, 0x96, 0x90, 0x3E, 0x4E, 0x05, 0x12, 0xBF, 0x13, 0x7A, 0xAE, 0xBD, 0xF1, 0x05, 0x2E, 0xBE, 0x4E, 0x19, 0xAD, 0x3D, 0x78, 0x47, 0x31, 0x3E, 0x1C, 0xB1, 0xE3, 0xBD, 0xA8, 0xB0, 0xD5, 0xBC, 0x2B, 0x09, 0x79, 0xBD, 0xE2, 0x38, 0xFC, 0x3D, 0x79, 0x09, 0x04, 0x3E, 0x1C, 0x90, 0x9E, 0x3E, 0x0D, 0xB0, 0x10, 0xBE, 0x45, 0xD9, 0xA5, 0xB9, 0x32, 0xB1, 0xAA, 0x3D, 0xA0, 0x41, 0x2C, 0x3C, 0xF9, 0xC0, 0x0E, 0x3E, 0x4F, 0x5A, 0xF2, 0x3E, 0x15, 0xCF, 0x9C, 0xBD, 0x75, 0xD2, 0x3C, 0x3E, 0x46, 0x9A, 0x87, 0x3D, 0xE2, 0x29, 0xE8, 0x3D, 0x87, 0x8A, 0x4B, 0xBE, 0xBA, 0x00, 0xA3, 0x3D, 0x08, 0x6A, 0x33, 0xBE, 0xC9, 0x31, 0x43, 0x3E, 0xFF, 0x70, 0x1D, 0x3E, 0x18, 0x64, 0xD0, 0xBE, 0xFC, 0x57, 0x99, 0xBD, 0xFB, 0x65, 0x07, 0x3F, 0xE2, 0x2B, 0x9E, 0x3D, 0xBA, 0x38, 0x3D, 0xBE, 0x13, 0x68, 0x10, 0xBF, 0xA6, 0xFF, 0x17, 0x3E, 0xAE, 0x9B, 0xB5, 0x3D, 0xD3, 0x10, 0x2F, 0x3E, 0x00, 0xB8, 0x80, 0x38, 0xC3, 0x68, 0x99, 0x3C, 0xDF, 0x3D, 0x93, 0xBE, 0x18, 0x8A, 0x80, 0xBD, 0x86, 0x1D, 0x28, 0x3E, 0x73, 0xA5, 0x21, 0x3E, 0xC0, 0x04, 0x3C, 0xBD, 0xE6, 0xB8, 0x4E, 0xBE, 0x65, 0x78, 0x0D, 0xBD, 0x0C, 0x17, 0x2A, 0xBC, 0xDE, 0xD2, 0x2F, 0xBE, 0x71, 0x9B, 0x00, 0x3E, 0x63, 0x48, 0x83, 0x3E, 0xAD, 0x9A, 0x57, 0x3D, 0x66, 0xD4, 0x24, 0xBE, 0xE1, 0x94, 0x0D, 0x3E, 0xEE, 0x0F, 0xD6, 0x3D, 0x60, 0x63, 0xC1, 0xBE, 0xE0, 0x7F, 0xBE, 0xBB, 0xF8, 0xFD, 0xCB, 0xBC, 0xE6, 0x57, 0xCF, 0x3D, 0xC8, 0x7E, 0x93, 0xBD, 0x40, 0x82, 0x15, 0xBE, 0xFF, 0x15, 0x9E, 0xBE, 0x76, 0x76, 0x24, 0xBF, 0x43, 0x9D, 0x28, 0xBD, 0xD6, 0xAA, 0xE3, 0x3D, 0xD2, 0x11, 0xFC, 0x3D, 0x6F, 0xF2, 0x8D, 0x3E, 0x47, 0x9B, 0x06, 0x3F, 0xAF, 0x08, 0x23, 0x3E, 0x50, 0x7A, 0x5A, 0xBD, 0xEA, 0x39, 0x81, 0xBD, 0x3E, 0x63, 0x54, 0xBE, 0xD2, 0xBE, 0x90, 0x3F, 0xCE, 0x38, 0xB3, 0x3D, 0x6F, 0x27, 0x8F, 0x3E, 0x38, 0x35, 0x84, 0x3C, 0xE7, 0xA9, 0x12, 0x3E, 0x8F, 0x59, 0xF8, 0xBE, 0x7F, 0xFF, 0x76, 0xBE, 0x95, 0xAB, 0x26, 0x3E, 0xAE, 0x42, 0x92, 0xBD, 0xAD, 0x61, 0x07, 0x3E, 0x9D, 0x1A, 0x49, 0xBF, 0x44, 0x56, 0xC9, 0x3D, 0x06, 0x3B, 0xED, 0x3D, 0x00, 0xB5, 0x63, 0xBD, 0xE0, 0x4A, 0x95, 0xBD, 0x1E, 0x50, 0xE3, 0xBE, 0x60, 0x13, 0x0A, 0xBC, 0x05, 0x3F, 0x0A, 0x3E, 0x5C, 0xC5, 0x69, 0xBE, 0xF0, 0x5B, 0x78, 0xBC, 0x7F, 0x61, 0x29, 0x3E, 0x9C, 0x27, 0xF4, 0xBE, 0x1A, 0xA2, 0x0B, 0xBF, 0x2A, 0x68, 0x4A, 0xBE, 0x9E, 0x18, 0xAC, 0x3D, 0x8C, 0xBE, 0x4B, 0x3D, 0x6E, 0xDB, 0xFF, 0xFF, 0x10, 0x00, 0x00, 0x00, 0x1B, 0x00, 0x00, 0x00, 0x1C, 0x00, 0x00, 0x00, 0x44, 0x00, 0x00, 0x00, 0x04, 0x00, 0x00, 0x00, 0x01, 0x00, 0x00, 0x00, 0x03, 0x00, 0x00, 0x00, 0x03, 0x00, 0x00, 0x00, 0x10, 0x00, 0x00, 0x00, 0x27, 0x00, 0x00, 0x00, 0x73, 0x65, 0x71, 0x75, 0x65, 0x6E, 0x74, 0x69, 0x61, 0x6C, 0x2F, 0x64, 0x65, 0x70, 0x74, 0x68, 0x77, 0x69, 0x73, 0x65, 0x5F, 0x63, 0x6F, 0x6E, 0x76, 0x32, 0x64, 0x5F, 0x32, 0x2F, 0x64, 0x65, 0x70, 0x74, 0x68, 0x77, 0x69, 0x73, 0x65, 0x00, 0xEC, 0xDA, 0xFF, 0xFF, 0x5A, 0xDC, 0xFF, 0xFF, 0x04, 0x00, 0x00, 0x00, 0x00, 0x02, 0x00, 0x00, 0xC0, 0x53, 0x04, 0xBD, 0x40, 0x7B, 0xC7, 0xBE, 0xF8, 0x31, 0x10, 0x3E, 0x03, 0x1F, 0xE3, 0x3E, 0x18, 0xD8, 0x2A, 0x3E, 0xE8, 0x27, 0x6F, 0xBE, 0x6C, 0xA6, 0xDD, 0x3E, 0x70, 0x4C, 0xF8, 0x3D, 0x60, 0x0F, 0x25, 0x3D, 0x08, 0x1D, 0xF2, 0xBE, 0xE8, 0xA1, 0x2B, 0xBE, 0xD3, 0x89, 0x01, 0xBF, 0x18, 0x62, 0xFA, 0x3E, 0xA0, 0x99, 0x52, 0x3D, 0xEB, 0x83, 0xFF, 0xBC, 0xD8, 0xA0, 0x9D, 0x3E, 0x30, 0x84, 0x24, 0xBE, 0x80, 0xB2, 0x47, 0xBD, 0x18, 0x85, 0xBA, 0x3E, 0xB8, 0xFD, 0x95, 0x3E, 0x18, 0xF3, 0xD8, 0x3E, 0x10, 0xDD, 0xEA, 0x3D, 0x00, 0xFF, 0x5B, 0xBE, 0xD8, 0x20, 0x87, 0x3E, 0x0C, 0xE6, 0xC1, 0x3E, 0xF8, 0x03, 0x6C, 0xBE, 0xF0, 0x27, 0xF4, 0xBD, 0x00, 0xB6, 0x66, 0x3E, 0xC0, 0x54, 0x69, 0x3E, 0x6C, 0x1A, 0xEE, 0xBE, 0xA8, 0xFB, 0xC7, 0xBE, 0x3C, 0xAA, 0xE3, 0xBE, 0x10, 0x3A, 0xB2, 0xBE, 0x28, 0x61, 0xD6, 0xBE, 0xC8, 0x7C, 0xF6, 0xBE, 0xD0, 0x2F, 0xB5, 0x3E, 0xE0, 0x55, 0x87, 0x3D, 0xC4, 0xFD, 0xA8, 0x3E, 0x74, 0x2D, 0x8E, 0xBE, 0x58, 0x5A, 0xEC, 0x3E, 0x58, 0x54, 0x2C, 0x3E, 0xB0, 0x6B, 0x05, 0xBE, 0x78, 0x88, 0xF4, 0x3E, 0x97, 0x26, 0xF9, 0x3E, 0xC0, 0xAF, 0x0B, 0x3E, 0xE0, 0xDC, 0x16, 0xBD, 0x7D, 0x0F, 0x88, 0x3E, 0xB0, 0x98, 0xCC, 0x3D, 0x38, 0xF6, 0xD7, 0xBE, 0xE0, 0x49, 0x31, 0x3E, 0xD0, 0xEF, 0x80, 0xBE, 0xEE, 0xF6, 0x24, 0xBE, 0xC8, 0x36, 0x83, 0xBE, 0xA0, 0x92, 0xB0, 0x3D, 0xD6, 0xEA, 0x28, 0x3F, 0x38, 0x5F, 0x59, 0xBE, 0x00, 0x2C, 0x5C, 0x3D, 0x18, 0x2B, 0x84, 0xBE, 0x40, 0x46, 0x4A, 0xBE, 0xD8, 0x82, 0xDF, 0x3E, 0xD4, 0x83, 0xAE, 0x3E, 0x60, 0x03, 0x7A, 0xBE, 0x00, 0xA7, 0x79, 0xBD, 0xF0, 0x71, 0xEA, 0x3E, 0xD0, 0x89, 0xE3, 0x3E, 0xB0, 0xCD, 0xBB, 0xBE, 0x94, 0x9E, 0xF5, 0x3E, 0x4E, 0x74, 0x56, 0xBE, 0xA4, 0x8A, 0x8D, 0x3E, 0x34, 0xBA, 0xC3, 0xBE, 0xF5, 0x9A, 0x9C, 0xBE, 0xAC, 0xC1, 0xFF, 0x3E, 0xD0, 0x8D, 0xF8, 0xBE, 0xE0, 0x7C, 0x43, 0xBE, 0x18, 0x1C, 0x83, 0xBE, 0xD0, 0x7E, 0x82, 0x3D, 0xC0, 0x18, 0xD4, 0x3D, 0xF0, 0xEB, 0xFC, 0x3D, 0x6C, 0x4B, 0x99, 0xBE, 0x50, 0xF2, 0xD5, 0x3E, 0x20, 0x7F, 0x7B, 0x3D, 0xC0, 0x21, 0xB7, 0x3E, 0x28, 0x25, 0x78, 0x3E, 0x28, 0xD2, 0xF8, 0x3E, 0x60, 0x6E, 0x82, 0x3E, 0x58, 0x2B, 0xEA, 0xBE, 0xC0, 0x9C, 0x94, 0xBC, 0xB4, 0x23, 0x8F, 0x3E, 0xA8, 0x59, 0x46, 0xBE, 0x08, 0x2B, 0xB1, 0xBE, 0xC0, 0xC8, 0x78, 0x3E, 0xB7, 0x73, 0x6C, 0xBE, 0x68, 0xBB, 0x13, 0x3E, 0x7C, 0x6B, 0xD9, 0x3E, 0x6E, 0x3D, 0x10, 0x3F, 0x74, 0x61, 0x9D, 0x3E, 0x48, 0xC5, 0x14, 0xBE, 0x30, 0x61, 0x46, 0xBE, 0x18, 0x5A, 0xD4, 0x3E, 0xE8, 0xE0, 0x02, 0xBF, 0x50, 0x89, 0x89, 0x3D, 0x14, 0x9F, 0xF2, 0xBE, 0xBA, 0xA7, 0xCE, 0xBF, 0x94, 0x9E, 0xE6, 0xBE, 0x90, 0x31, 0xAA, 0xBE, 0x90, 0x72, 0x32, 0x3E, 0xD0, 0x47, 0x6A, 0xBE, 0x0F, 0x13, 0x28, 0x3F, 0x10, 0xF1, 0x61, 0xBE, 0xD0, 0x70, 0x6B, 0x3E, 0x93, 0x70, 0xB9, 0x3E, 0xC8, 0x9E, 0x2C, 0x3E, 0x64, 0x42, 0xE5, 0x3E, 0xA0, 0x6A, 0x57, 0x3D, 0x28, 0xF5, 0x06, 0x3E, 0xA0, 0x59, 0x84, 0x3D, 0x60, 0x73, 0x17, 0xBD, 0xA0, 0xFE, 0xD9, 0x3E, 0x80, 0xD3, 0xFD, 0xBC, 0x80, 0x0A, 0x61, 0xBD, 0xE0, 0x3A, 0x76, 0x3E, 0xD0, 0x49, 0xA9, 0x3E, 0xAC, 0x8B, 0x8C, 0x3E, 0x30, 0xF9, 0xC4, 0x3E, 0x54, 0xC5, 0xC9, 0xBE, 0x9C, 0x2E, 0x88, 0xBE, 0x40, 0xA9, 0xE8, 0xBE, 0xF0, 0x7D, 0xB4, 0xBE, 0xD2, 0xDD, 0xFF, 0xFF, 0x10, 0x00, 0x00, 0x00, 0x1A, 0x00, 0x00, 0x00, 0x1C, 0x00, 0x00, 0x00, 0x4C, 0x00, 0x00, 0x00, 0x04, 0x00, 0x00, 0x00, 0x10, 0x00, 0x00, 0x00, 0x01, 0x00, 0x00, 0x00, 0x01, 0x00, 0x00, 0x00, 0x08, 0x00, 0x00, 0x00, 0x2E, 0x00, 0x00, 0x00, 0x73, 0x65, 0x71, 0x75, 0x65, 0x6E, 0x74, 0x69, 0x61, 0x6C, 0x2F, 0x73, 0x65, 0x70, 0x61, 0x72, 0x61, 0x62, 0x6C, 0x65, 0x5F, 0x63, 0x6F, 0x6E, 0x76, 0x32, 0x64, 0x5F, 0x31, 0x2F, 0x73, 0x65, 0x70, 0x61, 0x72, 0x61, 0x62, 0x6C, 0x65, 0x5F, 0x63, 0x6F, 0x6E, 0x76, 0x32, 0x64, 0x00, 0x00, 0x58, 0xDD, 0xFF, 0xFF, 0xC6, 0xDE, 0xFF, 0xFF, 0x04, 0x00, 0x00, 0x00, 0x20, 0x00, 0x00, 0x00, 0xB8, 0x92, 0x35, 0xBF, 0x3A, 0x5B, 0xBD, 0xBE, 0x6E, 0xC1, 0x0F, 0xBF, 0x6E, 0xA7, 0x51, 0xBF, 0xC2, 0xA4, 0x42, 0xBF, 0x00, 0x3F, 0xCD, 0x3D, 0x32, 0x07, 0x28, 0x3F, 0x98, 0x12, 0xCD, 0xBD, 0x5E, 0xDE, 0xFF, 0xFF, 0x10, 0x00, 0x00, 0x00, 0x19, 0x00, 0x00, 0x00, 0x1C, 0x00, 0x00, 0x00, 0x58, 0x00, 0x00, 0x00, 0x04, 0x00, 0x00, 0x00, 0x01, 0x00, 0x00, 0x00, 0x01, 0x00, 0x00, 0x00, 0x01, 0x00, 0x00, 0x00, 0x08, 0x00, 0x00, 0x00, 0x39, 0x00, 0x00, 0x00, 0x73, 0x65, 0x71, 0x75, 0x65, 0x6E, 0x74, 0x69, 0x61, 0x6C, 0x2F, 0x73, 0x65, 0x70, 0x61, 0x72, 0x61, 0x62, 0x6C, 0x65, 0x5F, 0x63, 0x6F, 0x6E, 0x76, 0x32, 0x64, 0x5F, 0x31, 0x2F, 0x73, 0x65, 0x70, 0x61, 0x72, 0x61, 0x62, 0x6C, 0x65, 0x5F, 0x63, 0x6F, 0x6E, 0x76, 0x32, 0x64, 0x2F, 0x64, 0x65, 0x70, 0x74, 0x68, 0x77, 0x69, 0x73, 0x65, 0x31, 0x00, 0x00, 0x00, 0xF0, 0xDD, 0xFF, 0xFF, 0x5E, 0xDF, 0xFF, 0xFF, 0x04, 0x00, 0x00, 0x00, 0x20, 0x00, 0x00, 0x00, 0x00, 0x00, 0x00, 0x00, 0x00, 0x00, 0x00, 0x00, 0x00, 0x00, 0x00, 0x00, 0x00, 0x00, 0x00, 0x00, 0x00, 0x00, 0x00, 0x00, 0x00, 0x00, 0x00, 0x00, 0x00, 0x00, 0x00, 0x00, 0x00, 0x00, 0x00, 0x00, 0xF6, 0xDE, 0xFF, 0xFF, 0x10, 0x00, 0x00, 0x00, 0x18, 0x00, 0x00, 0x00, 0x10, 0x00, 0x00, 0x00, 0x4C, 0x00, 0x00, 0x00, 0x01, 0x00, 0x00, 0x00, 0x08, 0x00, 0x00, 0x00, 0x38, 0x00, 0x00, 0x00, 0x73, 0x65, 0x71, 0x75, 0x65, 0x6E, 0x74, 0x69, 0x61, 0x6C, 0x2F, 0x73, 0x65, 0x70, 0x61, 0x72, 0x61, 0x62, 0x6C, 0x65, 0x5F, 0x63, 0x6F, 0x6E, 0x76, 0x32, 0x64, 0x5F, 0x31, 0x2F, 0x73, 0x65, 0x70, 0x61, 0x72, 0x61, 0x62, 0x6C, 0x65, 0x5F, 0x63, 0x6F, 0x6E, 0x76, 0x32, 0x64, 0x2F, 0x64, 0x65, 0x70, 0x74, 0x68, 0x77, 0x69, 0x73, 0x65, 0x00, 0x00, 0x00, 0x00, 0x7C, 0xDE, 0xFF, 0xFF, 0xEA, 0xDF, 0xFF, 0xFF, 0x04, 0x00, 0x00, 0x00, 0x20, 0x01, 0x00, 0x00, 0x10, 0xC0, 0xE6, 0x3C, 0x28, 0x08, 0x23, 0x3E, 0x74, 0x54, 0xCD, 0xBD, 0x87, 0x14, 0x1E, 0xBE, 0x74, 0x53, 0x1B, 0xBD, 0xB8, 0x7B, 0x42, 0x3E, 0x78, 0x01, 0x16, 0xBE, 0x25, 0xDF, 0x78, 0xBE, 0x60, 0xD7, 0x7C, 0x3D, 0xBC, 0xD9, 0x7C, 0x3E, 0xD0, 0x8C, 0x00, 0x3D, 0xB6, 0xD6, 0xDD, 0xBE, 0x1D, 0x51, 0x7C, 0xBE, 0x97, 0x44, 0x8A, 0xBE, 0x60, 0x62, 0x2A, 0x3D, 0x10, 0x3E, 0x73, 0x3E, 0xCA, 0xD2, 0x02, 0x3E, 0x00, 0x41, 0x31, 0x3E, 0x1C, 0xDC, 0x50, 0xBE, 0x3D, 0xC6, 0xD5, 0x3D, 0x9A, 0xAB, 0x01, 0x3E, 0x00, 0xCF, 0x95, 0x3C, 0x95, 0x19, 0xE0, 0xBE, 0x8E, 0xCA, 0x67, 0x3E, 0xED, 0x10, 0x89, 0xBE, 0x74, 0xAD, 0x97, 0x3D, 0x38, 0x0B, 0x38, 0x3E, 0x3A, 0xF2, 0x2A, 0xBD, 0x2A, 0xBC, 0x20, 0xBE, 0xB4, 0x33, 0x80, 0xBE, 0xF5, 0x2D, 0xC5, 0xBD, 0x36, 0xE6, 0x38, 0xBE, 0x28, 0x4E, 0x57, 0x3D, 0x96, 0x17, 0x67, 0x3E, 0x3C, 0x67, 0xF0, 0x3D, 0xBD, 0x1B, 0x3F, 0x3F, 0x04, 0x1C, 0xB6, 0xBD, 0x68, 0x87, 0x89, 0x3D, 0x9E, 0x32, 0x90, 0x3E, 0x00, 0xAD, 0x90, 0xBD, 0x6C, 0x12, 0xCE, 0xBD, 0xD2, 0x72, 0x2A, 0xBE, 0x24, 0x44, 0xBE, 0xBD, 0xA6, 0x0A, 0x86, 0xBE, 0x30, 0xED, 0xA9, 0x3C, 0xFE, 0xF1, 0x21, 0xBE, 0x12, 0x15, 0x5A, 0xBD, 0xD8, 0x14, 0x2F, 0x3D, 0x80, 0xAB, 0x78, 0xBC, 0x30, 0xFE, 0x2E, 0x3D, 0xF4, 0xA8, 0x40, 0xBD, 0xF2, 0x9A, 0xED, 0x3D, 0x46, 0x86, 0x14, 0x3E, 0x92, 0x38, 0xB8, 0xBD, 0x08, 0xF9, 0x5A, 0x3D, 0x78, 0x9A, 0x91, 0xBD, 0xA0, 0x59, 0x9D, 0xBD, 0xEE, 0x0B, 0xF2, 0xBD, 0x2C, 0x6C, 0xE1, 0x3D, 0x68, 0xCC, 0x4A, 0xBE, 0xA0, 0x9A, 0x24, 0xBE, 0x88, 0xB4, 0x9F, 0x3D, 0xFB, 0x7B, 0x80, 0x3F, 0xC0, 0x54, 0xD0, 0x3C, 0x00, 0x04, 0x7A, 0xBA, 0x78, 0xEA, 0x6E, 0x3D, 0x44, 0x76, 0x76, 0x3E, 0x82, 0x49, 0x99, 0x3D, 0x74, 0x67, 0x86, 0x3E, 0x60, 0x71, 0xBC, 0x3D, 0xC9, 0x1A, 0x83, 0xBC, 0x40, 0xA7, 0xFB, 0x3D, 0x82, 0xE0, 0xFF, 0xFF, 0x10, 0x00, 0x00, 0x00, 0x17, 0x00, 0x00, 0x00, 0x1C, 0x00, 0x00, 0x00, 0x44, 0x00, 0x00, 0x00, 0x04, 0x00, 0x00, 0x00, 0x01, 0x00, 0x00, 0x00, 0x03, 0x00, 0x00, 0x00, 0x03, 0x00, 0x00, 0x00, 0x08, 0x00, 0x00, 0x00, 0x27, 0x00, 0x00, 0x00, 0x73, 0x65, 0x71, 0x75, 0x65, 0x6E, 0x74, 0x69, 0x61, 0x6C, 0x2F, 0x64, 0x65, 0x70, 0x74, 0x68, 0x77, 0x69, 0x73, 0x65, 0x5F, 0x63, 0x6F, 0x6E, 0x76, 0x32, 0x64, 0x5F, 0x31, 0x2F, 0x64, 0x65, 0x70, 0x74, 0x68, 0x77, 0x69, 0x73, 0x65, 0x00, 0x00, 0xE0, 0xFF, 0xFF, 0x6E, 0xE1, 0xFF, 0xFF, 0x04, 0x00, 0x00, 0x00, 0x20, 0x00, 0x00, 0x00, 0xB2, 0x8F, 0x4C, 0xBF, 0x46, 0xE1, 0x94, 0xBE, 0x10, 0xB4, 0x25, 0xBE, 0xAE, 0x84, 0x98, 0x3D, 0xF4, 0x38, 0x80, 0xBE, 0x6D, 0xB5, 0xCE, 0xBE, 0x6C, 0x0F, 0x4E, 0x3E, 0xA4, 0xC2, 0x6C, 0xBE, 0x06, 0xE1, 0xFF, 0xFF, 0x10, 0x00, 0x00, 0x00, 0x16, 0x00, 0x00, 0x00, 0x1C, 0x00, 0x00, 0x00, 0x4C, 0x00, 0x00, 0x00, 0x04, 0x00, 0x00, 0x00, 0x08, 0x00, 0x00, 0x00, 0x01, 0x00, 0x00, 0x00, 0x01, 0x00, 0x00, 0x00, 0x01, 0x00, 0x00, 0x00, 0x2C, 0x00, 0x00, 0x00, 0x73, 0x65, 0x71, 0x75, 0x65, 0x6E, 0x74, 0x69, 0x61, 0x6C, 0x2F, 0x73, 0x65, 0x70, 0x61, 0x72, 0x61, 0x62, 0x6C, 0x65, 0x5F, 0x63, 0x6F, 0x6E, 0x76, 0x32, 0x64, 0x2F, 0x73, 0x65, 0x70, 0x61, 0x72, 0x61, 0x62, 0x6C, 0x65, 0x5F, 0x63, 0x6F, 0x6E, 0x76, 0x32, 0x64, 0x00, 0x00, 0x00, 0x00, 0x8C, 0xE0, 0xFF, 0xFF, 0xFA, 0xE1, 0xFF, 0xFF, 0x04, 0x00, 0x00, 0x00, 0x04, 0x00, 0x00, 0x00, 0x00, 0x00, 0x00, 0x00, 0x76, 0xE1, 0xFF, 0xFF, 0x10, 0x00, 0x00, 0x00, 0x15, 0x00, 0x00, 0x00, 0x10, 0x00, 0x00, 0x00, 0x48, 0x00, 0x00, 0x00, 0x01, 0x00, 0x00, 0x00, 0x01, 0x00, 0x00, 0x00, 0x36, 0x00, 0x00, 0x00, 0x73, 0x65, 0x71, 0x75, 0x65, 0x6E, 0x74, 0x69, 0x61, 0x6C, 0x2F, 0x73, 0x65, 0x70, 0x61, 0x72, 0x61, 0x62, 0x6C, 0x65, 0x5F, 0x63, 0x6F, 0x6E, 0x76, 0x32, 0x64, 0x2F, 0x73, 0x65, 0x70, 0x61, 0x72, 0x61, 0x62, 0x6C, 0x65, 0x5F, 0x63, 0x6F, 0x6E, 0x76, 0x32, 0x64, 0x2F, 0x64, 0x65, 0x70, 0x74, 0x68, 0x77, 0x69, 0x73, 0x65, 0x00, 0x00, 0xF8, 0xE0, 0xFF, 0xFF, 0x66, 0xE2, 0xFF, 0xFF, 0x04, 0x00, 0x00, 0x00, 0x24, 0x00, 0x00, 0x00, 0x9C, 0x12, 0xC5, 0x3F, 0x2E, 0xAB, 0xD3, 0x3D, 0xC3, 0x11, 0xFB, 0xBC, 0xA1, 0xC8, 0x21, 0xBE, 0x26, 0xA7, 0xAF, 0xBD, 0x68, 0xD7, 0x14, 0xBD, 0xC7, 0x3C, 0x46, 0x3E, 0xBA, 0xE7, 0xB8, 0x3D, 0xF0, 0x28, 0xAE, 0x3D, 0x02, 0xE2, 0xFF, 0xFF, 0x10, 0x00, 0x00, 0x00, 0x14, 0x00, 0x00, 0x00, 0x1C, 0x00, 0x00, 0x00, 0x44, 0x00, 0x00, 0x00, 0x04, 0x00, 0x00, 0x00, 0x01, 0x00, 0x00, 0x00, 0x03, 0x00, 0x00, 0x00, 0x03, 0x00, 0x00, 0x00, 0x01, 0x00, 0x00, 0x00, 0x25, 0x00, 0x00, 0x00, 0x73, 0x65, 0x71, 0x75, 0x65, 0x6E, 0x74, 0x69, 0x61, 0x6C, 0x2F, 0x64, 0x65, 0x70, 0x74, 0x68, 0x77, 0x69, 0x73, 0x65, 0x5F, 0x63, 0x6F, 0x6E, 0x76, 0x32, 0x64, 0x2F, 0x64, 0x65, 0x70, 0x74, 0x68, 0x77, 0x69, 0x73, 0x65, 0x00, 0x00, 0x00, 0x80, 0xE1, 0xFF, 0xFF, 0xEE, 0xE2, 0xFF, 0xFF, 0x04, 0x00, 0x00, 0x00, 0x00, 0x03, 0x00, 0x00, 0x58, 0xC1, 0xD7, 0x3E, 0x8E, 0x86, 0x7C, 0x3E, 0x70, 0x2E, 0x52, 0x3E, 0xA6, 0x7B, 0xBD, 0x3E, 0xC4, 0xCB, 0x96, 0x3E, 0xFF, 0xCC, 0x10, 0xBF, 0xF0, 0x23, 0x27, 0xBE, 0x44, 0xFE, 0x0F, 0xBE, 0x92, 0xE0, 0x0A, 0x3E, 0x0A, 0x17, 0x32, 0xBF, 0x59, 0xA0, 0xD8, 0x3E, 0x4D, 0x18, 0xB5, 0x3D, 0xB3, 0x5F, 0xDC, 0xBE, 0x65, 0x3C, 0xE8, 0xBF, 0xFF, 0x6F, 0xA3, 0xBE, 0x81, 0x41, 0xCD, 0x3E, 0xFF, 0xE8, 0x02, 0xBF, 0x7E, 0x5B, 0x20, 0xBF, 0x9C, 0xA7, 0xA6, 0x3E, 0x46, 0xB8, 0x9C, 0x3E, 0x3F, 0x81, 0x82, 0x3E, 0x42, 0xD8, 0x29, 0xBC, 0xA0, 0xF1, 0x03, 0x3D, 0xBA, 0xD2, 0xD2, 0x3E, 0xAE, 0xA1, 0x11, 0x3F, 0x42, 0x0A, 0x8F, 0xBF, 0xEE, 0x9A, 0x8A, 0xBF, 0x76, 0xF9, 0xE3, 0x3E, 0x4A, 0x83, 0x84, 0x3E, 0xE6, 0xCD, 0xD4, 0xBE, 0x3F, 0xBD, 0x15, 0xBF, 0xF0, 0xA8, 0x3D, 0xBF, 0x62, 0x44, 0x09, 0xBF, 0xDB, 0x0B, 0x45, 0xBF, 0x49, 0xCB, 0x0C, 0xBF, 0xEC, 0x4B, 0xBF, 0x3E, 0x4F, 0x08, 0xA8, 0x3E, 0x5B, 0xBE, 0xF6, 0x3D, 0x48, 0x90, 0x8E, 0xBF, 0x3F, 0xD9, 0x13, 0xBE, 0x69, 0xBE, 0x9E, 0x3E, 0xDD, 0xA0, 0x2B, 0xBF, 0xC5, 0x04, 0x90, 0xBE, 0x7D, 0x8C, 0x56, 0xBF, 0xED, 0x19, 0x74, 0xBF, 0x09, 0xE7, 0x38, 0x3E, 0xA3, 0xB6, 0x37, 0xBF, 0x72, 0xC6, 0xD9, 0x3E, 0xD3, 0xB1, 0xD2, 0x3E, 0x94, 0xDE, 0xB8, 0x3E, 0xD0, 0xF9, 0xD7, 0x3C, 0xD1, 0x63, 0xBC, 0xBD, 0xF8, 0xF3, 0x78, 0xBF, 0x07, 0x8E, 0x05, 0x3F, 0x00, 0x9A, 0x01, 0x3E, 0x2F, 0x20, 0x0E, 0xBF, 0x47, 0x1D, 0x02, 0x3F, 0x93, 0xF1, 0x40, 0x3E, 0xBA, 0x01, 0xC0, 0x3E, 0xB0, 0x49, 0x40, 0xBE, 0x67, 0x5B, 0xB2, 0x3E, 0x67, 0x0A, 0x7C, 0xBF, 0xF2, 0x90, 0xE5, 0x3E, 0x01, 0x2E, 0xF8, 0xBE, 0x75, 0x10, 0xA6, 0xBE, 0x57, 0x3F, 0x94, 0x3E, 0xE6, 0x93, 0xB1, 0x3E, 0xF3, 0x64, 0x91, 0x3C, 0xAA, 0x47, 0x79, 0xBF, 0xBD, 0x93, 0xA5, 0x3E, 0xD6, 0xDA, 0x92, 0x3E, 0xA1, 0x88, 0xE4, 0x3C, 0x52, 0xEE, 0x86, 0x3E, 0x4D, 0x6C, 0xA4, 0x3E, 0xA8, 0x83, 0x91, 0x3E, 0x5D, 0xE6, 0x1B, 0x3E, 0xC3, 0xDD, 0x8C, 0x3E, 0x6F, 0xBE, 0xC9, 0x3E, 0x76, 0x01, 0xAB, 0x3E, 0x6D, 0x6C, 0x55, 0xBF, 0xC1, 0x95, 0x30, 0x3F, 0x49, 0x59, 0xA9, 0x3E, 0x0F, 0x54, 0x98, 0x3D, 0x09, 0x4F, 0xB8, 0x3E, 0x97, 0xEA, 0x93, 0x3E, 0x5F, 0x8F, 0x27, 0xBF, 0xF2, 0xFF, 0x81, 0x3D, 0x27, 0x27, 0x63, 0xBF, 0x27, 0x15, 0x32, 0xBF, 0x88, 0xB4, 0x80, 0x3E, 0x33, 0xF7, 0x93, 0xBE, 0x8C, 0x01, 0x30, 0xBF, 0xD1, 0xAE, 0xA3, 0x3E, 0x69, 0x0E, 0xFC, 0x3E, 0x9E, 0x0C, 0x94, 0xBE, 0x45, 0x1C, 0x64, 0x3E, 0xC5, 0x2B, 0x3B, 0xBF, 0x94, 0xAE, 0x9A, 0x3E, 0x9F, 0x2E, 0xA5, 0x3E, 0xD9, 0x49, 0xEA, 0xBD, 0x4A, 0xCF, 0x0D, 0x3E, 0x6B, 0x04, 0x93, 0x3E, 0xAB, 0x75, 0xAF, 0xBE, 0x8A, 0x17, 0xCF, 0xBD, 0xD3, 0xE5, 0x95, 0x3E, 0x9B, 0x9B, 0x58, 0x3E, 0xC8, 0x84, 0xBB, 0xBE, 0x2E, 0xA1, 0x1A, 0x3E, 0x85, 0xD1, 0x9B, 0x3E, 0x7F, 0xD3, 0x38, 0xBF, 0xA2, 0xF2, 0x98, 0x3E, 0xD3, 0x9C, 0x85, 0xBD, 0x0F, 0xDC, 0x6E, 0x3E, 0xBC, 0x0F, 0xA3, 0x3E, 0xDD, 0x14, 0x74, 0xBF, 0xE8, 0x26, 0x0A, 0xBF, 0xB1, 0x68, 0x4B, 0x3E, 0x6B, 0x51, 0xC2, 0xBD, 0x65, 0x14, 0x3C, 0xBD, 0x2F, 0x17, 0x08, 0x3E, 0x81, 0x2F, 0x89, 0xBE, 0x21, 0x4D, 0x09, 0x3E, 0x51, 0x2A, 0xEA, 0xBC, 0x1F, 0x37, 0x5E, 0x3E, 0xA7, 0x9A, 0xB6, 0x3E, 0x0F, 0xCC, 0x05, 0x3F, 0x98, 0xF6, 0xDA, 0xBE, 0x6C, 0xBE, 0x64, 0x3E, 0xD4, 0x33, 0xCF, 0x3E, 0xC1, 0x13, 0x67, 0x3E, 0x30, 0xD3, 0x90, 0xBF, 0xA3, 0xA6, 0x86, 0xBF, 0xB0, 0x6E, 0x78, 0x3C, 0x87, 0xCA, 0x79, 0x3E, 0x2F, 0xD4, 0x9F, 0xBE, 0xBD, 0x3A, 0xC4, 0xBF, 0xA2, 0x6F, 0x9E, 0xBF, 0xB6, 0x79, 0x0C, 0x3E, 0xC3, 0xE8, 0xAD, 0x3E, 0x22, 0x46, 0x49, 0xBF, 0x4B, 0x59, 0x30, 0x3E, 0x8F, 0xF7, 0x4C, 0x3F, 0x6C, 0x01, 0x33, 0x3E, 0xEE, 0xAD, 0xA3, 0x3E, 0x20, 0x74, 0x1C, 0xBF, 0xAB, 0x01, 0x25, 0xBF, 0x3F, 0xDD, 0xDD, 0x3E, 0x36, 0xFC, 0x29, 0xBF, 0xC5, 0x14, 0x60, 0x3E, 0x55, 0x4B, 0x92, 0x3E, 0x09, 0x9A, 0x8A, 0xBF, 0x9D, 0x97, 0xB1, 0x3E, 0x81, 0x46, 0x48, 0x3D, 0x75, 0xE2, 0x17, 0x3E, 0xE9, 0x3A, 0xDF, 0x3D, 0x5E, 0xC2, 0xC9, 0x3E, 0xEA, 0x6F, 0x9C, 0xBF, 0x8B, 0xA2, 0x8D, 0xBF, 0x58, 0xCC, 0x18, 0x3E, 0x58, 0x0D, 0x09, 0x3E, 0xD9, 0xEE, 0xA1, 0xBF, 0x12, 0xB9, 0x8D, 0xC0, 0xD4, 0x92, 0xE5, 0xBF, 0xCD, 0xC7, 0x82, 0xC0, 0x59, 0x11, 0x8F, 0xC0, 0xAC, 0x1F, 0x69, 0xC0, 0xA2, 0xC5, 0xCD, 0xBF, 0xCE, 0xC4, 0x81, 0xC0, 0x75, 0x81, 0x32, 0xC0, 0x21, 0x2C, 0x87, 0xC0, 0x57, 0x79, 0x55, 0xC0, 0xED, 0xA2, 0x83, 0xC0, 0x92, 0x4F, 0x4F, 0xC0, 0x9D, 0xD2, 0x87, 0xBF, 0x08, 0xAF, 0x84, 0xC0, 0x32, 0xD2, 0x8D, 0xC0, 0xD3, 0xA4, 0x4C, 0xC0, 0x5A, 0x63, 0x24, 0xC0, 0x53, 0x4C, 0x1C, 0xC0, 0x15, 0x36, 0x39, 0xC0, 0x83, 0x70, 0x87, 0xC0, 0x71, 0xE4, 0x7C, 0xC0, 0x64, 0x9B, 0x91, 0xC0, 0x65, 0xA5, 0x27, 0xC0, 0xBE, 0x1B, 0x67, 0xC0, 0xA4, 0xF8, 0x3A, 0xC0, 0xCD, 0x2B, 0x9E, 0xC0, 0x14, 0x76, 0xB4, 0xC0, 0x45, 0x08, 0x92, 0xC0, 0xA7, 0x70, 0x68, 0xBF, 0xB0, 0x1C, 0x68, 0xC0, 0x5A, 0x48, 0x7F, 0xC0, 0x66, 0xE5, 0xFF, 0xFF, 0x10, 0x00, 0x00, 0x00, 0x13, 0x00, 0x00, 0x00, 0x14, 0x00, 0x00, 0x00, 0x30, 0x00, 0x00, 0x00, 0x02, 0x00, 0x00, 0x00, 0x06, 0x00, 0x00, 0x00, 0x20, 0x00, 0x00, 0x00, 0x19, 0x00, 0x00, 0x00, 0x73, 0x65, 0x71, 0x75, 0x65, 0x6E, 0x74, 0x69, 0x61, 0x6C, 0x2F, 0x64, 0x65, 0x6E, 0x73, 0x65, 0x5F, 0x31, 0x2F, 0x4D, 0x61, 0x74, 0x4D, 0x75, 0x6C, 0x00, 0x00, 0x00, 0xD0, 0xE4, 0xFF, 0xFF, 0x3E, 0xE6, 0xFF, 0xFF, 0x04, 0x00, 0x00, 0x00, 0x00, 0x10, 0x00, 0x00, 0xCE, 0x0C, 0xDC, 0xBD, 0xEE, 0xB0, 0x70, 0xBE, 0x89, 0xC0, 0xD8, 0xBE, 0x2E, 0x79, 0xD8, 0x3D, 0x2C, 0x11, 0x92, 0x3D, 0x44, 0xD3, 0xEC, 0x3E, 0x23, 0xEC, 0x83, 0xBF, 0xF8, 0x2A, 0x9F, 0x3D, 0xAB, 0x04, 0x9C, 0x3D, 0x21, 0x5B, 0x88, 0x3E, 0xE8, 0x4A, 0x82, 0xBF, 0xDF, 0xDF, 0xCD, 0xBD, 0xCF, 0x84, 0x62, 0x3E, 0x23, 0x39, 0x3C, 0x3E, 0x9C, 0x63, 0xE2, 0xBE, 0xC1, 0x96, 0x34, 0xBF, 0x9D, 0x68, 0x6D, 0x3E, 0xB7, 0xF5, 0xB6, 0xBD, 0x1D, 0x34, 0x98, 0x3E, 0xD6, 0xF5, 0xEC, 0x3E, 0xBA, 0xB7, 0x22, 0xBE, 0x13, 0x42, 0x11, 0x3E, 0x1B, 0x3A, 0x01, 0xBF, 0x4B, 0x8A, 0xC9, 0x3E, 0x32, 0x71, 0x6D, 0x3F, 0x62, 0xC2, 0x0D, 0x3E, 0x57, 0x21, 0x3F, 0x3F, 0x89, 0x53, 0x4C, 0xBF, 0x90, 0xFB, 0x57, 0x3E, 0x82, 0x0D, 0x96, 0xBE, 0x15, 0x6D, 0x2E, 0x3E, 0x42, 0x03, 0x2F, 0x3E, 0x81, 0x7B, 0x07, 0x3F, 0x93, 0xEE, 0xAA, 0xBE, 0x0C, 0xFE, 0x97, 0xBE, 0x9D, 0x0D, 0x87, 0xBC, 0x82, 0x37, 0x80, 0xBE, 0x44, 0xB0, 0xD6, 0x3D, 0x3E, 0xEF, 0x69, 0xBD, 0x08, 0x83, 0x3B, 0xBE, 0x8A, 0x33, 0x99, 0x3C, 0x45, 0xCA, 0x2F, 0xBE, 0xBC, 0x4F, 0xF3, 0x3E, 0x19, 0xB3, 0x25, 0x3F, 0x1D, 0x8A, 0xA7, 0x3E, 0x02, 0x79, 0xC1, 0xBE, 0xE5, 0x70, 0xCD, 0xBE, 0x55, 0x5F, 0xE2, 0xBE, 0xF1, 0xE3, 0x31, 0x3E, 0x5A, 0x30, 0xD2, 0xBE, 0x38, 0x4A, 0x2F, 0x3D, 0x63, 0xA0, 0x4A, 0x3E, 0x95, 0xF0, 0x53, 0xBE, 0x59, 0xAD, 0x8A, 0x3E, 0x73, 0x31, 0x91, 0xBE, 0x84, 0xCD, 0x10, 0x3F, 0xD2, 0xA8, 0x21, 0xBE, 0x99, 0xFB, 0x10, 0x3F, 0x76, 0x74, 0x10, 0xBF, 0xDF, 0xFE, 0x10, 0x3D, 0x13, 0x7B, 0xA1, 0x3E, 0x5F, 0x3C, 0x8E, 0x3D, 0x31, 0x9F, 0x34, 0x3F, 0xC0, 0x93, 0x77, 0xBE, 0x67, 0x53, 0x06, 0xBF, 0xEE, 0xD3, 0x12, 0x3F, 0x94, 0x75, 0x6E, 0xBE, 0xA3, 0xB3, 0x47, 0x3E, 0xA4, 0x39, 0xE6, 0xBE, 0xF7, 0x73, 0x29, 0xBF, 0xBF, 0x07, 0x0E, 0x3F, 0x61, 0x1A, 0x38, 0x3E, 0x57, 0xFD, 0x88, 0x3E, 0xBB, 0x50, 0x69, 0x3E, 0xFE, 0xB8, 0x83, 0x3F, 0x0E, 0x11, 0x4C, 0x3E, 0xC5, 0x59, 0x9F, 0xBE, 0xD5, 0x72, 0x2F, 0xBE, 0xA2, 0x1D, 0x66, 0xBD, 0x88, 0xC7, 0x1B, 0xBF, 0x1B, 0xFE, 0xAB, 0x3E, 0xB5, 0x07, 0x87, 0xBD, 0xA8, 0x5A, 0xEA, 0xBB, 0xB2, 0xFD, 0x56, 0xBE, 0x1F, 0x54, 0x09, 0xBE, 0x38, 0x63, 0x8E, 0x3E, 0x78, 0x5F, 0x14, 0x3E, 0x6B, 0x92, 0xC1, 0x3D, 0xD3, 0xCA, 0xAC, 0xBF, 0x1D, 0x71, 0x14, 0x3F, 0x09, 0x3E, 0x21, 0xBF, 0xA5, 0xCA, 0x01, 0x3F, 0x6E, 0x04, 0x07, 0x3F, 0x69, 0x3F, 0x3B, 0xBC, 0x3E, 0x0E, 0xC2, 0x3E, 0x69, 0xA8, 0x79, 0xBE, 0x42, 0x72, 0x88, 0xBE, 0xC7, 0xDD, 0x5B, 0xBC, 0xC6, 0x4A, 0x91, 0xBE, 0xCE, 0x8B, 0x54, 0xBE, 0x18, 0x27, 0x1C, 0x3E, 0x5B, 0x40, 0xE4, 0xBE, 0xE4, 0xA9, 0xA3, 0xBE, 0xAE, 0x42, 0xAA, 0x3B, 0xE0, 0xF3, 0x91, 0xBE, 0xC8, 0xDB, 0x6D, 0xBE, 0x89, 0xBC, 0x20, 0xBF, 0x2A, 0x6A, 0x9A, 0xBE, 0x1E, 0x3E, 0x98, 0xBF, 0x7E, 0x4D, 0x14, 0xBF, 0x5E, 0xBD, 0xF9, 0x3C, 0xCC, 0x40, 0x91, 0x3C, 0xED, 0xDF, 0xD4, 0xBD, 0xE1, 0xE9, 0x94, 0x3D, 0x21, 0xF7, 0x87, 0x3E, 0x78, 0xD0, 0x44, 0x3E, 0xF8, 0x9E, 0x02, 0x3F, 0x96, 0xA5, 0x21, 0x3E, 0x59, 0x3E, 0x02, 0x3F, 0x9E, 0x67, 0x2D, 0xBF, 0xFB, 0x2E, 0x9A, 0xBD, 0x85, 0xF9, 0xB9, 0x3E, 0x51, 0x4F, 0x59, 0x3E, 0xAF, 0x23, 0x7A, 0x3F, 0x43, 0xB7, 0x8D, 0xBD, 0xCD, 0x24, 0x4F, 0x3F, 0xD8, 0xCF, 0x42, 0x3E, 0x18, 0x41, 0xE3, 0xBE, 0x02, 0xAA, 0x5D, 0xBE, 0x48, 0xED, 0x16, 0xBD, 0x7F, 0xDB, 0x0B, 0xBF, 0x86, 0x58, 0x84, 0x3E, 0x17, 0x11, 0x96, 0x3E, 0x4E, 0x80, 0x2E, 0xBF, 0xAB, 0x55, 0xCA, 0xBC, 0xB2, 0x18, 0x19, 0xBE, 0xAC, 0x2C, 0x0E, 0xBE, 0xDB, 0x26, 0x1D, 0xBE, 0xA4, 0xFE, 0xBF, 0xBF, 0x3C, 0x20, 0x91, 0xBE, 0xF0, 0x52, 0x64, 0x3D, 0x17, 0x31, 0xC0, 0x3E, 0xFC, 0x74, 0x5D, 0x3F, 0xB3, 0x9E, 0x03, 0x3F, 0x87, 0x1A, 0x52, 0xBE, 0xE5, 0x4A, 0x34, 0x3E, 0x98, 0xDD, 0x17, 0xBF, 0xA7, 0x0C, 0xAB, 0x3E, 0x53, 0x6D, 0x2D, 0x3E, 0xF2, 0x8B, 0x62, 0x3F, 0xEE, 0xE7, 0x87, 0xBD, 0x79, 0x0F, 0x98, 0xBE, 0xB3, 0x6B, 0xDD, 0x3E, 0xB0, 0xCA, 0x6A, 0xBE, 0x51, 0xD7, 0xC7, 0x3E, 0xB1, 0xA7, 0x96, 0xBD, 0x87, 0xA0, 0x1F, 0x3E, 0x84, 0x3D, 0x3E, 0x3D, 0x6D, 0x35, 0x13, 0xBF, 0x51, 0xAC, 0xC1, 0xBE, 0xB6, 0xE6, 0x9C, 0xBF, 0x90, 0xB1, 0xD0, 0x3D, 0x5F, 0xE0, 0x57, 0xBF, 0x1F, 0x8F, 0xBA, 0x3E, 0x93, 0xEE, 0x8A, 0x3E, 0x09, 0xFC, 0x3E, 0xBD, 0x3F, 0xA2, 0xC8, 0xBD, 0xC6, 0x04, 0xA2, 0xBE, 0xFD, 0xE1, 0x52, 0x3F, 0x4E, 0x3E, 0xCA, 0x3D, 0x53, 0xAE, 0x69, 0x3E, 0x3A, 0x91, 0x4C, 0xBE, 0xFB, 0x73, 0x01, 0x3F, 0xA4, 0x21, 0x80, 0xBE, 0x6C, 0xA8, 0x35, 0x3F, 0xCB, 0xCA, 0xBC, 0xBE, 0x3C, 0xF4, 0x4C, 0xBF, 0xCB, 0x0E, 0xA2, 0x3D, 0xBD, 0x5C, 0xA2, 0xBE, 0xEE, 0xF8, 0x3E, 0x3E, 0xF3, 0xED, 0x87, 0xBE, 0x6A, 0x74, 0x46, 0x3F, 0x65, 0x6E, 0x4E, 0xBF, 0xA9, 0x73, 0x00, 0x3F, 0x25, 0xA3, 0xC8, 0x3E, 0x14, 0xC3, 0xB9, 0xBE, 0x34, 0x85, 0x22, 0x3F, 0xEB, 0xED, 0xA1, 0xBE, 0x87, 0x48, 0xDD, 0xBE, 0xA3, 0xA2, 0xB4, 0xBE, 0x7A, 0x15, 0xD1, 0xBE, 0x94, 0x15, 0xB8, 0x3E, 0x0A, 0xB4, 0x18, 0xBE, 0xEC, 0xC2, 0x2F, 0xBF, 0xDD, 0x8D, 0x88, 0xBE, 0x9C, 0x4A, 0x6D, 0xBE, 0xD3, 0x49, 0x03, 0xBF, 0x67, 0xD4, 0x73, 0x3E, 0x2A, 0x4F, 0x1D, 0xBF, 0x85, 0xB0, 0x67, 0x3F, 0x93, 0xE7, 0x89, 0xBD, 0x33, 0x31, 0x33, 0x3F, 0x76, 0x5C, 0x0C, 0xBF, 0xDF, 0x9B, 0x03, 0xBD, 0xD5, 0xCA, 0xE5, 0x3E, 0xF3, 0x00, 0x8F, 0x3C, 0x07, 0xC6, 0x52, 0xBF, 0x2E, 0xBF, 0x5A, 0xBE, 0x43, 0xAE, 0xA4, 0xBE, 0x3A, 0x5C, 0x92, 0x3E, 0x05, 0x0F, 0x9C, 0xBE, 0xED, 0x81, 0x11, 0x3E, 0xE7, 0xB6, 0x1F, 0xBB, 0x69, 0x05, 0xF6, 0x3E, 0xD9, 0x42, 0x54, 0x3E, 0x48, 0x92, 0x85, 0x3E, 0x57, 0xD3, 0x5B, 0x3D, 0x49, 0x94, 0x6B, 0xBD, 0xD1, 0x67, 0x30, 0x3E, 0xF4, 0x69, 0x00, 0x3E, 0xC0, 0xED, 0x95, 0x3D, 0x86, 0xA4, 0x3C, 0xBE, 0x07, 0xC0, 0x7B, 0x3E, 0x40, 0xB5, 0xA9, 0x3E, 0x90, 0x80, 0x9D, 0xBE, 0x17, 0xF8, 0x83, 0x3E, 0xD2, 0x1B, 0x82, 0x3E, 0x6B, 0xF4, 0x11, 0xBE, 0x10, 0xED, 0xED, 0xBE, 0xC1, 0xCF, 0xE5, 0x3E, 0x22, 0x99, 0x9C, 0x3D, 0x07, 0x1B, 0x5B, 0x3F, 0x28, 0x61, 0x8C, 0x3E, 0x01, 0xC5, 0x95, 0x3D, 0xDA, 0x09, 0xBA, 0x3F, 0xCD, 0xC1, 0x0C, 0x3E, 0x8B, 0xF0, 0x84, 0xBE, 0x2E, 0x38, 0x08, 0x3E, 0x98, 0xB5, 0xA6, 0xBE, 0xFD, 0x7A, 0xE3, 0xBE, 0x12, 0xD8, 0xC7, 0x3D, 0x74, 0xC1, 0xA0, 0xBD, 0x72, 0x08, 0x8B, 0xBD, 0x57, 0x98, 0x3E, 0xBF, 0x12, 0xCC, 0xA0, 0xBD, 0x6E, 0x64, 0x37, 0x3F, 0xFA, 0x53, 0x23, 0x3F, 0xAA, 0xFA, 0xF5, 0x3D, 0x78, 0xC0, 0x79, 0xBF, 0xAF, 0x3C, 0x54, 0x3E, 0xA2, 0xB4, 0x90, 0xBE, 0x29, 0xDD, 0x06, 0xBF, 0xF2, 0x34, 0x23, 0x3F, 0xF2, 0xAE, 0x39, 0xBE, 0x40, 0xA8, 0x05, 0x3F, 0xF4, 0xBC, 0x11, 0x3C, 0x13, 0x12, 0x14, 0x3E, 0x70, 0x02, 0x50, 0x3F, 0x43, 0x15, 0xB9, 0x3E, 0x67, 0xD3, 0xC3, 0x3E, 0xD9, 0xA1, 0xD9, 0xBE, 0xA8, 0x95, 0x91, 0x3E, 0x93, 0x5C, 0xFD, 0x3C, 0x61, 0x54, 0x31, 0x3F, 0x9F, 0xFF, 0x28, 0x3F, 0x4B, 0xCD, 0x30, 0x3E, 0x0A, 0x44, 0x19, 0x3F, 0x36, 0x83, 0xF7, 0x3D, 0xEA, 0xBF, 0x87, 0xBC, 0x41, 0x8B, 0x54, 0xBE, 0x74, 0xE5, 0x6B, 0x3F, 0xA2, 0x7D, 0xF6, 0xBD, 0xAF, 0x7C, 0x30, 0x3E, 0xA0, 0x89, 0x00, 0xBE, 0xD0, 0x3F, 0xA3, 0xBC, 0x19, 0x23, 0x53, 0xBF, 0x04, 0xA2, 0x9E, 0x3E, 0x37, 0x3D, 0x9E, 0x3E, 0xE7, 0x38, 0xED, 0x3E, 0x5F, 0x57, 0x36, 0xBE, 0xF5, 0xC9, 0x01, 0xBF, 0x17, 0xD7, 0x66, 0xBD, 0xEC, 0xA4, 0x07, 0xBF, 0x27, 0x27, 0xC6, 0x3C, 0x43, 0x55, 0xEF, 0x3E, 0xC0, 0x62, 0x98, 0x3C, 0x9F, 0xB0, 0x03, 0x3E, 0xC2, 0x2D, 0xDF, 0xBE, 0xFE, 0xB9, 0x5C, 0x3D, 0x66, 0x49, 0x4E, 0xBE, 0x65, 0xD4, 0xB0, 0xBD, 0x69, 0x2D, 0x14, 0xBD, 0x52, 0x4D, 0xDF, 0x3D, 0x69, 0x0E, 0x18, 0x3C, 0x8E, 0x05, 0xA6, 0x3D, 0x2F, 0xB7, 0xDA, 0xBD, 0xEF, 0xDA, 0x5A, 0x3E, 0x75, 0x1E, 0x01, 0xBD, 0xB7, 0xD4, 0x62, 0x3F, 0x5F, 0x79, 0x2E, 0x3F, 0xE1, 0x57, 0xDE, 0x3D, 0x28, 0xF9, 0xB2, 0x3E, 0xF6, 0x1B, 0x4B, 0x3E, 0x4E, 0xA3, 0x32, 0xBE, 0x20, 0x31, 0xF2, 0xBE, 0x0C, 0x3A, 0xA6, 0xBE, 0xBD, 0xF6, 0x00, 0xBE, 0xCD, 0x04, 0x7C, 0xBF, 0xBB, 0xA2, 0xEB, 0xBC, 0xEC, 0x17, 0xA9, 0xBE, 0x56, 0x68, 0x24, 0xBF, 0x2D, 0x6B, 0x88, 0x3E, 0xB1, 0xD9, 0x60, 0xBF, 0x78, 0x89, 0x89, 0xBC, 0xB6, 0x1A, 0x48, 0x3E, 0x08, 0x6F, 0x23, 0xBF, 0x7E, 0x1C, 0xCA, 0xBE, 0x49, 0x06, 0x9A, 0xBD, 0xBC, 0x9E, 0x0C, 0x3D, 0x00, 0xDB, 0x5E, 0xBE, 0x64, 0x02, 0x46, 0x3E, 0x2F, 0x13, 0x0A, 0xBF, 0x64, 0x57, 0x7E, 0xBD, 0xAC, 0x69, 0x08, 0x3C, 0x53, 0x0B, 0x0D, 0xBF, 0x77, 0x0D, 0x34, 0x3F, 0x2F, 0x26, 0x0C, 0xBF, 0x31, 0xF1, 0x67, 0x3E, 0xF3, 0x96, 0x3F, 0x3E, 0x66, 0x4F, 0xC2, 0x3C, 0x39, 0x7B, 0xEA, 0xBE, 0xA6, 0x83, 0xE8, 0x3E, 0xD7, 0x75, 0x9F, 0xBE, 0x38, 0x38, 0x58, 0x3F, 0xEA, 0x6A, 0x34, 0xBF, 0xC8, 0x54, 0x23, 0xBF, 0xCC, 0x59, 0x11, 0x3F, 0xB9, 0x8C, 0x45, 0x3E, 0x1F, 0x90, 0x36, 0x3E, 0x55, 0x77, 0xA5, 0x3E, 0xBF, 0x7C, 0x0A, 0x3F, 0x55, 0x5E, 0x5C, 0xBE, 0x32, 0x1B, 0xA6, 0xBE, 0x00, 0xD8, 0xCF, 0x3E, 0xC1, 0x7E, 0xCF, 0x3E, 0x17, 0x3F, 0x93, 0x3E, 0x0A, 0xBA, 0x96, 0x3E, 0x07, 0xF8, 0xDD, 0xBE, 0x49, 0x5A, 0x63, 0x3E, 0xB5, 0x6A, 0x45, 0xBE, 0x01, 0x92, 0xF0, 0x3E, 0xB8, 0x6E, 0x27, 0x3F, 0x39, 0x58, 0x61, 0x3E, 0xFA, 0x6A, 0x3F, 0xBD, 0xCD, 0x3D, 0x24, 0x3E, 0xA6, 0x39, 0x14, 0xBE, 0xD7, 0xE4, 0xB2, 0xBE, 0x62, 0xF4, 0xA0, 0xBF, 0x6A, 0x1D, 0x59, 0x3D, 0x4C, 0x2B, 0x56, 0x3E, 0x02, 0x5E, 0xA9, 0x3C, 0xB5, 0x54, 0x18, 0x3E, 0xAE, 0x43, 0x1D, 0x3F, 0xEA, 0xEE, 0x80, 0x3E, 0xB0, 0x67, 0x98, 0x3D, 0xB3, 0x4C, 0x16, 0x3E, 0x9F, 0xF3, 0x12, 0xBF, 0xCA, 0xF3, 0x34, 0xBE, 0x16, 0x8A, 0xFE, 0x3E, 0x10, 0x53, 0xCF, 0xBC, 0xC3, 0xDA, 0x13, 0xBB, 0xCD, 0x2B, 0x65, 0xBE, 0xD1, 0xAC, 0x0F, 0x3E, 0xD7, 0xCB, 0x26, 0x3F, 0x6A, 0xBC, 0xD8, 0xBC, 0xFD, 0x33, 0x94, 0x3E, 0xDC, 0x13, 0x5B, 0xBF, 0xF7, 0xA1, 0x0B, 0x3E, 0x9D, 0x70, 0xEF, 0xBE, 0xB0, 0xE1, 0xBF, 0x3D, 0xDE, 0x38, 0xFF, 0x3E, 0xA2, 0x56, 0x03, 0x3E, 0xFA, 0x11, 0x58, 0x3F, 0xB2, 0xD1, 0x1F, 0x3D, 0xE2, 0xEB, 0x3F, 0xBF, 0x83, 0xEE, 0xDC, 0x3E, 0xE8, 0x0D, 0x20, 0xBE, 0xC0, 0x66, 0x17, 0x3E, 0x3C, 0xCA, 0xB6, 0x3E, 0xD9, 0x44, 0x37, 0xBF, 0x2C, 0x5E, 0xA8, 0x3D, 0x5B, 0x38, 0x2F, 0xBF, 0x37, 0x66, 0x10, 0x3F, 0xE0, 0xCA, 0xF3, 0x3D, 0x08, 0x21, 0x43, 0x3F, 0xED, 0x2C, 0x3F, 0x3E, 0xA7, 0xEF, 0xCA, 0x3E, 0x43, 0x2D, 0x9C, 0x3D, 0x25, 0x5F, 0x67, 0xBF, 0x45, 0x5B, 0xF0, 0xBE, 0xF1, 0x53, 0x1E, 0xBE, 0x14, 0x2A, 0x9D, 0xBE, 0x9D, 0xB1, 0x08, 0x3F, 0x41, 0x0B, 0x13, 0xBE, 0xDB, 0x7E, 0x22, 0xBF, 0x76, 0xBB, 0x49, 0x3E, 0xCA, 0x4C, 0x61, 0xBD, 0x8E, 0xA3, 0x06, 0x3F, 0x78, 0x7E, 0xD4, 0xBC, 0x0E, 0x09, 0x3A, 0xBD, 0x7D, 0x82, 0x0C, 0x3D, 0x07, 0xE1, 0xB5, 0xBD, 0x56, 0xC4, 0x8C, 0xBF, 0xC4, 0xDD, 0xB4, 0xBD, 0xA7, 0xF0, 0x79, 0x3E, 0x50, 0x6C, 0x41, 0x3E, 0x57, 0x2D, 0xD1, 0xBE, 0x75, 0x65, 0x6E, 0xBF, 0x3D, 0xDA, 0x25, 0x3E, 0x9D, 0xDA, 0x7A, 0xBF, 0x41, 0x06, 0x14, 0x3F, 0xA5, 0x8E, 0x89, 0x3E, 0xF0, 0x29, 0xEA, 0xBE, 0x4A, 0x87, 0x8B, 0xBE, 0x8A, 0x4D, 0x87, 0xBE, 0xDC, 0xD5, 0x36, 0x3E, 0x89, 0x26, 0x28, 0x3E, 0xF7, 0x64, 0xA0, 0xBD, 0x71, 0x7A, 0x40, 0x3E, 0xCD, 0x88, 0x25, 0x3F, 0x63, 0xBE, 0xBA, 0xBD, 0xF7, 0xBB, 0xE4, 0x3E, 0x85, 0x17, 0x16, 0xBF, 0x02, 0xF9, 0x3F, 0xBF, 0xE4, 0xD2, 0xB9, 0x3E, 0xBC, 0xA6, 0x5B, 0xBF, 0x20, 0xE8, 0xA8, 0x3B, 0x52, 0x16, 0xC2, 0x3E, 0x56, 0xD3, 0x81, 0x3D, 0xFF, 0xE6, 0x27, 0xBE, 0x1F, 0x50, 0xE5, 0xBD, 0xA1, 0x29, 0x72, 0xBD, 0xD7, 0xEC, 0xD8, 0xBE, 0xE9, 0xEC, 0x3F, 0x3E, 0xB5, 0x92, 0xC9, 0xBE, 0xFC, 0x9C, 0x32, 0xBE, 0x4A, 0xE0, 0xB3, 0xBC, 0xEE, 0x3C, 0x4A, 0x3F, 0x2B, 0x60, 0x1B, 0xBF, 0x78, 0xCE, 0x75, 0x3E, 0xBB, 0xF6, 0x8E, 0xBE, 0xDA, 0x72, 0x96, 0x3C, 0x60, 0x93, 0x60, 0xBE, 0x4C, 0xEE, 0x70, 0xBE, 0xA7, 0xDC, 0xA0, 0x3D, 0x26, 0x65, 0xEE, 0xBE, 0xC3, 0x33, 0x1F, 0x3C, 0x6B, 0x0D, 0x02, 0x3E, 0xBE, 0x6E, 0x37, 0x3F, 0x56, 0x4B, 0x4B, 0x3F, 0xA6, 0x6D, 0xE5, 0x3D, 0x40, 0xEA, 0x3C, 0x3E, 0xB4, 0x75, 0xA7, 0xBC, 0x80, 0x59, 0x72, 0xBF, 0xC1, 0x22, 0xB4, 0xBE, 0x39, 0x9E, 0xC0, 0xBE, 0x0F, 0x58, 0xD5, 0xBE, 0x97, 0x54, 0x29, 0xBF, 0x97, 0x0C, 0x10, 0xBE, 0xD2, 0x22, 0x4B, 0x3E, 0x75, 0xC8, 0x8A, 0xBE, 0xFF, 0x76, 0xF8, 0x3E, 0x38, 0x6F, 0x81, 0xBF, 0x37, 0xF2, 0xCF, 0x3D, 0x8C, 0x3D, 0xC1, 0xBE, 0xD4, 0xFE, 0x28, 0x3E, 0x63, 0x54, 0x03, 0xBE, 0xAC, 0xBB, 0x00, 0x3E, 0x8C, 0x38, 0x39, 0x3E, 0x68, 0xD3, 0x47, 0x3E, 0xF8, 0xDF, 0x23, 0x3E, 0x6E, 0xA1, 0xE9, 0xBE, 0xB7, 0xBA, 0x42, 0xBF, 0xA8, 0xE2, 0x5E, 0xBD, 0x48, 0xCE, 0x86, 0xBE, 0x62, 0x45, 0x07, 0x3E, 0xCE, 0x93, 0x40, 0xBE, 0x36, 0x17, 0x5F, 0x3E, 0x42, 0x90, 0x02, 0xBF, 0x85, 0xCE, 0x49, 0xBE, 0x4E, 0xD4, 0x94, 0xBF, 0x46, 0x74, 0x60, 0x3D, 0xB7, 0x01, 0x3D, 0x3E, 0x88, 0x79, 0x71, 0xBD, 0x3A, 0xAA, 0x08, 0x3F, 0x9D, 0x2E, 0x5F, 0x3D, 0xA1, 0xCA, 0x07, 0x3F, 0x0B, 0x77, 0x3D, 0x3F, 0xB6, 0xD5, 0x8E, 0xBD, 0x7D, 0x91, 0x86, 0x3E, 0x38, 0x5E, 0x25, 0x3E, 0x4A, 0x66, 0x90, 0x3E, 0x99, 0x4A, 0x05, 0xBE, 0xAF, 0x5F, 0x62, 0xBD, 0x4D, 0xB5, 0x6A, 0x3F, 0x06, 0x34, 0xB6, 0x3E, 0xFD, 0x9D, 0x32, 0x3F, 0xEC, 0xFA, 0xAE, 0xBC, 0xD4, 0xCA, 0x8D, 0x3E, 0x19, 0xF2, 0x3B, 0xBE, 0x80, 0xAD, 0xC2, 0x3E, 0x1C, 0x12, 0x16, 0xBE, 0xC2, 0x70, 0x96, 0xBC, 0x63, 0xA8, 0x2E, 0x3F, 0x3B, 0x80, 0xC6, 0x3D, 0xD3, 0xA0, 0x85, 0x3E, 0x51, 0x9C, 0x06, 0x3E, 0xDE, 0xEE, 0x17, 0xBE, 0x33, 0xD3, 0x39, 0xBF, 0x0D, 0xF1, 0x98, 0x3E, 0x9C, 0xBE, 0x19, 0x3F, 0x19, 0x41, 0x73, 0x3E, 0xCA, 0x6F, 0x40, 0x3F, 0x8D, 0x27, 0x69, 0xBE, 0xDE, 0xB4, 0xF1, 0xBD, 0x9F, 0x93, 0x5F, 0x3E, 0x8F, 0xFF, 0xBC, 0xBE, 0x13, 0x04, 0x85, 0xBE, 0x9D, 0x04, 0x25, 0x3E, 0xA0, 0x0F, 0xAD, 0xBE, 0xA5, 0x38, 0x12, 0x3F, 0x9E, 0xBB, 0xB0, 0xBF, 0xD7, 0xE4, 0xC5, 0x3E, 0x5E, 0xFD, 0x32, 0xBF, 0x33, 0x58, 0x95, 0x3D, 0xA1, 0x3D, 0x14, 0xBE, 0x8C, 0x35, 0x82, 0xBE, 0xB5, 0x16, 0x57, 0xBE, 0x52, 0x6B, 0xB2, 0xBE, 0xAB, 0xFE, 0xCF, 0xBE, 0x98, 0x14, 0x9E, 0xBC, 0x87, 0x59, 0x8C, 0xBE, 0x84, 0xFE, 0x10, 0x3F, 0xA1, 0xA1, 0xD8, 0xBE, 0xD3, 0x76, 0x4E, 0xBE, 0x32, 0x5E, 0x19, 0x3F, 0x9F, 0xEF, 0x2C, 0x3F, 0xBE, 0x2E, 0xCC, 0x3D, 0xFB, 0xDE, 0x35, 0xBF, 0xEA, 0x33, 0x10, 0x3F, 0x4F, 0xE1, 0x48, 0x3E, 0x1C, 0xD1, 0xB2, 0x3E, 0x17, 0x47, 0xC5, 0x3E, 0xDF, 0x48, 0xA3, 0xBE, 0xD9, 0xBC, 0xE7, 0x3E, 0xE6, 0x7F, 0x1E, 0x3D, 0xE0, 0x41, 0x3E, 0x3E, 0xFA, 0xB0, 0x0E, 0xBE, 0xD2, 0x24, 0xF7, 0x3E, 0xF1, 0xB4, 0xD5, 0x3D, 0xC1, 0x9A, 0x8C, 0xBD, 0x5F, 0xD5, 0xD6, 0xBE, 0x24, 0xFB, 0x15, 0xBC, 0xB6, 0x34, 0x46, 0xBF, 0x42, 0x7A, 0x46, 0xBE, 0x68, 0x9B, 0x8A, 0xBE, 0x2C, 0xA5, 0x7B, 0x3F, 0x50, 0xCF, 0x81, 0x3E, 0x8C, 0xF2, 0xAB, 0xBF, 0x0E, 0x04, 0x8B, 0xBE, 0xB6, 0xC6, 0xED, 0xBE, 0x50, 0x0F, 0x99, 0xBE, 0x1A, 0xB7, 0x9F, 0xBD, 0x05, 0x9A, 0x46, 0xBD, 0xE1, 0xF5, 0xA3, 0x3E, 0x6E, 0x25, 0xDB, 0xBC, 0x10, 0x25, 0x47, 0x3E, 0x68, 0x8C, 0x4E, 0xBF, 0x2D, 0xDC, 0x67, 0xBE, 0x03, 0x5E, 0x11, 0xBF, 0x53, 0xB6, 0x7F, 0x3E, 0xD7, 0x42, 0x21, 0x3F, 0x85, 0xDD, 0x30, 0xBF, 0x54, 0xB1, 0x0A, 0x3E, 0x95, 0x8F, 0x6F, 0xBD, 0x9C, 0x40, 0xE4, 0x3E, 0xFA, 0x72, 0x08, 0xBF, 0x7A, 0x92, 0x07, 0x3E, 0x97, 0xEB, 0xB9, 0x3E, 0xD6, 0x97, 0x54, 0x3F, 0xC0, 0xC3, 0xAB, 0xBE, 0x7D, 0x0B, 0x3D, 0xBF, 0x00, 0x33, 0xBA, 0xBD, 0x69, 0xC5, 0x52, 0xBE, 0x07, 0x4A, 0x3A, 0x3F, 0xF5, 0xAB, 0x41, 0x3E, 0x71, 0x9B, 0x5B, 0x3E, 0x78, 0x0B, 0x26, 0xBE, 0xBF, 0x0C, 0x89, 0xBE, 0x2B, 0xBE, 0x2B, 0xBE, 0x76, 0x81, 0x35, 0x3F, 0x17, 0x60, 0xEB, 0xBC, 0x49, 0x3B, 0xB1, 0x3E, 0xB8, 0x1D, 0x41, 0x3E, 0x1F, 0x41, 0xFE, 0xBE, 0xF8, 0xC3, 0x8E, 0xBE, 0x1B, 0x9C, 0x04, 0x3E, 0x29, 0x29, 0xF8, 0x3E, 0x98, 0x11, 0x0C, 0x3F, 0x68, 0x17, 0xAD, 0xBE, 0x8A, 0xDE, 0x57, 0x3D, 0x97, 0x81, 0x00, 0xBF, 0x7A, 0x26, 0xC4, 0xBE, 0x65, 0xFD, 0x2F, 0x3E, 0xD1, 0xD0, 0x53, 0xBE, 0x0D, 0x8D, 0x44, 0x3E, 0xC0, 0x90, 0xC8, 0xBE, 0x94, 0xE0, 0x5A, 0xBD, 0x61, 0xF8, 0x58, 0xBE, 0x46, 0xFB, 0x0D, 0x3F, 0xFE, 0x9C, 0x25, 0xBF, 0xB7, 0xD4, 0x5A, 0x3E, 0x50, 0xC2, 0x1B, 0xBF, 0x26, 0xD2, 0x2B, 0xBB, 0xBC, 0x37, 0xA6, 0x3E, 0xEF, 0x4F, 0x02, 0x3E, 0xF2, 0xF7, 0x7A, 0xBE, 0x0D, 0x65, 0x0E, 0x3F, 0x31, 0xB8, 0x11, 0x3F, 0x59, 0xDA, 0x00, 0xBF, 0x02, 0x67, 0x5A, 0x3D, 0x2B, 0xB8, 0xFD, 0x3D, 0x51, 0x4D, 0x8B, 0xBE, 0x1D, 0x4C, 0xDA, 0x3E, 0x1C, 0x51, 0xDF, 0xBE, 0x48, 0x01, 0xA3, 0x3E, 0x91, 0x4A, 0x5E, 0xBE, 0x06, 0x74, 0x1B, 0x3F, 0x72, 0x7F, 0x6F, 0x3E, 0x78, 0x26, 0x99, 0x3E, 0x73, 0xE9, 0x85, 0x3E, 0xB0, 0xF2, 0x1E, 0xBF, 0x34, 0xEA, 0x2D, 0xBE, 0xA3, 0x4D, 0xBB, 0xBE, 0x7D, 0x50, 0xAF, 0xBE, 0x90, 0xA5, 0xF3, 0x3E, 0xEC, 0xEC, 0x96, 0xBD, 0x7D, 0x65, 0x82, 0x3D, 0x22, 0xDE, 0xA3, 0xBE, 0x52, 0x43, 0x74, 0xBE, 0xA1, 0x21, 0xCB, 0x3E, 0x18, 0x92, 0x13, 0x3E, 0xA1, 0x6D, 0x9B, 0x3E, 0x2B, 0x6C, 0x36, 0xBE, 0xA6, 0x34, 0x18, 0xBF, 0xC3, 0xE9, 0x95, 0xBF, 0x22, 0xBC, 0xB2, 0xBC, 0x5B, 0xDC, 0xD3, 0xBE, 0xE8, 0x23, 0x37, 0xBD, 0x39, 0x71, 0x54, 0x3E, 0xE9, 0x06, 0x41, 0xBE, 0xD9, 0x38, 0x57, 0x3E, 0x05, 0x94, 0x77, 0xBE, 0x0E, 0x9A, 0x86, 0x3E, 0x2C, 0xF9, 0xD8, 0x3E, 0xD1, 0x0B, 0x17, 0x3F, 0x5E, 0x5F, 0xAC, 0x3D, 0xE4, 0x48, 0xA6, 0xBD, 0x40, 0x61, 0x77, 0x3E, 0xEE, 0x51, 0x84, 0x3E, 0xE5, 0xF5, 0x0D, 0x3F, 0xFC, 0x13, 0x81, 0x3E, 0xE5, 0xAB, 0xB1, 0xBE, 0xC1, 0x76, 0xE3, 0xBD, 0x9D, 0xBD, 0x37, 0xBF, 0x87, 0xAF, 0xE4, 0x3E, 0x3A, 0x2B, 0x02, 0x3F, 0xD5, 0xB7, 0x9D, 0x3E, 0x79, 0x27, 0xA5, 0xBD, 0x09, 0x07, 0xD6, 0x3D, 0x1C, 0x05, 0xA3, 0x3E, 0xA6, 0xB0, 0x21, 0xBE, 0xCD, 0x56, 0x72, 0xBF, 0x5F, 0x40, 0xD2, 0xBE, 0x0A, 0x74, 0x3B, 0x3D, 0x07, 0xA6, 0x7D, 0xBF, 0x4A, 0x36, 0xB5, 0x3E, 0x9B, 0xBF, 0xC1, 0x3E, 0xC7, 0x79, 0x07, 0x3E, 0x8C, 0xCA, 0xA3, 0x3E, 0xFC, 0x0C, 0x84, 0x3E, 0x2C, 0x7E, 0x6A, 0xBD, 0x92, 0x51, 0xA4, 0x3D, 0xE1, 0x59, 0x11, 0x3E, 0xF0, 0x07, 0xC3, 0xBD, 0xEE, 0x94, 0xB3, 0xBE, 0x68, 0x89, 0x8D, 0x3F, 0xFF, 0xD3, 0xD0, 0xBE, 0x0E, 0x34, 0x53, 0x3F, 0x9D, 0x7A, 0xA0, 0xBB, 0x29, 0xC1, 0x11, 0xBF, 0xFA, 0xC9, 0x06, 0xBF, 0xBC, 0xB6, 0xC4, 0xBE, 0x1C, 0x97, 0x52, 0x3E, 0x27, 0x72, 0x25, 0x3B, 0x28, 0x23, 0x12, 0xBD, 0x98, 0x47, 0xCA, 0xBD, 0x7C, 0xC1, 0x98, 0x3E, 0xE5, 0xB9, 0xA1, 0x3D, 0x91, 0xAD, 0x1D, 0x3D, 0xBF, 0xEB, 0x8D, 0xBF, 0xBC, 0x96, 0xF0, 0x3E, 0xC3, 0x77, 0x51, 0xBD, 0x26, 0x60, 0xAA, 0xBD, 0xC6, 0x96, 0x17, 0xBD, 0x2C, 0x07, 0x04, 0x3F, 0x8D, 0x97, 0x7A, 0xBF, 0xB8, 0xE6, 0x21, 0xBC, 0x8F, 0x4C, 0x77, 0x3E, 0x66, 0x95, 0x01, 0xBD, 0xA5, 0x94, 0x6C, 0xBD, 0x5F, 0x69, 0x7C, 0xBD, 0xBA, 0xA7, 0x39, 0xBC, 0x7B, 0xB8, 0x1F, 0xBC, 0x40, 0xB0, 0x15, 0x3F, 0x2E, 0xF0, 0xEC, 0xBE, 0x35, 0x95, 0x56, 0x3F, 0xDB, 0x0C, 0x89, 0xBD, 0xC1, 0xB3, 0x73, 0xBE, 0x18, 0xC6, 0x34, 0x3D, 0x75, 0x8E, 0x9A, 0xBE, 0x52, 0x96, 0x49, 0x3E, 0xF7, 0xBF, 0xA8, 0x3E, 0x30, 0xB0, 0xFD, 0x3E, 0x2B, 0xBF, 0x0A, 0xBB, 0xDF, 0xE8, 0xED, 0xBE, 0xAF, 0xF9, 0x25, 0xBE, 0x5D, 0x70, 0x42, 0x3D, 0xE8, 0x1C, 0x7D, 0xBE, 0x71, 0x62, 0xA6, 0xBE, 0xE1, 0xB2, 0xEB, 0xBE, 0x83, 0x59, 0xE8, 0x3E, 0xFC, 0x3E, 0xCE, 0xBE, 0xEA, 0xD7, 0x17, 0xBA, 0x82, 0x8D, 0xAF, 0x3E, 0x2A, 0x66, 0x9F, 0xBF, 0x05, 0xE2, 0x9C, 0xBF, 0x53, 0xA3, 0x51, 0x3E, 0x64, 0x49, 0x9C, 0xBE, 0x6F, 0x0B, 0x34, 0xBF, 0xDF, 0x2F, 0x63, 0x3D, 0x6C, 0xDC, 0x97, 0x3E, 0x14, 0xBA, 0xEB, 0x3E, 0x53, 0x6B, 0x09, 0x3D, 0x6F, 0x84, 0xA3, 0xBD, 0xBA, 0x69, 0xC5, 0x3E, 0xAD, 0x06, 0x86, 0xBE, 0xFA, 0xE5, 0xA3, 0x3F, 0x1E, 0x32, 0xAD, 0x3C, 0x45, 0x24, 0xB5, 0x3E, 0x98, 0x41, 0x1C, 0x3F, 0xF9, 0x45, 0x4B, 0x3C, 0x8B, 0x28, 0x82, 0x3E, 0x26, 0x8F, 0x11, 0xBF, 0x61, 0xD9, 0xB9, 0x3E, 0x10, 0xF7, 0xC4, 0x3E, 0x42, 0x3C, 0x35, 0x3E, 0x85, 0x1D, 0xE5, 0xBD, 0x96, 0x1C, 0x9A, 0x3D, 0x00, 0xC6, 0x9D, 0xBD, 0xEE, 0x3A, 0xE8, 0xBE, 0x93, 0xEE, 0x1F, 0x3D, 0x25, 0xFA, 0xF6, 0xBE, 0x20, 0x79, 0x5C, 0xBE, 0xA7, 0xAF, 0x13, 0xBE, 0xC6, 0x27, 0xA9, 0x3E, 0xBA, 0xBA, 0x8E, 0xBE, 0xDD, 0xAD, 0x6B, 0xBE, 0x5D, 0x06, 0x7D, 0xBF, 0x1B, 0xF8, 0x92, 0x3E, 0xB9, 0xEA, 0x07, 0xBF, 0xCE, 0x20, 0xDF, 0xBE, 0x10, 0xA4, 0xB4, 0x3E, 0x0C, 0xB1, 0xF2, 0x3D, 0x4F, 0xA9, 0x47, 0x3F, 0x5E, 0x0C, 0x05, 0x3F, 0xE7, 0x04, 0x05, 0xBF, 0x98, 0x3B, 0xA2, 0x3E, 0xB9, 0x40, 0x47, 0x3F, 0x79, 0x90, 0xE1, 0x3E, 0x58, 0xBA, 0xC5, 0x3D, 0xE3, 0xB9, 0x73, 0xBE, 0xBE, 0x7F, 0x68, 0x3E, 0xD8, 0xC3, 0x40, 0x3E, 0x5A, 0x5F, 0x31, 0x3C, 0x24, 0x7E, 0x31, 0x3F, 0x71, 0xA4, 0x78, 0x3E, 0x0D, 0x24, 0xF3, 0x3E, 0x4E, 0x08, 0x91, 0x3E, 0x39, 0xF6, 0x0B, 0xBE, 0x95, 0x47, 0x61, 0xBF, 0x56, 0x77, 0xD4, 0xBE, 0xB4, 0xD2, 0x0D, 0x3D, 0x9C, 0x54, 0x6C, 0xBE, 0x10, 0xEF, 0x92, 0x3E, 0x96, 0x4C, 0xBD, 0x3E, 0x4E, 0x03, 0x00, 0xBF, 0xF8, 0xA3, 0x17, 0xBE, 0x83, 0x90, 0xF4, 0x3E, 0xF9, 0x6B, 0xBD, 0x3E, 0x51, 0xED, 0xA0, 0x3D, 0x2F, 0xAD, 0x10, 0x3E, 0xF2, 0xDE, 0x37, 0x3F, 0x68, 0x46, 0x29, 0x3E, 0x99, 0x95, 0xE9, 0x3E, 0x36, 0xF4, 0x0B, 0x3F, 0x54, 0xAC, 0xF7, 0xBE, 0x7F, 0x45, 0x04, 0xBE, 0xD8, 0x1C, 0xC8, 0xBE, 0x29, 0x61, 0xB0, 0x3B, 0x10, 0xEF, 0x4A, 0xBE, 0x80, 0x5C, 0x42, 0x3F, 0xE6, 0x36, 0x3B, 0xBC, 0xB5, 0xEC, 0x6E, 0x3E, 0x4F, 0xEF, 0x12, 0x3F, 0xDC, 0x04, 0x02, 0xBF, 0x04, 0x04, 0xB3, 0x3E, 0x36, 0x66, 0x8C, 0xBE, 0x24, 0x6F, 0x19, 0xBF, 0x81, 0xA5, 0x2C, 0xBF, 0x5B, 0xC2, 0xC1, 0xBE, 0xDE, 0x77, 0x98, 0x3E, 0x22, 0x7A, 0x1A, 0xBF, 0x12, 0xD8, 0x08, 0xBE, 0xBF, 0xCF, 0x39, 0xBE, 0x42, 0xC3, 0x35, 0x3E, 0x28, 0x68, 0x24, 0xBE, 0xFA, 0xE2, 0x3F, 0x3F, 0x51, 0x9E, 0x95, 0x3E, 0x88, 0x4F, 0x0D, 0x3E, 0x3F, 0x38, 0xD8, 0xBE, 0x7C, 0x26, 0x27, 0x3F, 0xA5, 0xDE, 0x05, 0xBF, 0x7D, 0xC0, 0x62, 0xBE, 0x8C, 0x2B, 0xD9, 0xBE, 0x3F, 0xD8, 0xDB, 0x3E, 0xF8, 0x24, 0x79, 0x3E, 0x21, 0x96, 0xBA, 0x3E, 0x64, 0xF9, 0x30, 0x3E, 0x8F, 0xBB, 0xD5, 0x3E, 0xC1, 0x6F, 0x38, 0x3E, 0x10, 0x3E, 0xE3, 0x3D, 0x7E, 0x92, 0xA7, 0x3E, 0xBE, 0xAE, 0xB5, 0x3C, 0x81, 0xEF, 0xC5, 0xBE, 0xE6, 0xB7, 0x02, 0xBF, 0x12, 0x11, 0xC2, 0x3E, 0x54, 0xF4, 0x1B, 0xBF, 0x29, 0xC8, 0x83, 0x3E, 0xD2, 0x7E, 0xE0, 0x3E, 0x73, 0x74, 0x7A, 0xBF, 0x27, 0xA6, 0xD6, 0xBE, 0xFD, 0x1A, 0x50, 0xBF, 0x9E, 0xC1, 0xDD, 0x3C, 0x1E, 0x72, 0x11, 0x3E, 0x6A, 0x51, 0x28, 0xBD, 0xBD, 0x75, 0xDA, 0xBE, 0xB9, 0xBB, 0x91, 0x39, 0xBA, 0xCE, 0x18, 0xBF, 0x2D, 0xC7, 0xC2, 0x3E, 0x92, 0x70, 0x14, 0x3E, 0xE2, 0xC8, 0x92, 0x3E, 0x2E, 0xFB, 0x80, 0xBE, 0x58, 0x7A, 0xAC, 0xBF, 0xD9, 0x01, 0xA6, 0xBE, 0x98, 0xE4, 0x94, 0x3E, 0xE3, 0x8E, 0xAC, 0xBE, 0x66, 0x3D, 0x0C, 0xBE, 0xEE, 0x55, 0x02, 0x3E, 0x9A, 0xEC, 0x65, 0x3E, 0x76, 0xCC, 0x18, 0x3F, 0x86, 0xB5, 0x7E, 0x3E, 0xCE, 0xAF, 0x8A, 0xBE, 0x4F, 0xAB, 0xCD, 0x3E, 0xC0, 0x04, 0xDC, 0x3E, 0xEB, 0x3E, 0x19, 0x3F, 0xAD, 0x00, 0x19, 0x3E, 0xB9, 0x06, 0xE5, 0x3D, 0x6F, 0xCB, 0x3B, 0x3E, 0x8E, 0x97, 0x6B, 0x3E, 0xE6, 0xB6, 0xAF, 0x3D, 0x8E, 0x3F, 0xD1, 0xBE, 0x3E, 0x6C, 0xB2, 0x3E, 0x24, 0xE7, 0x90, 0x3E, 0x8E, 0x30, 0x01, 0x3F, 0x08, 0xFC, 0x06, 0xBF, 0x3D, 0x04, 0x2D, 0xBF, 0x72, 0xD1, 0x7D, 0x3E, 0x2A, 0xD6, 0xA1, 0x3E, 0xB3, 0x63, 0x68, 0xBE, 0x27, 0x68, 0x83, 0xBC, 0x88, 0x7A, 0xA3, 0xBF, 0x8C, 0xC0, 0xA8, 0xBE, 0x96, 0x1F, 0xBD, 0xBD, 0xC9, 0x0A, 0x11, 0x3F, 0x3C, 0xF7, 0x53, 0xBC, 0xA0, 0x4A, 0xBA, 0x3E, 0xA9, 0x87, 0x7C, 0xBE, 0x7F, 0xFF, 0x03, 0xBE, 0xD4, 0x85, 0x8F, 0xBE, 0x0A, 0xAE, 0xC6, 0xBE, 0x9B, 0xDC, 0x1C, 0x3E, 0x43, 0x3D, 0x69, 0x3E, 0x2C, 0x27, 0x8D, 0xBD, 0x8C, 0x16, 0x1B, 0x3F, 0xAD, 0x11, 0x39, 0xBF, 0xC3, 0xFF, 0x65, 0x3E, 0x66, 0x7C, 0x5B, 0x3F, 0x9F, 0x02, 0xF2, 0x3E, 0xFA, 0xDE, 0x33, 0xBE, 0x74, 0x79, 0x14, 0x3E, 0x92, 0x37, 0xD4, 0xBE, 0x4F, 0x9D, 0xDB, 0xBD, 0xC2, 0xE4, 0x07, 0x3F, 0x02, 0x95, 0x6B, 0x3E, 0x8A, 0x14, 0xC2, 0x3E, 0xC3, 0xE5, 0xEE, 0x3E, 0xDC, 0x84, 0x41, 0xBF, 0xDD, 0x3F, 0xCC, 0x3E, 0x98, 0x0B, 0x08, 0x3E, 0xE3, 0x63, 0xB3, 0x3E, 0x98, 0x13, 0xED, 0xBE, 0xCC, 0xDD, 0x8B, 0x3C, 0xC4, 0x1C, 0x97, 0xBF, 0x06, 0x3C, 0x61, 0x3E, 0xB5, 0x53, 0x72, 0x3D, 0xC2, 0x16, 0x4C, 0xBC, 0x8F, 0xA2, 0x0F, 0xBF, 0x0B, 0x2F, 0x01, 0xBF, 0x9B, 0xC4, 0x1E, 0x3E, 0xDE, 0x40, 0x9E, 0x3E, 0x04, 0x01, 0x40, 0xBE, 0x29, 0x6B, 0x98, 0xBF, 0x22, 0x7B, 0x73, 0xBC, 0x58, 0xE4, 0xD1, 0x3E, 0x77, 0xBD, 0xBB, 0xBD, 0xB3, 0xFC, 0x4E, 0x3D, 0xDB, 0x13, 0x00, 0xBF, 0x97, 0xBF, 0x62, 0x3D, 0xE1, 0x12, 0xED, 0xBE, 0x01, 0x29, 0xA1, 0x3E, 0x66, 0xC2, 0x8D, 0x3D, 0xED, 0xE6, 0x13, 0xBF, 0xB5, 0x46, 0x98, 0xBE, 0x9C, 0xE5, 0x0F, 0xBE, 0x85, 0x6E, 0x89, 0x3E, 0x7E, 0x10, 0xA5, 0xBD, 0x5D, 0x20, 0xD6, 0x3D, 0x4A, 0xB5, 0xD8, 0x3E, 0x55, 0x3C, 0x1C, 0xBD, 0xB7, 0x92, 0xBD, 0xBE, 0x74, 0xCD, 0x04, 0xBF, 0xCF, 0xEB, 0xE2, 0xBE, 0x3D, 0x5D, 0x2B, 0xBE, 0x47, 0x90, 0x27, 0x3F, 0x88, 0xD6, 0xAE, 0x3E, 0xC8, 0x10, 0x3A, 0xBE, 0x99, 0x2E, 0xBF, 0xBE, 0x37, 0x9A, 0xA5, 0xBD, 0x5C, 0x33, 0xC9, 0x3E, 0x42, 0xFC, 0x59, 0xBF, 0xDB, 0xC8, 0xE5, 0xBE, 0x5B, 0x44, 0xE6, 0x3E, 0xB9, 0x32, 0x95, 0xBD, 0x25, 0xC3, 0xE7, 0x3E, 0xA2, 0xDB, 0xBF, 0x3D, 0xD1, 0xCD, 0xF7, 0xBE, 0x74, 0xC5, 0x1B, 0xBE, 0x59, 0x6D, 0x49, 0x3E, 0xD1, 0xE7, 0x1F, 0xBD, 0x09, 0x16, 0xED, 0x3D, 0x43, 0x95, 0xD0, 0xBD, 0x40, 0xF8, 0x04, 0xBC, 0xED, 0xBB, 0x84, 0xBE, 0xEF, 0x8D, 0x3B, 0x3F, 0x10, 0xFD, 0x01, 0xBF, 0xF5, 0xF3, 0xD6, 0x3E, 0x33, 0x67, 0x9E, 0x3E, 0xFE, 0x7D, 0x41, 0xBF, 0xFF, 0x64, 0xA6, 0xBE, 0xCE, 0x0C, 0xD3, 0xBE, 0x2C, 0x45, 0xB7, 0x3E, 0x6F, 0xEF, 0x77, 0xBF, 0x9D, 0x2F, 0x33, 0x3F, 0x6E, 0x5B, 0x81, 0xBE, 0x1D, 0x87, 0xBD, 0x3E, 0x53, 0x9B, 0xA1, 0x3E, 0x8C, 0x58, 0x28, 0xBE, 0x29, 0xE2, 0xBE, 0x3E, 0x17, 0x77, 0xFF, 0xBE, 0x99, 0x03, 0xE6, 0x3E, 0x54, 0x44, 0xDA, 0xBD, 0x7D, 0x56, 0xEC, 0x3E, 0xFC, 0xE8, 0xB1, 0x3E, 0x68, 0xBA, 0x79, 0xBE, 0xF6, 0xD9, 0x96, 0xBD, 0x5E, 0x79, 0x3B, 0x3D, 0xB5, 0xE6, 0x9C, 0xBE, 0xE9, 0xC3, 0x18, 0xBF, 0xD7, 0x67, 0x43, 0xBE, 0xE2, 0xCD, 0x8D, 0x3C, 0x58, 0xA1, 0x22, 0xBD, 0x71, 0xF3, 0x98, 0xBE, 0x93, 0xA0, 0x8E, 0xBD, 0xCE, 0x4C, 0x6B, 0xBE, 0x27, 0x3A, 0xBB, 0x3E, 0x57, 0xD6, 0x59, 0xBF, 0x4A, 0xD7, 0xC7, 0xBE, 0x3B, 0x74, 0x88, 0x3E, 0x5A, 0xF0, 0xFA, 0xBE, 0x74, 0x1D, 0x20, 0xBF, 0x70, 0xF1, 0xBD, 0x3E, 0x3E, 0x7C, 0x44, 0xBE, 0x15, 0xCA, 0x0A, 0xBE, 0xB6, 0xF5, 0xFF, 0xFF, 0x10, 0x00, 0x00, 0x00, 0x12, 0x00, 0x00, 0x00, 0x14, 0x00, 0x00, 0x00, 0x2C, 0x00, 0x00, 0x00, 0x02, 0x00, 0x00, 0x00, 0x20, 0x00, 0x00, 0x00, 0x20, 0x00, 0x00, 0x00, 0x17, 0x00, 0x00, 0x00, 0x73, 0x65, 0x71, 0x75, 0x65, 0x6E, 0x74, 0x69, 0x61, 0x6C, 0x2F, 0x64, 0x65, 0x6E, 0x73, 0x65, 0x2F, 0x4D, 0x61, 0x74, 0x4D, 0x75, 0x6C, 0x00, 0x1C, 0xF5, 0xFF, 0xFF, 0x8A, 0xF6, 0xFF, 0xFF, 0x04, 0x00, 0x00, 0x00, 0x80, 0x00, 0x00, 0x00, 0x9C, 0xD6, 0x7D, 0x41, 0xA8, 0x77, 0xAB, 0x40, 0xEA, 0xB7, 0xCD, 0x40, 0xA4, 0xCD, 0x4E, 0x40, 0xB4, 0xB3, 0x50, 0x40, 0x6C, 0x76, 0x54, 0x42, 0x3D, 0x4A, 0x4A, 0x41, 0x2E, 0x0F, 0x04, 0x40, 0x9C, 0x73, 0xD0, 0x40, 0x7F, 0x13, 0x91, 0x41, 0x35, 0x30, 0xA9, 0x41, 0x59, 0x15, 0xA8, 0x3F, 0xF0, 0xCB, 0x8C, 0x40, 0x9B, 0xB0, 0xAA, 0x40, 0x9F, 0xD2, 0x60, 0x42, 0x5D, 0xE8, 0x3E, 0x41, 0xE6, 0x71, 0x89, 0x40, 0x21, 0x2E, 0x38, 0x41, 0xE0, 0xD7, 0x9E, 0x41, 0x62, 0xD0, 0x0D, 0x41, 0xE8, 0xE2, 0x47, 0x40, 0x49, 0xF4, 0x58, 0x41, 0x0A, 0xF6, 0x17, 0x41, 0x41, 0x66, 0xF1, 0x3F, 0xFF, 0xB8, 0x34, 0x41, 0xCD, 0x7F, 0x17, 0x40, 0x50, 0x51, 0xE0, 0x40, 0x3E, 0x74, 0x48, 0x40, 0xE2, 0xC2, 0x68, 0x40, 0x83, 0x3F, 0x90, 0x40, 0x57, 0x38, 0x0D, 0x41, 0x05, 0x13, 0x90, 0x41, 0x82, 0xF6, 0xFF, 0xFF, 0x10, 0x00, 0x00, 0x00, 0x11, 0x00, 0x00, 0x00, 0x10, 0x00, 0x00, 0x00, 0x44, 0x00, 0x00, 0x00, 0x01, 0x00, 0x00, 0x00, 0x20, 0x00, 0x00, 0x00, 0x32, 0x00, 0x00, 0x00, 0x73, 0x65, 0x71, 0x75, 0x65, 0x6E, 0x74, 0x69, 0x61, 0x6C, 0x2F, 0x62, 0x61, 0x74, 0x63, 0x68, 0x5F, 0x6E, 0x6F, 0x72, 0x6D, 0x61, 0x6C, 0x69, 0x7A, 0x61, 0x74, 0x69, 0x6F, 0x6E, 0x5F, 0x32, 0x2F, 0x46, 0x75, 0x73, 0x65, 0x64, 0x42, 0x61, 0x74, 0x63, 0x68, 0x4E, 0x6F, 0x72, 0x6D, 0x56, 0x33, 0x31, 0x00, 0x00, 0x00, 0xF6, 0xFF, 0xFF, 0x6E, 0xF7, 0xFF, 0xFF, 0x04, 0x00, 0x00, 0x00, 0x80, 0x00, 0x00, 0x00, 0x78, 0x15, 0x35, 0xBE, 0x74, 0xB9, 0xD7, 0xBE, 0x1D, 0x08, 0x4F, 0xBE, 0x0D, 0x74, 0x8C, 0xBF, 0x20, 0xDB, 0x00, 0xBF, 0xEC, 0x4E, 0xD6, 0xBE, 0x4A, 0x0E, 0xE2, 0xBD, 0x98, 0xD1, 0x11, 0xBF, 0x4D, 0x62, 0x8A, 0xBE, 0xB3, 0xF2, 0x2E, 0xBE, 0x9B, 0xC0, 0x28, 0xBF, 0x62, 0x19, 0x91, 0xBF, 0xEB, 0x2C, 0xBB, 0xBF, 0xC6, 0x2D, 0x5A, 0xC0, 0xCD, 0x04, 0x82, 0xBE, 0x42, 0x6D, 0x4E, 0xBE, 0xF6, 0x26, 0xEF, 0xBF, 0xE8, 0xC8, 0x83, 0xBF, 0xFE, 0xC5, 0xB5, 0xBD, 0x80, 0xC0, 0x44, 0xBE, 0x9E, 0xD4, 0x27, 0xBF, 0x01, 0x80, 0x1A, 0xBF, 0x99, 0x72, 0x2D, 0xBE, 0xC3, 0x1D, 0x3B, 0xBF, 0x42, 0xEF, 0x45, 0xBE, 0x7D, 0x7D, 0x66, 0xBF, 0x59, 0x99, 0x5D, 0xBE, 0x16, 0xFA, 0x24, 0xC0, 0x84, 0x07, 0xC8, 0xBE, 0x37, 0x6B, 0xAA, 0xBF, 0xF7, 0xA4, 0xA6, 0xBE, 0x3A, 0xD6, 0xAB, 0xBD, 0x66, 0xF7, 0xFF, 0xFF, 0x10, 0x00, 0x00, 0x00, 0x10, 0x00, 0x00, 0x00, 0x10, 0x00, 0x00, 0x00, 0x44, 0x00, 0x00, 0x00, 0x01, 0x00, 0x00, 0x00, 0x20, 0x00, 0x00, 0x00, 0x31, 0x00, 0x00, 0x00, 0x73, 0x65, 0x71, 0x75, 0x65, 0x6E, 0x74, 0x69, 0x61, 0x6C, 0x2F, 0x62, 0x61, 0x74, 0x63, 0x68, 0x5F, 0x6E, 0x6F, 0x72, 0x6D, 0x61, 0x6C, 0x69, 0x7A, 0x61, 0x74, 0x69, 0x6F, 0x6E, 0x5F, 0x32, 0x2F, 0x46, 0x75, 0x73, 0x65, 0x64, 0x42, 0x61, 0x74, 0x63, 0x68, 0x4E, 0x6F, 0x72, 0x6D, 0x56, 0x33, 0x00, 0x00, 0x00, 0xE4, 0xF6, 0xFF, 0xFF, 0x52, 0xF8, 0xFF, 0xFF, 0x04, 0x00, 0x00, 0x00, 0x40, 0x00, 0x00, 0x00, 0xDC, 0x6C, 0xBD, 0x40, 0xE0, 0x19, 0x6A, 0x41, 0x71, 0xFB, 0xFC, 0x41, 0x71, 0xFB, 0xFC, 0x41, 0x71, 0xFB, 0xFC, 0x41, 0x68, 0xD0, 0xA1, 0x40, 0x1C, 0x2D, 0x30, 0x40, 0x71, 0xFB, 0xFC, 0x41, 0x53, 0x72, 0xBC, 0x40, 0x71, 0xFB, 0xFC, 0x41, 0x71, 0xFB, 0xFC, 0x41, 0x57, 0xC4, 0x60, 0x40, 0x29, 0x4C, 0x1D, 0x41, 0x70, 0xCC, 0xBE, 0x40, 0x71, 0xFB, 0xFC, 0x41, 0x71, 0xFB, 0xFC, 0x41, 0x0A, 0xF8, 0xFF, 0xFF, 0x10, 0x00, 0x00, 0x00, 0x0F, 0x00, 0x00, 0x00, 0x10, 0x00, 0x00, 0x00, 0x44, 0x00, 0x00, 0x00, 0x01, 0x00, 0x00, 0x00, 0x10, 0x00, 0x00, 0x00, 0x32, 0x00, 0x00, 0x00, 0x73, 0x65, 0x71, 0x75, 0x65, 0x6E, 0x74, 0x69, 0x61, 0x6C, 0x2F, 0x62, 0x61, 0x74, 0x63, 0x68, 0x5F, 0x6E, 0x6F, 0x72, 0x6D, 0x61, 0x6C, 0x69, 0x7A, 0x61, 0x74, 0x69, 0x6F, 0x6E, 0x5F, 0x31, 0x2F, 0x46, 0x75, 0x73, 0x65, 0x64, 0x42, 0x61, 0x74, 0x63, 0x68, 0x4E, 0x6F, 0x72, 0x6D, 0x56, 0x33, 0x31, 0x00, 0x00, 0x88, 0xF7, 0xFF, 0xFF, 0xF6, 0xF8, 0xFF, 0xFF, 0x04, 0x00, 0x00, 0x00, 0x40, 0x00, 0x00, 0x00, 0x16, 0xAE, 0x6D, 0xC0, 0x8A, 0xB3, 0x8E, 0x3D, 0x00, 0x00, 0x00, 0x00, 0x00, 0x00, 0x00, 0x00, 0x00, 0x00, 0x00, 0x00, 0x36, 0x21, 0x32, 0xC0, 0xE9, 0x30, 0x0D, 0xBF, 0x00, 0x00, 0x00, 0x00, 0x01, 0x45, 0xBD, 0xC0, 0x00, 0x00, 0x00, 0x00, 0x00, 0x00, 0x00, 0x00, 0x93, 0xC7, 0x8C, 0xBF, 0x46, 0x20, 0xD1, 0xBF, 0x75, 0x83, 0x82, 0xBF, 0x00, 0x00, 0x00, 0x00, 0x00, 0x00, 0x00, 0x00, 0xAE, 0xF8, 0xFF, 0xFF, 0x10, 0x00, 0x00, 0x00, 0x0E, 0x00, 0x00, 0x00, 0x10, 0x00, 0x00, 0x00, 0x44, 0x00, 0x00, 0x00, 0x01, 0x00, 0x00, 0x00, 0x10, 0x00, 0x00, 0x00, 0x31, 0x00, 0x00, 0x00, 0x73, 0x65, 0x71, 0x75, 0x65, 0x6E, 0x74, 0x69, 0x61, 0x6C, 0x2F, 0x62, 0x61, 0x74, 0x63, 0x68, 0x5F, 0x6E, 0x6F, 0x72, 0x6D, 0x61, 0x6C, 0x69, 0x7A, 0x61, 0x74, 0x69, 0x6F, 0x6E, 0x5F, 0x31, 0x2F, 0x46, 0x75, 0x73, 0x65, 0x64, 0x42, 0x61, 0x74, 0x63, 0x68, 0x4E, 0x6F, 0x72, 0x6D, 0x56, 0x33, 0x00, 0x00, 0x00, 0x2C, 0xF8, 0xFF, 0xFF, 0x9A, 0xF9, 0xFF, 0xFF, 0x04, 0x00, 0x00, 0x00, 0x20, 0x00, 0x00, 0x00, 0x71, 0xFB, 0xFC, 0x41, 0x71, 0xFB, 0xFC, 0x41, 0x71, 0xFB, 0xFC, 0x41, 0xF2, 0x67, 0xDB, 0x3F, 0x71, 0xFB, 0xFC, 0x41, 0x71, 0xFB, 0xFC, 0x41, 0xA4, 0x29, 0x33, 0x3F, 0x71, 0xFB, 0xFC, 0x41, 0x32, 0xF9, 0xFF, 0xFF, 0x10, 0x00, 0x00, 0x00, 0x0D, 0x00, 0x00, 0x00, 0x10, 0x00, 0x00, 0x00, 0x44, 0x00, 0x00, 0x00, 0x01, 0x00, 0x00, 0x00, 0x08, 0x00, 0x00, 0x00, 0x30, 0x00, 0x00, 0x00, 0x73, 0x65, 0x71, 0x75, 0x65, 0x6E, 0x74, 0x69, 0x61, 0x6C, 0x2F, 0x62, 0x61, 0x74, 0x63, 0x68, 0x5F, 0x6E, 0x6F, 0x72, 0x6D, 0x61, 0x6C, 0x69, 0x7A, 0x61, 0x74, 0x69, 0x6F, 0x6E, 0x2F, 0x46, 0x75, 0x73, 0x65, 0x64, 0x42, 0x61, 0x74, 0x63, 0x68, 0x4E, 0x6F, 0x72, 0x6D, 0x56, 0x33, 0x31, 0x00, 0x00, 0x00, 0x00, 0xB0, 