/*
 * Quantization Aware Trained (QAT) CNN
 * SeparableConv2D and Depthwise2D convolutions only
 * Currently not working due to unbalanced quantization
 */

#ifndef TENSORFLOW_LITE_MICRO_MODEL_H_
#define TENSORFLOW_LITE_MICRO_MODEL_H_

extern const unsigned char model_data[];
extern const int model_data_len;

#endif  // TENSORFLOW_LITE_MICRO_MODEL_H_

const int model_data_len = 20680;

alignas(8) const unsigned char model_data[] = 
{ 
0x20, 0x00, 0x00, 0x00, 0x54, 0x46, 0x4C, 0x33, 0x00, 0x00, 0x00, 0x00, 0x14, 0x00, 0x20, 0x00, 0x1C, 0x00, 0x18, 0x00, 0x14, 0x00, 0x10, 0x00, 0x0C, 0x00, 0x00, 0x00, 0x08, 0x00, 0x04, 0x00, 0x14, 0x00, 0x00, 0x00, 0x1C, 0x00, 0x00, 0x00, 0x1C, 0x00, 0x00, 0x00, 0x4C, 0x00, 0x00, 0x00, 0x28, 0x0F, 0x00, 0x00, 0x38, 0x0F, 0x00, 0x00, 0xB8, 0x4F, 0x00, 0x00, 0x03, 0x00, 0x00, 0x00, 0x00, 0x00, 0x00, 0x00, 0x01, 0x00, 0x00, 0x00, 0x0C, 0x00, 0x00, 0x00, 0x08, 0x00, 0x0C, 0x00, 0x08, 0x00, 0x04, 0x00, 0x08, 0x00, 0x00, 0x00, 0x44, 0x00, 0x00, 0x00, 0x04, 0x00, 0x00, 0x00, 0x13, 0x00, 0x00, 0x00, 0x6D, 0x69, 0x6E, 0x5F, 0x72, 0x75, 0x6E, 0x74, 0x69, 0x6D, 0x65, 0x5F, 0x76, 0x65, 0x72, 0x73, 0x69, 0x6F, 0x6E, 0x00, 0x45, 0x00, 0x00, 0x00, 0xD8, 0x0E, 0x00, 0x00, 0xD0, 0x0E, 0x00, 0x00, 0xB8, 0x0E, 0x00, 0x00, 0x98, 0x0E, 0x00, 0x00, 0x84, 0x0E, 0x00, 0x00, 0x70, 0x0E, 0x00, 0x00, 0x5C, 0x0E, 0x00, 0x00, 0x48, 0x0E, 0x00, 0x00, 0x28, 0x0E, 0x00, 0x00, 0x14, 0x0E, 0x00, 0x00, 0x00, 0x0E, 0x00, 0x00, 0xB4, 0x0D, 0x00, 0x00, 0x94, 0x0D, 0x00, 0x00, 0x80, 0x0D, 0x00, 0x00, 0x60, 0x0D, 0x00, 0x00, 0x30, 0x0D, 0x00, 0x00, 0x00, 0x0D, 0x00, 0x00, 0xE8, 0x0C, 0x00, 0x00, 0xD0, 0x0C, 0x00, 0x00, 0x78, 0x0C, 0x00, 0x00, 0x48, 0x0C, 0x00, 0x00, 0x30, 0x0C, 0x00, 0x00, 0x00, 0x0C, 0x00, 0x00, 0x70, 0x0B, 0x00, 0x00, 0x20, 0x0B, 0x00, 0x00, 0x00, 0x0B, 0x00, 0x00, 0xE0, 0x0A, 0x00, 0x00, 0x40, 0x0A, 0x00, 0x00, 0xF0, 0x09, 0x00, 0x00, 0xD0, 0x09, 0x00, 0x00, 0x80, 0x09, 0x00, 0x00, 0x70, 0x07, 0x00, 0x00, 0xE0, 0x06, 0x00, 0x00, 0xB0, 0x06, 0x00, 0x00, 0x80, 0x06, 0x00, 0x00, 0x70, 0x02, 0x00, 0x00, 0xE0, 0x01, 0x00, 0x00, 0x30, 0x01, 0x00, 0x00, 0x0C, 0x01, 0x00, 0x00, 0x04, 0x01, 0x00, 0x00, 0xFC, 0x00, 0x00, 0x00, 0xF4, 0x00, 0x00, 0x00, 0xEC, 0x00, 0x00, 0x00, 0xE4, 0x00, 0x00, 0x00, 0xDC, 0x00, 0x00, 0x00, 0xD4, 0x00, 0x00, 0x00, 0xCC, 0x00, 0x00, 0x00, 0xC4, 0x00, 0x00, 0x00, 0xBC, 0x00, 0x00, 0x00, 0xB4, 0x00, 0x00, 0x00, 0xAC, 0x00, 0x00, 0x00, 0xA4, 0x00, 0x00, 0x00, 0x9C, 0x00, 0x00, 0x00, 0x94, 0x00, 0x00, 0x00, 0x8C, 0x00, 0x00, 0x00, 0x84, 0x00, 0x00, 0x00, 0x7C, 0x00, 0x00, 0x00, 0x74, 0x00, 0x00, 0x00, 0x6C, 0x00, 0x00, 0x00, 0x64, 0x00, 0x00, 0x00, 0x5C, 0x00, 0x00, 0x00, 0x54, 0x00, 0x00, 0x00, 0x4C, 0x00, 0x00, 0x00, 0x44, 0x00, 0x00, 0x00, 0x3C, 0x00, 0x00, 0x00, 0x34, 0x00, 0x00, 0x00, 0x2C, 0x00, 0x00, 0x00, 0x24, 0x00, 0x00, 0x00, 0x04, 0x00, 0x00, 0x00, 0x3A, 0xF1, 0xFF, 0xFF, 0x04, 0x00, 0x00, 0x00, 0x10, 0x00, 0x00, 0x00, 0x31, 0x2E, 0x31, 0x34, 0x2E, 0x30, 0x00, 0x00, 0x00, 0x00, 0x00, 0x00, 0x00, 0x00, 0x00, 0x00, 0xA8, 0xB2, 0xFF, 0xFF, 0xAC, 0xB2, 0xFF, 0xFF, 0xB0, 0xB2, 0xFF, 0xFF, 0xB4, 0xB2, 0xFF, 0xFF, 0xB8, 0xB2, 0xFF, 0xFF, 0xBC, 0xB2, 0xFF, 0xFF, 0xC0, 0xB2, 0xFF, 0xFF, 0xC4, 0xB2, 0xFF, 0xFF, 0xC8, 0xB2, 0xFF, 0xFF, 0xCC, 0xB2, 0xFF, 0xFF, 0xD0, 0xB2, 0xFF, 0xFF, 0xD4, 0xB2, 0xFF, 0xFF, 0xD8, 0xB2, 0xFF, 0xFF, 0xDC, 0xB2, 0xFF, 0xFF, 0xE0, 0xB2, 0xFF, 0xFF, 0xE4, 0xB2, 0xFF, 0xFF, 0xE8, 0xB2, 0xFF, 0xFF, 0xEC, 0xB2, 0xFF, 0xFF, 0xF0, 0xB2, 0xFF, 0xFF, 0xF4, 0xB2, 0xFF, 0xFF, 0xF8, 0xB2, 0xFF, 0xFF, 0xFC, 0xB2, 0xFF, 0xFF, 0x00, 0xB3, 0xFF, 0xFF, 0x04, 0xB3, 0xFF, 0xFF, 0x08, 0xB3, 0xFF, 0xFF, 0x0C, 0xB3, 0xFF, 0xFF, 0x10, 0xB3, 0xFF, 0xFF, 0x14, 0xB3, 0xFF, 0xFF, 0x18, 0xB3, 0xFF, 0xFF, 0xCA, 0xF1, 0xFF, 0xFF, 0x04, 0x00, 0x00, 0x00, 0x14, 0x00, 0x00, 0x00, 0x4D, 0xFC, 0xFF, 0xFF, 0xCF, 0xFD, 0xFF, 0xFF, 0xE5, 0xF0, 0xFF, 0xFF, 0xB0, 0x0F, 0x00, 0x00, 0x55, 0x00, 0x00, 0x00, 0xEA, 0xF1, 0xFF, 0xFF, 0x04, 0x00, 0x00, 0x00, 0xA0, 0x00, 0x00, 0x00, 0xE3, 0xCF, 0xE9, 0x2D, 0x21, 0xE4, 0x2D, 0x06, 0x48, 0xB6, 0x36, 0x40, 0xCA, 0xC9, 0x25, 0x03, 0x26, 0xD7, 0xEF, 0xFC, 0x0D, 0xC5, 0x2E, 0x06, 0x1F, 0x02, 0xC5, 0xB8, 0x2C, 0x4C, 0x17, 0xE9, 0xE7, 0x3D, 0x15, 0x32, 0x09, 0xF1, 0x2A, 0x13, 0xC7, 0xFC, 0xD8, 0xDD, 0xC8, 0xE4, 0xE4, 0xA5, 0x22, 0x1F, 0x24, 0x26, 0x1A, 0xB5, 0xD5, 0xAC, 0xE5, 0xDF, 0xF7, 0xBE, 0xF3, 0xB6, 0x17, 0x4B, 0x34, 0xC0, 0x0A, 0xD9, 0xA9, 0xF9, 0x32, 0x10, 0xF5, 0x2E, 0xE6, 0x2E, 0x1F, 0xFE, 0xFE, 0x0D, 0xC8, 0x41, 0xE1, 0xC9, 0xB4, 0xD1, 0xD6, 0x14, 0x26, 0x0F, 0x1D, 0x1D, 0xBD, 0xB9, 0x10, 0xC9, 0x28, 0xFB, 0x0A, 0x03, 0xE5, 0x36, 0xFE, 0xE6, 0x38, 0x2F, 0xAE, 0xF8, 0x17, 0x02, 0x23, 0x01, 0xF0, 0xBD, 0xD9, 0x13, 0xEF, 0x3C, 0x20, 0x1B, 0xC6, 0xB8, 0x0F, 0x04, 0xDA, 0x14, 0x08, 0x0F, 0xE5, 0x27, 0x88, 0xD2, 0x06, 0x2D, 0xAE, 0x81, 0xEE, 0xB4, 0x47, 0xE2, 0xBE, 0x87, 0xA7, 0x11, 0xED, 0x8D, 0x29, 0x91, 0x10, 0xCA, 0xD8, 0x26, 0x3F, 0xF1, 0x20, 0x2A, 0x35, 0xEC, 0x91, 0xD4, 0x96, 0xF2, 0xFF, 0xFF, 0x04, 0x00, 0x00, 0x00, 0x80, 0x00, 0x00, 0x00, 0x8A, 0xFD, 0xFF, 0xFF, 0xEE, 0xF5, 0xFF, 0xFF, 0xF9, 0x03, 0x00, 0x00, 0x8A, 0xFE, 0xFF, 0xFF, 0xBD, 0x00, 0x00, 0x00, 0x1B, 0xFE, 0xFF, 0xFF, 0x81, 0xFE, 0xFF, 0xFF, 0x25, 0x00, 0x00, 0x00, 0x3B, 0xFF, 0xFF, 0xFF, 0x6A, 0xFB, 0xFF, 0xFF, 0xEF, 0xF8, 0xFF, 0xFF, 0x30, 0xFF, 0xFF, 0xFF, 0x4E, 0xF9, 0xFF, 0xFF, 0xED, 0xFD, 0xFF, 0xFF, 0xA2, 0x02, 0x00, 0x00, 0xF0, 0x04, 0x00, 0x00, 0xE9, 0xFF, 0xFF, 0xFF, 0x87, 0xFA, 0xFF, 0xFF, 0x81, 0xF8, 0xFF, 0xFF, 0x36, 0xFE, 0xFF, 0xFF, 0x59, 0x00, 0x00, 0x00, 0x04, 0xFA, 0xFF, 0xFF, 0x0A, 0x02, 0x00, 0x00, 0xAC, 0x02, 0x00, 0x00, 0x3E, 0xFB, 0xFF, 0xFF, 0x60, 0xFE, 0xFF, 0xFF, 0xA7, 0x00, 0x00, 0x00, 0x4D, 0xFB, 0xFF, 0xFF, 0x9F, 0xFD, 0xFF, 0xFF, 0x76, 0xFA, 0xFF, 0xFF, 0xAD, 0x06, 0x00, 0x00, 0xDF, 0xF8, 0xFF, 0xFF, 0x22, 0xF3, 0xFF, 0xFF, 0x04, 0x00, 0x00, 0x00, 0x00, 0x04, 0x00, 0x00, 0xF8, 0xDC, 0x25, 0xE4, 0xE9, 0x05, 0x08, 0x04, 0xD1, 0xFA, 0xEB, 0xDD, 0x14, 0x28, 0xF8, 0x04, 0xF6, 0xBB, 0xE6, 0x04, 0xFE, 0xE8, 0x05, 0x19, 0xD8, 0x09, 0xE5, 0xFD, 0x07, 0xE8, 0x1F, 0xCA, 0xF8, 0x02, 0x0F, 0x23, 0x23, 0x1A, 0x2C, 0x24, 0x16, 0x07, 0x27, 0x3B, 0x12, 0x1B, 0xF1, 0x2B, 0xFC, 0x04, 0xD3, 0xE0, 0x26, 0x27, 0xF7, 0xE7, 0x25, 0xEA, 0xF8, 0x18, 0x0C, 0xF7, 0xEA, 0x07, 0x1B, 0xE5, 0xF9, 0xFE, 0xD9, 0xF4, 0x18, 0xE8, 0xD1, 0x16, 0x09, 0xF3, 0x06, 0x03, 0xDD, 0x17, 0x05, 0xC0, 0xF0, 0x01, 0x07, 0xE7, 0xE4, 0x20, 0x1C, 0xF0, 0xE8, 0x1B, 0x0A, 0xF2, 0x21, 0xF5, 0x32, 0xED, 0xE6, 0x21, 0xCF, 0x13, 0x03, 0x00, 0xF6, 0x05, 0x06, 0xF2, 0xDB, 0xC6, 0x11, 0x0C, 0x0C, 0x1A, 0x0D, 0xEC, 0xFD, 0xFF, 0x24, 0xD4, 0x05, 0xE1, 0x1F, 0xFF, 0xE7, 0x2C, 0xFE, 0xFF, 0x2D, 0x1B, 0x01, 0x15, 0x17, 0x11, 0xE0, 0xFB, 0x1E, 0xF6, 0xEF, 0xF9, 0xFB, 0xEB, 0x1F, 0x07, 0x0B, 0x16, 0x1F, 0xD1, 0x02, 0x04, 0x2B, 0xE6, 0xFF, 0xF3, 0x2D, 0xE6, 0xFE, 0x31, 0xE7, 0xFC, 0xDE, 0xF0, 0x19, 0xFE, 0x1D, 0xE5, 0x2A, 0x09, 0xFE, 0xF3, 0xDD, 0x0C, 0x05, 0x17, 0xFD, 0xF2, 0xFF, 0xC3, 0x1D, 0x05, 0xD9, 0x18, 0x06, 0x2B, 0xF7, 0x09, 0x0F, 0x2D, 0x15, 0xD3, 0xE4, 0x22, 0x33, 0x08, 0x1D, 0xF1, 0xE7, 0x1E, 0xF5, 0x27, 0xC1, 0x11, 0x24, 0xF9, 0xEB, 0x0B, 0x19, 0x06, 0x2F, 0x10, 0x0D, 0xE4, 0xF2, 0xF8, 0x06, 0xFD, 0xF1, 0xDC, 0xED, 0xE1, 0xE4, 0x32, 0xFD, 0xF3, 0x3E, 0x1B, 0x25, 0xF6, 0xFD, 0x08, 0x06, 0x11, 0xD6, 0x26, 0x2A, 0x17, 0xEE, 0x0E, 0xF8, 0x1E, 0x18, 0x21, 0xFE, 0xF4, 0xFA, 0x04, 0xFC, 0xFC, 0x04, 0xDA, 0xE5, 0x0F, 0x09, 0x13, 0xE8, 0xE5, 0xF9, 0xE4, 0xF4, 0x08, 0xE6, 0xEF, 0xE5, 0x1A, 0x1A, 0x0D, 0xB3, 0x1F, 0x02, 0x14, 0x27, 0xC3, 0x14, 0xE6, 0x26, 0xDA, 0xDB, 0x0F, 0xEE, 0x08, 0xFB, 0x03, 0xFE, 0x0F, 0x08, 0x13, 0xD6, 0xF7, 0xFE, 0xDB, 0xF4, 0xE4, 0xFC, 0xFA, 0xF6, 0xF9, 0x1B, 0x0F, 0x1C, 0x0F, 0xF3, 0xEE, 0xFB, 0x00, 0x34, 0xAF, 0x23, 0xFA, 0x02, 0xF4, 0xEB, 0x2E, 0xF4, 0xEB, 0xF3, 0x09, 0x23, 0xED, 0x15, 0xEA, 0x24, 0x1C, 0xEC, 0xF4, 0x2B, 0xFD, 0xC3, 0xF4, 0x0A, 0xF3, 0xE7, 0x06, 0xE0, 0xF2, 0x0B, 0xEB, 0xE9, 0x44, 0xF0, 0xF4, 0x17, 0x12, 0x1E, 0x06, 0xEB, 0x1F, 0x13, 0x05, 0xFE, 0xF3, 0xF9, 0xF4, 0x04, 0xF3, 0x02, 0xF5, 0xF4, 0x2B, 0xED, 0x11, 0x0A, 0x0C, 0xD7, 0x02, 0xF4, 0x00, 0x2B, 0xD7, 0x05, 0xE6, 0x24, 0xD6, 0xE8, 0xEE, 0xF3, 0xFD, 0xE3, 0x07, 0x1A, 0xC5, 0x03, 0x29, 0xFC, 0xE0, 0xCA, 0xFB, 0x03, 0xEE, 0xEC, 0x09, 0xF7, 0x0C, 0x12, 0xED, 0x16, 0xF6, 0xFF, 0xFA, 0x0D, 0x09, 0x23, 0xAF, 0x05, 0x09, 0xFA, 0xDD, 0xF6, 0x2A, 0xE3, 0xF6, 0xE4, 0xF7, 0x32, 0xF0, 0x1D, 0xDA, 0xFA, 0xF8, 0x07, 0xFB, 0xE7, 0x07, 0x11, 0xF0, 0xF3, 0x0F, 0x0B, 0x01, 0x14, 0x16, 0x0A, 0xE4, 0x2E, 0x81, 0xE6, 0x09, 0xF3, 0xF4, 0xED, 0x23, 0xE2, 0x03, 0x21, 0x11, 0x12, 0x01, 0x11, 0x03, 0x1E, 0xDE, 0x03, 0xF6, 0xCD, 0x07, 0xEA, 0xF6, 0xEE, 0xFA, 0xD5, 0x03, 0xF8, 0x15, 0x23, 0xDE, 0x0E, 0xE1, 0x29, 0xEE, 0xF0, 0x09, 0x10, 0x07, 0xD2, 0x07, 0x1E, 0x12, 0x09, 0x06, 0xED, 0x09, 0xEB, 0xF4, 0xDC, 0xE6, 0x27, 0x08, 0xCD, 0x14, 0x0C, 0x06, 0xFB, 0x1B, 0xFD, 0x0F, 0x0E, 0xE5, 0x20, 0x10, 0x1C, 0xEF, 0xF1, 0x07, 0x09, 0x09, 0xED, 0x23, 0xC7, 0xFE, 0x0B, 0xF8, 0x12, 0x03, 0x0E, 0x02, 0xEF, 0x24, 0xF6, 0x1D, 0xF3, 0xFB, 0xFB, 0xFA, 0xFE, 0x05, 0xE0, 0xD4, 0x18, 0xFD, 0xD3, 0x17, 0x17, 0xE2, 0xFC, 0x02, 0xED, 0xD8, 0x09, 0xE4, 0x2F, 0xD7, 0xEF, 0x30, 0xF0, 0x05, 0x04, 0xEA, 0x07, 0xED, 0xE4, 0xE6, 0xD8, 0x3C, 0xC0, 0xEC, 0x3E, 0xFE, 0x03, 0x15, 0xF9, 0x25, 0x22, 0x0A, 0xEB, 0x08, 0x12, 0xE7, 0x01, 0x08, 0x15, 0xED, 0xD1, 0xF0, 0x1E, 0xFF, 0x17, 0xDF, 0x02, 0xFF, 0xF2, 0x20, 0x2C, 0x0B, 0x36, 0x03, 0xFA, 0xE7, 0x32, 0x05, 0x12, 0xFE, 0xE4, 0x3A, 0xEF, 0xFA, 0xED, 0xF8, 0xF8, 0x0A, 0x06, 0xE6, 0x37, 0xEB, 0x00, 0x0C, 0xEF, 0xEB, 0xDB, 0x18, 0x22, 0xE3, 0xEE, 0x02, 0x07, 0xFC, 0x28, 0xFA, 0xEF, 0x01, 0x03, 0x07, 0xE9, 0xF6, 0xE9, 0x15, 0x16, 0xC6, 0xF4, 0x17, 0x04, 0x17, 0xEC, 0x0D, 0x16, 0xE7, 0x31, 0x2F, 0x20, 0xEF, 0x07, 0x1D, 0x25, 0x07, 0x07, 0x0A, 0x15, 0x14, 0x26, 0xF8, 0x1E, 0x03, 0x26, 0xF0, 0xE5, 0x09, 0x0F, 0x39, 0xFE, 0xE8, 0x05, 0xE9, 0x09, 0x0A, 0x00, 0xFC, 0x0A, 0xFA, 0x18, 0xFA, 0xFB, 0xEE, 0xCE, 0x0E, 0xF9, 0xD6, 0x21, 0x08, 0xF2, 0xF0, 0x07, 0x02, 0xDA, 0x04, 0xB2, 0x14, 0x1A, 0x1F, 0x08, 0xF2, 0xE9, 0xD6, 0xEF, 0xF3, 0xF9, 0x14, 0x07, 0x06, 0x12, 0x07, 0xE7, 0x26, 0x00, 0xDA, 0xF7, 0x27, 0x0B, 0x05, 0xEC, 0xFE, 0xDF, 0xF9, 0xE8, 0x05, 0x16, 0xF6, 0xD8, 0x08, 0xFB, 0x15, 0x19, 0xD5, 0x19, 0xDF, 0x31, 0xF2, 0xE8, 0x22, 0x11, 0x17, 0xE9, 0x05, 0x18, 0x17, 0x07, 0x17, 0xDE, 0x03, 0xE2, 0xDE, 0xF7, 0xED, 0x1B, 0xED, 0x00, 0xEE, 0x27, 0xFF, 0xC0, 0x15, 0x0C, 0x01, 0xFB, 0xDD, 0x2C, 0xF5, 0x12, 0xF4, 0xE5, 0x0C, 0xFB, 0x16, 0xFE, 0x1C, 0x03, 0x0D, 0x20, 0xCF, 0x01, 0x06, 0xF9, 0xEF, 0xEE, 0xF4, 0x20, 0x07, 0x9D, 0x21, 0xE5, 0xFB, 0x01, 0x13, 0xFB, 0x0A, 0x0B, 0x02, 0xFB, 0x3B, 0xED, 0xFF, 0x1B, 0xEB, 0x00, 0xFB, 0xD8, 0x1E, 0xF3, 0xDB, 0x12, 0x04, 0x11, 0xE1, 0xEF, 0xF7, 0x11, 0xED, 0x12, 0x0F, 0xD6, 0x40, 0xD8, 0xF8, 0x1D, 0xFB, 0x0B, 0x16, 0x1B, 0xD4, 0x1B, 0x0C, 0x09, 0x08, 0xF6, 0xEE, 0x05, 0xF5, 0xE2, 0xED, 0xED, 0xC2, 0xF2, 0x2A, 0x0E, 0xF3, 0xD2, 0xE3, 0x09, 0xF0, 0x3E, 0xF4, 0xFF, 0x0A, 0x00, 0xF5, 0x25, 0x14, 0x18, 0xF5, 0xBF, 0x17, 0xF4, 0x05, 0x10, 0x1E, 0x0D, 0xFF, 0xEF, 0x21, 0x03, 0xF3, 0xCD, 0xFC, 0x22, 0xF1, 0x20, 0xED, 0xD7, 0xE5, 0xFD, 0xE9, 0x42, 0x03, 0xF6, 0x17, 0x01, 0xF0, 0x0D, 0x00, 0x0D, 0xFF, 0xDF, 0xFA, 0xFB, 0x00, 0x0E, 0x1F, 0xFC, 0xF2, 0x0E, 0x0C, 0xDB, 0xFA, 0xE8, 0xE1, 0x17, 0xFB, 0x26, 0xF6, 0x08, 0x1A, 0xF2, 0xFC, 0x39, 0xFF, 0xD8, 0xFB, 0x0B, 0xE0, 0xF5, 0x06, 0xF6, 0xE4, 0x18, 0xD9, 0xE7, 0x46, 0x0E, 0xFB, 0x13, 0xFC, 0x23, 0xDA, 0x01, 0x1C, 0x13, 0xEF, 0xE6, 0x1E, 0xE3, 0x06, 0x39, 0xEB, 0x16, 0x03, 0xEE, 0x28, 0xC0, 0x07, 0xFC, 0x07, 0xE0, 0xF0, 0xDB, 0xF8, 0x21, 0xF5, 0x13, 0x07, 0x21, 0xF5, 0xE9, 0x04, 0x35, 0xFF, 0xEC, 0x02, 0x1D, 0xFD, 0x11, 0xFA, 0xD1, 0x01, 0x2A, 0x0C, 0x0E, 0xF9, 0xE5, 0x1D, 0x06, 0xF5, 0xD6, 0x24, 0xFF, 0xFE, 0xD4, 0x13, 0x10, 0x09, 0x11, 0x02, 0x11, 0xE5, 0xEE, 0xE5, 0xE5, 0xFE, 0xEF, 0xEE, 0x08, 0x08, 0x01, 0x20, 0xF5, 0xDE, 0x03, 0x06, 0xE0, 0x1B, 0xE8, 0xEB, 0x19, 0x14, 0x09, 0x19, 0x17, 0x03, 0x13, 0x0F, 0xCF, 0x1C, 0xE4, 0x1A, 0xD9, 0x36, 0x16, 0x00, 0xC4, 0xF4, 0x1A, 0xD8, 0x04, 0x22, 0xF2, 0xED, 0xF9, 0x04, 0x2E, 0xF7, 0xFF, 0xFF, 0x04, 0x00, 0x00, 0x00, 0x20, 0x00, 0x00, 0x00, 0x68, 0x7D, 0x75, 0x80, 0x71, 0x7B, 0x67, 0x12, 0x68, 0x3C, 0x61, 0x2C, 0x58, 0x7D, 0x73, 0x7E, 0x78, 0x72, 0x67, 0x70, 0x28, 0x35, 0x4D, 0x62, 0x74, 0x68, 0x71, 0x67, 0x5F, 0x6C, 0x64, 0x7B, 0x5A, 0xF7, 0xFF, 0xFF, 0x04, 0x00, 0x00, 0x00, 0x20, 0x00, 0x00, 0x00, 0xAC, 0x12, 0xDD, 0x8F, 0x67, 0xC8, 0xDF, 0x8E, 0xDF, 0x8D, 0xE5, 0x89, 0x97, 0x69, 0xD3, 0x7F, 0xF3, 0xC5, 0x91, 0xD2, 0x8D, 0x8A, 0xA9, 0xA0, 0xF5, 0xA5, 0xF5, 0xD1, 0xA4, 0xC3, 0x9D, 0xC6, 0x86, 0xF7, 0xFF, 0xFF, 0x04, 0x00, 0x00, 0x00, 0x80, 0x00, 0x00, 0x00, 0xCA, 0x02, 0x00, 0x00, 0x07, 0x00, 0x00, 0x00, 0x84, 0xF6, 0xFF, 0xFF, 0x24, 0x05, 0x00, 0x00, 0x16, 0x01, 0x00, 0x00, 0x57, 0xFC, 0xFF, 0xFF, 0x1E, 0x01, 0x00, 0x00, 0x99, 0x03, 0x00, 0x00, 0x5C, 0x00, 0x00, 0x00, 0x84, 0x00, 0x00, 0x00, 0x12, 0x01, 0x00, 0x00, 0xAB, 0x05, 0x00, 0x00, 0xA7, 0x03, 0x00, 0x00, 0x42, 0xFE, 0xFF, 0xFF, 0x39, 0x02, 0x00, 0x00, 0x6D, 0xFF, 0xFF, 0xFF, 0x99, 0xFF, 0xFF, 0xFF, 0x27, 0xFF, 0xFF, 0xFF, 0x4A, 0x00, 0x00, 0x00, 0xC8, 0x00, 0x00, 0x00, 0x3D, 0x03, 0x00, 0x00, 0x1A, 0x04, 0x00, 0x00, 0xA6, 0x00, 0x00, 0x00, 0xDE, 0x03, 0x00, 0x00, 0x94, 0xFF, 0xFF, 0xFF, 0xE8, 0xFF, 0xFF, 0xFF, 0x4E, 0xFF, 0xFF, 0xFF, 0x42, 0x06, 0x00, 0x00, 0x13, 0xFF, 0xFF, 0xFF, 0x3A, 0xFC, 0xFF, 0xFF, 0x1C, 0x03, 0x00, 0x00, 0xC1, 0xFF, 0xFF, 0xFF, 0x12, 0xF8, 0xFF, 0xFF, 0x04, 0x00, 0x00, 0x00, 0x00, 0x02, 0x00, 0x00, 0x07, 0xE6, 0x0B, 0xE9, 0x23, 0xCA, 0x7F, 0x74, 0xC8, 0x30, 0xF8, 0x42, 0xF1, 0xD4, 0x6F, 0xDC, 0xA6, 0x2B, 0x30, 0xED, 0xF3, 0x70, 0xC5, 0x70, 0x03, 0x2E, 0x32, 0xE9, 0xD1, 0x7F, 0xDC, 0x15, 0x01, 0xE9, 0xDD, 0x7F, 0x8F, 0xA9, 0x0C, 0xCC, 0x2B, 0x7A, 0x9F, 0xD4, 0x27, 0x56, 0xDC, 0x23, 0x7F, 0xE9, 0x05, 0x01, 0x33, 0xBC, 0x04, 0xFC, 0x55, 0xDC, 0x0E, 0xD2, 0x12, 0xE0, 0x46, 0x02, 0x14, 0xEA, 0x18, 0x0A, 0x03, 0x2E, 0xDD, 0x7F, 0xDF, 0xF6, 0xF9, 0xB4, 0xE9, 0xCB, 0xFC, 0xA5, 0xCF, 0x43, 0xDD, 0x1D, 0xDE, 0x7F, 0xE5, 0xFA, 0xE0, 0x0D, 0xDB, 0xFE, 0x12, 0x2B, 0xF7, 0x3A, 0xFB, 0xD7, 0x24, 0xE8, 0xE9, 0xEA, 0xF3, 0x7F, 0x13, 0x08, 0x13, 0x0B, 0xC9, 0xE9, 0xFD, 0x0C, 0xFF, 0xD2, 0x1D, 0xB2, 0xB3, 0x27, 0x0F, 0xF6, 0x11, 0x7F, 0xF5, 0xEC, 0x15, 0xF1, 0x26, 0x2D, 0x11, 0xB0, 0x18, 0xD2, 0x19, 0x17, 0x21, 0x5E, 0xEA, 0x02, 0xEE, 0xDA, 0x26, 0xEB, 0x7F, 0xD9, 0x49, 0x2A, 0xEA, 0xD7, 0xF8, 0xBF, 0x7C, 0x11, 0x4A, 0xB0, 0x18, 0x7F, 0x14, 0x6E, 0xB0, 0x2C, 0x23, 0x0A, 0x05, 0xCF, 0x20, 0x13, 0x29, 0x7F, 0x0F, 0xED, 0xFE, 0x2E, 0xC5, 0xDD, 0x0D, 0xEC, 0x05, 0x03, 0xFA, 0xEA, 0x81, 0xDC, 0x10, 0xFB, 0xFF, 0xE9, 0x39, 0x13, 0xF0, 0x0A, 0x20, 0xF3, 0x1E, 0x0C, 0x9F, 0x15, 0xE9, 0x47, 0xFD, 0xFC, 0x81, 0x14, 0xE1, 0x06, 0xE2, 0xEA, 0xE3, 0xF7, 0xEB, 0xED, 0xFA, 0x17, 0xBD, 0x89, 0x1A, 0x40, 0x19, 0x28, 0xB4, 0x04, 0xE6, 0xC8, 0xB0, 0x81, 0xFB, 0x35, 0x92, 0x3F, 0x15, 0xBA, 0x27, 0x3D, 0xFC, 0x62, 0xC5, 0xDF, 0x7F, 0x06, 0xFB, 0xCE, 0xD8, 0x4E, 0x44, 0xF7, 0x03, 0x0C, 0x21, 0x7F, 0xF3, 0x43, 0x94, 0xE7, 0xDF, 0xE7, 0x11, 0x02, 0x0E, 0x2C, 0x81, 0xFE, 0x91, 0xA6, 0xE4, 0x16, 0x46, 0x32, 0xAF, 0x13, 0xFC, 0xF7, 0xBF, 0xFC, 0x14, 0xEF, 0xFD, 0xFC, 0x09, 0xEE, 0x2B, 0x7F, 0xD8, 0x1D, 0xF8, 0x14, 0xF9, 0xFC, 0xFB, 0x05, 0xC7, 0x1C, 0x14, 0x36, 0x7F, 0xE5, 0x1D, 0x05, 0xE7, 0x10, 0xD3, 0x22, 0x0C, 0xF4, 0x09, 0x91, 0xF7, 0x50, 0x81, 0x33, 0xE9, 0xEC, 0xDF, 0xFC, 0xE8, 0x3F, 0x83, 0xDE, 0x08, 0xFD, 0xD2, 0x15, 0x81, 0xFB, 0x1E, 0x81, 0xEC, 0xE0, 0xB6, 0xEF, 0xC5, 0x42, 0xB7, 0xC5, 0xA1, 0x49, 0x23, 0x40, 0x31, 0xD8, 0xFB, 0xEC, 0xA6, 0x28, 0xFC, 0xF9, 0xD1, 0xC5, 0x02, 0xF8, 0x81, 0x03, 0x72, 0x10, 0xF6, 0xF6, 0x0F, 0x81, 0xDF, 0x2D, 0xC7, 0x0F, 0x0C, 0xF1, 0xA4, 0xA1, 0xB6, 0xED, 0x00, 0xFB, 0x10, 0x35, 0xB4, 0xF8, 0xBC, 0x90, 0x05, 0xF7, 0xEA, 0x7F, 0xE1, 0x62, 0x04, 0xF8, 0xFC, 0xB9, 0xE8, 0xFE, 0xF9, 0xEC, 0xA6, 0x7F, 0x08, 0x04, 0x0F, 0xD7, 0xA9, 0x0B, 0x14, 0xFB, 0x2B, 0xEA, 0xCF, 0x0C, 0xD7, 0x14, 0xC6, 0x03, 0xDE, 0xE7, 0xFA, 0x12, 0x81, 0xDB, 0x15, 0xE4, 0xE8, 0x11, 0xE6, 0xF6, 0x0E, 0x25, 0xFB, 0xEA, 0xF1, 0x6D, 0xE9, 0xEE, 0x04, 0x12, 0x2A, 0x81, 0x13, 0x96, 0x09, 0x4A, 0xB6, 0x7F, 0xF5, 0x1C, 0xE9, 0xFB, 0xFC, 0xFD, 0xE5, 0xEF, 0x1D, 0xD7, 0x24, 0x9E, 0xE6, 0xEB, 0x81, 0xC7, 0xD1, 0x67, 0x14, 0xF2, 0x27, 0xBC, 0xF7, 0xA8, 0x17, 0xF2, 0xE0, 0x10, 0x09, 0xF5, 0xCE, 0xD5, 0xB5, 0x77, 0x7F, 0xDB, 0x33, 0xC5, 0xF1, 0xA7, 0x46, 0x0C, 0x14, 0x00, 0x81, 0xB3, 0x87, 0x1F, 0x23, 0xF0, 0xD6, 0x09, 0xC3, 0x5A, 0x0A, 0x13, 0x3E, 0xCD, 0x2B, 0xEC, 0xF3, 0x48, 0xEC, 0x7F, 0x9A, 0xD0, 0x42, 0xF7, 0xFC, 0x38, 0xF0, 0x19, 0x21, 0x07, 0xF8, 0xC4, 0x1E, 0xFA, 0xFF, 0xFF, 0x04, 0x00, 0x00, 0x00, 0x40, 0x00, 0x00, 0x00, 0x00, 0x00, 0x00, 0x00, 0x00, 0x00, 0x00, 0x00, 0x00, 0x00, 0x00, 0x00, 0x00, 0x00, 0x00, 0x00, 0x00, 0x00, 0x00, 0x00, 0x00, 0x00, 0x00, 0x00, 0x00, 0x00, 0x00, 0x00, 0x00, 0x00, 0x00, 0x00, 0x00, 0x00, 0x00, 0x00, 0x00, 0x00, 0x00, 0x00, 0x00, 0x00, 0x00, 0x00, 0x00, 0x00, 0x00, 0x00, 0x00, 0x00, 0x00, 0x00, 0x00, 0x00, 0x00, 0x00, 0x00, 0x00, 0x00, 0x00, 0x00, 0x00, 0x00, 0x00, 0x6A, 0xFA, 0xFF, 0xFF, 0x04, 0x00, 0x00, 0x00, 0x10, 0x00, 0x00, 0x00, 0x7F, 0x81, 0x7F, 0x81, 0x7F, 0x81, 0x81, 0x81, 0x81, 0x81, 0x7F, 0x7F, 0x7F, 0x7F, 0x81, 0x7F, 0x86, 0xFA, 0xFF, 0xFF, 0x04, 0x00, 0x00, 0x00, 0x40, 0x00, 0x00, 0x00, 0x42, 0x01, 0x00, 0x00, 0x30, 0x0E, 0x00, 0x00, 0x40, 0xFF, 0xFF, 0xFF, 0x50, 0x08, 0x00, 0x00, 0xC5, 0x05, 0x00, 0x00, 0x06, 0x06, 0x00, 0x00, 0x62, 0xFC, 0xFF, 0xFF, 0xB8, 0xFD, 0xFF, 0xFF, 0xCE, 0xFD, 0xFF, 0xFF, 0xB3, 0x01, 0x00, 0x00, 0xF4, 0xFD, 0xFF, 0xFF, 0x5C, 0xF9, 0xFF, 0xFF, 0x38, 0x00, 0x00, 0x00, 0xC1, 0x05, 0x00, 0x00, 0x7D, 0xFE, 0xFF, 0xFF, 0xDA, 0x03, 0x00, 0x00, 0xD2, 0xFA, 0xFF, 0xFF, 0x04, 0x00, 0x00, 0x00, 0x90, 0x00, 0x00, 0x00, 0x81, 0xAD, 0x47, 0x39, 0xC1, 0xB4, 0x5F, 0x72, 0xF3, 0xFE, 0x36, 0x49, 0xFD, 0x95, 0x96, 0xE4, 0xA3, 0x9E, 0x63, 0xE4, 0xAF, 0xA2, 0x7F, 0x7F, 0xFE, 0xFD, 0x10, 0x50, 0x7F, 0x8F, 0x86, 0x81, 0x95, 0x81, 0x1D, 0x3F, 0xC4, 0xD0, 0xF8, 0x4E, 0x08, 0x03, 0x0E, 0x1E, 0xE2, 0xBC, 0xE2, 0xFE, 0x28, 0x4B, 0xE7, 0x02, 0x11, 0x02, 0x13, 0x05, 0xF4, 0x3D, 0x24, 0x28, 0x00, 0xED, 0x55, 0x01, 0xB4, 0xE3, 0x7F, 0x9B, 0x04, 0xCF, 0x2A, 0x01, 0x0C, 0x1C, 0xD8, 0x7F, 0xFD, 0x9F, 0x69, 0xDE, 0xFD, 0x18, 0x14, 0x36, 0x0B, 0xEC, 0x17, 0x08, 0xFD, 0x19, 0xF4, 0x42, 0x02, 0xC0, 0x7F, 0xFF, 0x1B, 0xDC, 0x05, 0xB7, 0x36, 0x26, 0xF9, 0xF7, 0x2E, 0xE7, 0x7F, 0xEE, 0xF7, 0x81, 0x0C, 0xFC, 0x40, 0x8D, 0xD9, 0x81, 0x7F, 0x7F, 0xF5, 0x0D, 0x59, 0x81, 0x57, 0x1B, 0x23, 0xB2, 0xBC, 0x02, 0xF7, 0xCD, 0xEC, 0xBC, 0x27, 0x0F, 0x04, 0xEE, 0x81, 0xE1, 0x3A, 0xF0, 0x04, 0x11, 0x23, 0xF8, 0x6E, 0xFB, 0xFF, 0xFF, 0x04, 0x00, 0x00, 0x00, 0x10, 0x00, 0x00, 0x00, 0x0E, 0x04, 0x19, 0x24, 0x7F, 0x85, 0xFE, 0x2E, 0xC2, 0x80, 0x01, 0xA1, 0xFD, 0xED, 0xE7, 0x09, 0x8A, 0xFB, 0xFF, 0xFF, 0x04, 0x00, 0x00, 0x00, 0x10, 0x00, 0x00, 0x00, 0x7F, 0x2D, 0x3A, 0xC4, 0xE2, 0xBE, 0xE5, 0x98, 0xBE, 0xBE, 0xB0, 0xBA, 0xFE, 0xE5, 0xE7, 0xFF, 0xA6, 0xFB, 0xFF, 0xFF, 0x04, 0x00, 0x00, 0x00, 0x40, 0x00, 0x00, 0x00, 0xDF, 0x00, 0x00, 0x00, 0xEB, 0x00, 0x00, 0x00, 0x6D, 0xF4, 0xFF, 0xFF, 0xDE, 0xFB, 0xFF, 0xFF, 0x31, 0x03, 0x00, 0x00, 0xFA, 0x05, 0x00, 0x00, 0xEB, 0x01, 0x00, 0x00, 0x65, 0x09, 0x00, 0x00, 0x76, 0xFF, 0xFF, 0xFF, 0xEB, 0x01, 0x00, 0x00, 0xAB, 0xFD, 0xFF, 0xFF, 0x83, 0x02, 0x00, 0x00, 0x25, 0x00, 0x00, 0x00, 0xF9, 0x07, 0x00, 0x00, 0xC1, 0xFD, 0xFF, 0xFF, 0xE1, 0xF7, 0xFF, 0xFF, 0xF2, 0xFB, 0xFF, 0xFF, 0x04, 0x00, 0x00, 0x00, 0x80, 0x00, 0x00, 0x00, 0x02, 0x0A, 0x03, 0x09, 0x45, 0xAC, 0x3C, 0x81, 0x0B, 0x63, 0x02, 0x81, 0xFF, 0x44, 0xCA, 0xF5, 0xEB, 0xE1, 0x7F, 0xDF, 0x91, 0xEC, 0xC5, 0xE5, 0x23, 0x81, 0x0E, 0xFD, 0xEA, 0xC7, 0x09, 0x01, 0x61, 0x2F, 0x71, 0x81, 0xBF, 0xD9, 0x23, 0x17, 0xD9, 0xED, 0x13, 0xE4, 0x26, 0x7F, 0x2F, 0xC5, 0x27, 0xF2, 0xC3, 0xD8, 0x81, 0xA8, 0x4E, 0x16, 0x57, 0xEA, 0x56, 0x46, 0x81, 0x3F, 0x1F, 0xE1, 0x15, 0xD8, 0x13, 0x08, 0xFE, 0x33, 0x18, 0x81, 0x2A, 0xE2, 0x31, 0x17, 0xFA, 0x7F, 0x15, 0xF9, 0xF5, 0x81, 0xFA, 0xE1, 0xB9, 0xAA, 0x32, 0xEB, 0xD9, 0x89, 0x31, 0x1C, 0x24, 0x55, 0x24, 0x81, 0x3F, 0xDB, 0x7F, 0x90, 0xF4, 0xDB, 0x1A, 0xEA, 0x7F, 0xB0, 0xA1, 0xBB, 0xBA, 0xC9, 0x97, 0x39, 0x2F, 0x7F, 0x1D, 0x56, 0x7C, 0xDC, 0x56, 0x30, 0xDB, 0x81, 0xD9, 0xF5, 0xF6, 0x46, 0xBE, 0x37, 0x7E, 0xFC, 0xFF, 0xFF, 0x04, 0x00, 0x00, 0x00, 0x20, 0x00, 0x00, 0x00, 0x00, 0x00, 0x00, 0x00, 0x00, 0x00, 0x00, 0x00, 0x00, 0x00, 0x00, 0x00, 0x00, 0x00, 0x00, 0x00, 0x00, 0x00, 0x00, 0x00, 0x00, 0x00, 0x00, 0x00, 0x00, 0x00, 0x00, 0x00, 0x00, 0x00, 0x00, 0x00, 0xAA, 0xFC, 0xFF, 0xFF, 0x04, 0x00, 0x00, 0x00, 0x08, 0x00, 0x00, 0x00, 0x81, 0x81, 0x7F, 0x7F, 0x81, 0x7F, 0x81, 0x81, 0xBE, 0xFC, 0xFF, 0xFF, 0x04, 0x00, 0x00, 0x00, 0x20, 0x00, 0x00, 0x00, 0xDD, 0x02, 0x00, 0x00, 0x9C, 0x02, 0x00, 0x00, 0x01, 0x02, 0x00, 0x00, 0x84, 0x00, 0x00, 0x00, 0xEC, 0x01, 0x00, 0x00, 0xD1, 0xFF, 0xFF, 0xFF, 0x00, 0x00, 0x00, 0x00, 0x0B, 0xFF, 0xFF, 0xFF, 0xEA, 0xFC, 0xFF, 0xFF, 0x04, 0x00, 0x00, 0x00, 0x48, 0x00, 0x00, 0x00, 0xD9, 0xF0, 0x02, 0xE6, 0x20, 0x12, 0x91, 0xFE, 0x1E, 0x7F, 0x33, 0x7F, 0x7F, 0x7F, 0x56, 0x5B, 0xE1, 0xEB, 0x0F, 0x15, 0x64, 0x33, 0xB5, 0xF3, 0x81, 0x09, 0x47, 0x48, 0xE2, 0xEF, 0x92, 0x28, 0xB5, 0x1C, 0x7F, 0x71, 0xF9, 0xE9, 0x93, 0x7F, 0x8A, 0x07, 0x46, 0x37, 0xE4, 0xE4, 0xE2, 0x21, 0x19, 0x0A, 0x16, 0x22, 0x15, 0xFD, 0x5B, 0xF1, 0xDB, 0xCA, 0x2F, 0x2E, 0x1E, 0xEB, 0x81, 0x1B, 0xF6, 0x0B, 0x01, 0x23, 0x18, 0xF4, 0x98, 0xEB, 0x3E, 0xFD, 0xFF, 0xFF, 0x04, 0x00, 0x00, 0x00, 0x08, 0x00, 0x00, 0x00, 0x50, 0x5A, 0x74, 0x53, 0x10, 0x80, 0x7F, 0xFB, 0x52, 0xFD, 0xFF, 0xFF, 0x04, 0x00, 0x00, 0x00, 0x08, 0x00, 0x00, 0x00, 0xA1, 0x98, 0xB5, 0xAC, 0x95, 0x9A, 0x7F, 0xA5, 0x66, 0xFD, 0xFF, 0xFF, 0x04, 0x00, 0x00, 0x00, 0x20, 0x00, 0x00, 0x00, 0x45, 0xFE, 0xFF, 0xFF, 0x07, 0xFA, 0xFF, 0xFF, 0x2B, 0xF9, 0xFF, 0xFF, 0xBE, 0xFE, 0xFF, 0xFF, 0xD1, 0x0E, 0x00, 0x00, 0xC5, 0x13, 0x00, 0x00, 0x00, 0x00, 0x00, 0x00, 0x07, 0xFB, 0xFF, 0xFF, 0x92, 0xFD, 0xFF, 0xFF, 0x04, 0x00, 0x00, 0x00, 0x20, 0x00, 0x00, 0x00, 0x81, 0x5C, 0x85, 0x7C, 0x3A, 0x15, 0x81, 0x1B, 0xF4, 0x7F, 0x30, 0xD8, 0x1A, 0x7F, 0x33, 0x7C, 0x5F, 0x30, 0xC8, 0x7F, 0x2E, 0xC3, 0xF1, 0x81, 0x81, 0xFD, 0x71, 0x3C, 0xE5, 0xBD, 0xE2, 0x81, 0xBE, 0xFD, 0xFF, 0xFF, 0x04, 0x00, 0x00, 0x00, 0x10, 0x00, 0x00, 0x00, 0x00, 0x00, 0x00, 0x00, 0x00, 0x00, 0x00, 0x00, 0x00, 0x00, 0x00, 0x00, 0x00, 0x00, 0x00, 0x00, 0xDA, 0xFD, 0xFF, 0xFF, 0x04, 0x00, 0x00, 0x00, 0x04, 0x00, 0x00, 0x00, 0x7F, 0x7F, 0x81, 0x81, 0xEA, 0xFD, 0xFF, 0xFF, 0x04, 0x00, 0x00, 0x00, 0x10, 0x00, 0x00, 0x00, 0x00, 0x00, 0x00, 0x00, 0x66, 0x07, 0x00, 0x00, 0xC9, 0x06, 0x00, 0x00, 0x29, 0x07, 0x00, 0x00, 0x06, 0xFE, 0xFF, 0xFF, 0x04, 0x00, 0x00, 0x00, 0x3C, 0x00, 0x00, 0x00, 0x7F, 0x4B, 0xEA, 0x38, 0xCF, 0xF6, 0x13, 0xEC, 0x6E, 0xDA, 0x5D, 0xD8, 0x6C, 0x81, 0x0E, 0xDC, 0xA8, 0x06, 0x2B, 0xF9, 0x21, 0x42, 0xE9, 0x17, 0x38, 0x41, 0xFD, 0x0F, 0x0D, 0x15, 0x3B, 0xC4, 0x76, 0xDD, 0xE5, 0x81, 0x4A, 0xFF, 0x04, 0xEF, 0xF5, 0x19, 0xF3, 0x09, 0x2E, 0x03, 0x81, 0xD0, 0xBC, 0xFB, 0x0D, 0xFD, 0x82, 0xD4, 0x81, 0x02, 0xED, 0x03, 0xD7, 0xFD, 0x4E, 0xFE, 0xFF, 0xFF, 0x04, 0x00, 0x00, 0x00, 0x04, 0x00, 0x00, 0x00, 0x7F, 0xF5, 0x80, 0xD3, 0x5E, 0xFE, 0xFF, 0xFF, 0x04, 0x00, 0x00, 0x00, 0x04, 0x00, 0x00, 0x00, 0x7F, 0x8C, 0x8E, 0x89, 0x6E, 0xFE, 0xFF, 0xFF, 0x04, 0x00, 0x00, 0x00, 0x10, 0x00, 0x00, 0x00, 0x00, 0x00, 0x00, 0x00, 0xB1, 0x00, 0x00, 0x00, 0x90, 0x0B, 0x00, 0x00, 0x2E, 0x00, 0x00, 0x00, 0x8A, 0xFE, 0xFF, 0xFF, 0x04, 0x00, 0x00, 0x00, 0x04, 0x00, 0x00, 0x00, 0x7F, 0x81, 0x81, 0x81, 0x9A, 0xFE, 0xFF, 0xFF, 0x04, 0x00, 0x00, 0x00, 0x04, 0x00, 0x00, 0x00, 0x00, 0x00, 0x00, 0x00, 0xAA, 0xFE, 0xFF, 0xFF, 0x04, 0x00, 0x00, 0x00, 0x01, 0x00, 0x00, 0x00, 0x81, 0x00, 0x00, 0x00, 0xBA, 0xFE, 0xFF, 0xFF, 0x04, 0x00, 0x00, 0x00, 0x04, 0x00, 0x00, 0x00, 0xE0, 0x40, 0x00, 0x00, 0xCA, 0xFE, 0xFF, 0xFF, 0x04, 0x00, 0x00, 0x00, 0x0F, 0x00, 0x00, 0x00, 0xFF, 0x01, 0xDB, 0x03, 0xF7, 0xE7, 0xEF, 0xCF, 0xE3, 0xE3, 0xF3, 0xFB, 0xF0, 0x7F, 0x26, 0x00, 0xE6, 0xFE, 0xFF, 0xFF, 0x04, 0x00, 0x00, 0x00, 0x08, 0x00, 0x00, 0x00, 0x01, 0x00, 0x00, 0x00, 0x02, 0x00, 0x00, 0x00, 0x4C, 0xC0, 0xFF, 0xFF, 0x50, 0xC0, 0xFF, 0xFF, 0x0F, 0x00, 0x00, 0x00, 0x4D, 0x4C, 0x49, 0x52, 0x20, 0x43, 0x6F, 0x6E, 0x76, 0x65, 0x72, 0x74, 0x65, 0x64, 0x2E, 0x00, 0x01, 0x00, 0x00, 0x00, 0x14, 0x00, 0x00, 0x00, 0x00, 0x00, 0x0E, 0x00, 0x18, 0x00, 0x14, 0x00, 0x10, 0x00, 0x0C, 0x00, 0x08, 0x00, 0x04, 0x00, 0x0E, 0x00, 0x00, 0x00, 0x14, 0x00, 0x00, 0x00, 0x1C, 0x00, 0x00, 0x00, 0x68, 0x07, 0x00, 0x00, 0x6C, 0x07, 0x00, 0x00, 0x70, 0x07, 0x00, 0x00, 0x04, 0x00, 0x00, 0x00, 0x6D, 0x61, 0x69, 0x6E, 0x00, 0x00, 0x00, 0x00, 0x1D, 0x00, 0x00, 0x00, 0x30, 0x07, 0x00, 0x00, 0xCC, 0x06, 0x00, 0x00, 0x68, 0x06, 0x00, 0x00, 0x14, 0x06, 0x00, 0x00, 0xE0, 0x05, 0x00, 0x00, 0xAC, 0x05, 0x00, 0x00, 0x58, 0x05, 0x00, 0x00, 0x10, 0x05, 0x00, 0x00, 0xC8, 0x04, 0x00, 0x00, 0x80, 0x04, 0x00, 0x00, 0x4C, 0x04, 0x00, 0x00, 0x18, 0x04, 0x00, 0x00, 0xD4, 0x03, 0x00, 0x00, 0x8C, 0x03, 0x00, 0x00, 0x44, 0x03, 0x00, 0x00, 0xFC, 0x02, 0x00, 0x00, 0xC8, 0x02, 0x00, 0x00, 0x94, 0x02, 0x00, 0x00, 0x50, 0x02, 0x00, 0x00, 0x08, 0x02, 0x00, 0x00, 0xC0, 0x01, 0x00, 0x00, 0x78, 0x01, 0x00, 0x00, 0x44, 0x01, 0x00, 0x00, 0x10, 0x01, 0x00, 0x00, 0xDC, 0x00, 0x00, 0x00, 0x98, 0x00, 0x00, 0x00, 0x60, 0x00, 0x00, 0x00, 0x24, 0x00, 0x00, 0x00, 0x04, 0x00, 0x00, 0x00, 0x4E, 0xF9, 0xFF, 0xFF, 0x08, 0x00, 0x00, 0x00, 0x0C, 0x00, 0x00, 0x00, 0x01, 0x00, 0x00, 0x00, 0x42, 0x00, 0x00, 0x00, 0x01, 0x00, 0x00, 0x00, 0x41, 0x00, 0x00, 0x00, 0xCE, 0xF9, 0xFF, 0xFF, 0x1C, 0x00, 0x00, 0x00, 0x00, 0x00, 0x00, 0x09, 0x1C, 0x00, 0x00, 0x00, 0x20, 0x00, 0x00, 0x00, 0x08, 0x00, 0x00, 0x00, 0x00, 0x00, 0x06, 0x00, 0x08, 0x00, 0x04, 0x00, 0x06, 0x00, 0x00, 0x00, 0x00, 0x00, 0x80, 0x3F, 0x01, 0x00, 0x00, 0x00, 0x41, 0x00, 0x00, 0x00, 0x01, 0x00, 0x00, 0x00, 0x40, 0x00, 0x00, 0x00, 0x06, 0xFA, 0xFF, 0xFF, 0x14, 0x00, 0x00, 0x00, 0x00, 0x00, 0x00, 0x08, 0x10, 0x00, 0x00, 0x00, 0x14, 0x00, 0x00, 0x00, 0x07, 0x00, 0x00, 0x00, 0x88, 0xC1, 0xFF, 0xFF, 0x01, 0x00, 0x00, 0x00, 0x40, 0x00, 0x00, 0x00, 0x03, 0x00, 0x00, 0x00, 0x3F, 0x00, 0x00, 0x00, 0x24, 0x00, 0x00, 0x00, 0x25, 0x00, 0x00, 0x00, 0x3A, 0xFA, 0xFF, 0xFF, 0x1C, 0x00, 0x00, 0x00, 0x00, 0x00, 0x00, 0x08, 0x1C, 0x00, 0x00, 0x00, 0x20, 0x00, 0x00, 0x00, 0x07, 0x00, 0x00, 0x00, 0x00, 0x00, 0x06, 0x00, 0x08, 0x00, 0x07, 0x00, 0x06, 0x00, 0x00, 0x00, 0x00, 0x00, 0x00, 0x01, 0x01, 0x00, 0x00, 0x00, 0x3F, 0x00, 0x00, 0x00, 0x03, 0x00, 0x00, 0x00, 0x3E, 0x00, 0x00, 0x00, 0x22, 0x00, 0x00, 0x00, 0x23, 0x00, 0x00, 0x00, 0x7A, 0xFA, 0xFF, 0xFF, 0x14, 0x00, 0x00, 0x00, 0x00, 0x00, 0x00, 0x1B, 0x10, 0x00, 0x00, 0x00, 0x14, 0x00, 0x00, 0x00, 0x06, 0x00, 0x00, 0x00, 0xFC, 0xC1, 0xFF, 0xFF, 0x01, 0x00, 0x00, 0x00, 0x3E, 0x00, 0x00, 0x00, 0x02, 0x00, 0x00, 0x00, 0x3D, 0x00, 0x00, 0x00, 0x01, 0x00, 0x00, 0x00, 0xAA, 0xFA, 0xFF, 0xFF, 0x14, 0x00, 0x00, 0x00, 0x00, 0x00, 0x00, 0x0B, 0x10, 0x00, 0x00, 0x00, 0x14, 0x00, 0x00, 0x00, 0x04, 0x00, 0x00, 0x00, 0x2C, 0xC2, 0xFF, 0xFF, 0x01, 0x00, 0x00, 0x00, 0x3D, 0x00, 0x00, 0x00, 0x02, 0x00, 0x00, 0x00, 0x3C, 0x00, 0x00, 0x00, 0x21, 0x00, 0x00, 0x00, 0xDA, 0xFA, 0xFF, 0xFF, 0x14, 0x00, 0x00, 0x00, 0x00, 0x00, 0x00, 0x15, 0x10, 0x00, 0x00, 0x00, 0x14, 0x00, 0x00, 0x00, 0x03, 0x00, 0x00, 0x00, 0x5C, 0xC2, 0xFF, 0xFF, 0x01, 0x00, 0x00, 0x00, 0x3C, 0x00, 0x00, 0x00, 0x02, 0x00, 0x00, 0x00, 0x3B, 0x00, 0x00, 0x00, 0x20, 0x00, 0x00, 0x00, 0x0A, 0xFB, 0xFF, 0xFF, 0x14, 0x00, 0x00, 0x00, 0x00, 0x00, 0x00, 0x01, 0x20, 0x00, 0x00, 0x00, 0x24, 0x00, 0x00, 0x00, 0x02, 0x00, 0x00, 0x00, 0xAC, 0xFB, 0xFF, 0xFF, 0x00, 0x00, 0x00, 0x01, 0x01, 0x00, 0x00, 0x00, 0x01, 0x00, 0x00, 0x00, 0x00, 0x00, 0x00, 0x01, 0x01, 0x00, 0x00, 0x00, 0x3B, 0x00, 0x00, 0x00, 0x03, 0x00, 0x00, 0x00, 0x3A, 0x00, 0x00, 0x00, 0x1E, 0x00, 0x00, 0x00, 0x1F, 0x00, 0x00, 0x00, 0x4E, 0xFB, 0xFF, 0xFF, 0x14, 0x00, 0x00, 0x00, 0x00, 0x00, 0x00, 0x02, 0x20, 0x00, 0x00, 0x00, 0x24, 0x00, 0x00, 0x00, 0x01, 0x00, 0x00, 0x00, 0xA0, 0xFB, 0xFF, 0xFF, 0x01, 0x00, 0x00, 0x00, 0x01, 0x00, 0x00, 0x00, 0x01, 0x00, 0x00, 0x00, 0x00, 0x00, 0x00, 0x01, 0x01, 0x00, 0x00, 0x00, 0x3A, 0x00, 0x00, 0x00, 0x03, 0x00, 0x00, 0x00, 0x39, 0x00, 0x00, 0x00, 0x1C, 0x00, 0x00, 0x00, 0x1D, 0x00, 0x00, 0x00, 0x92, 0xFB, 0xFF, 0xFF, 0x14, 0x00, 0x00, 0x00, 0x00, 0x00, 0x00, 0x02, 0x20, 0x00, 0x00, 0x00, 0x24, 0x00, 0x00, 0x00, 0x01, 0x00, 0x00, 0x00, 0x82, 0xFB, 0xFF, 0xFF, 0x00, 0x00, 0x00, 0x01, 0x01, 0x00, 0x00, 0x00, 0x01, 0x00, 0x00, 0x00, 0x01, 0x00, 0x00, 0x00, 0x01, 0x00, 0x00, 0x00, 0x39, 0x00, 0x00, 0x00, 0x03, 0x00, 0x00, 0x00, 0x38, 0x00, 0x00, 0x00, 0x1A, 0x00, 0x00, 0x00, 0x1B, 0x00, 0x00, 0x00, 0xD6, 0xFB, 0xFF, 0xFF, 0x14, 0x00, 0x00, 0x00, 0x00, 0x00, 0x00, 0x05, 0x24, 0x00, 0x00, 0x00, 0x28, 0x00, 0x00, 0x00, 0x05, 0x00, 0x00, 0x00, 0x26, 0xFD, 0xFF, 0xFF, 0x02, 0x00, 0x00, 0x00, 0x02, 0x00, 0x00, 0x00, 0x02, 0x00, 0x00, 0x00, 0x02, 0x00, 0x00, 0x00, 0x00, 0x00, 0x00, 0x01, 0x01, 0x00, 0x00, 0x00, 0x38, 0x00, 0x00, 0x00, 0x01, 0x00, 0x00, 0x00, 0x37, 0x00, 0x00, 0x00, 0x16, 0xFC, 0xFF, 0xFF, 0x14, 0x00, 0x00, 0x00, 0x00, 0x00, 0x00, 0x0B, 0x10, 0x00, 0x00, 0x00, 0x14, 0x00, 0x00, 0x00, 0x04, 0x00, 0x00, 0x00, 0x98, 0xC3, 0xFF, 0xFF, 0x01, 0x00, 0x00, 0x00, 0x37, 0x00, 0x00, 0x00, 0x02, 0x00, 0x00, 0x00, 0x36, 0x00, 0x00, 0x00, 0x19, 0x00, 0x00, 0x00, 0x46, 0xFC, 0xFF, 0xFF, 0x14, 0x00, 0x00, 0x00, 0x00, 0x00, 0x00, 0x15, 0x10, 0x00, 0x00, 0x00, 0x14, 0x00, 0x00, 0x00, 0x03, 0x00, 0x00, 0x00, 0xC8, 0xC3, 0xFF, 0xFF, 0x01, 0x00, 0x00, 0x00, 0x36, 0x00, 0x00, 0x00, 0x02, 0x00, 0x00, 0x00, 0x35, 0x00, 0x00, 0x00, 0x18, 0x00, 0x00, 0x00, 0x76, 0xFC, 0xFF, 0xFF, 0x14, 0x00, 0x00, 0x00, 0x00, 0x00, 0x00, 0x01, 0x20, 0x00, 0x00, 0x00, 0x24, 0x00, 0x00, 0x00, 0x02, 0x00, 0x00, 0x00, 0x18, 0xFD, 0xFF, 0xFF, 0x00, 0x00, 0x00, 0x01, 0x01, 0x00, 0x00, 0x00, 0x01, 0x00, 0x00, 0x00, 0x00, 0x00, 0x00, 0x01, 0x01, 0x00, 0x00, 0x00, 0x35, 0x00, 0x00, 0x00, 0x03, 0x00, 0x00, 0x00, 0x34, 0x00, 0x00, 0x00, 0x16, 0x00, 0x00, 0x00, 0x17, 0x00, 0x00, 0x00, 0xBA, 0xFC, 0xFF, 0xFF, 0x14, 0x00, 0x00, 0x00, 0x00, 0x00, 0x00, 0x02, 0x20, 0x00, 0x00, 0x00, 0x24, 0x00, 0x00, 0x00, 0x01, 0x00, 0x00, 0x00, 0x0C, 0xFD, 0xFF, 0xFF, 0x01, 0x00, 0x00, 0x00, 0x01, 0x00, 0x00, 0x00, 0x01, 0x00, 0x00, 0x00, 0x00, 0x00, 0x00, 0x01, 0x01, 0x00, 0x00, 0x00, 0x34, 0x00, 0x00, 0x00, 0x03, 0x00, 0x00, 0x00, 0x33, 0x00, 0x00, 0x00, 0x14, 0x00, 0x00, 0x00, 0x15, 0x00, 0x00, 0x00, 0xFE, 0xFC, 0xFF, 0xFF, 0x14, 0x00, 0x00, 0x00, 0x00, 0x00, 0x00, 0x02, 0x20, 0x00, 0x00, 0x00, 0x24, 0x00, 0x00, 0x00, 0x01, 0x00, 0x00, 0x00, 0xEE, 0xFC, 0xFF, 0xFF, 0x00, 0x00, 0x00, 0x01, 0x01, 0x00, 0x00, 0x00, 0x01, 0x00, 0x00, 0x00, 0x01, 0x00, 0x00, 0x00, 0x01, 0x00, 0x00, 0x00, 0x33, 0x00, 0x00, 0x00, 0x03, 0x00, 0x00, 0x00, 0x32, 0x00, 0x00, 0x00, 0x12, 0x00, 0x00, 0x00, 0x13, 0x00, 0x00, 0x00, 0x42, 0xFD, 0xFF, 0xFF, 0x14, 0x00, 0x00, 0x00, 0x00, 0x00, 0x00, 0x05, 0x24, 0x00, 0x00, 0x00, 0x28, 0x00, 0x00, 0x00, 0x05, 0x00, 0x00, 0x00, 0x92, 0xFE, 0xFF, 0xFF, 0x02, 0x00, 0x00, 0x00, 0x02, 0x00, 0x00, 0x00, 0x02, 0x00, 0x00, 0x00, 0x02, 0x00, 0x00, 0x00, 0x00, 0x00, 0x00, 0x01, 0x01, 0x00, 0x00, 0x00, 0x32, 0x00, 0x00, 0x00, 0x01, 0x00, 0x00, 0x00, 0x31, 0x00, 0x00, 0x00, 0x82, 0xFD, 0xFF, 0xFF, 0x14, 0x00, 0x00, 0x00, 0x00, 0x00, 0x00, 0x0B, 0x10, 0x00, 0x00, 0x00, 0x14, 0x00, 0x00, 0x00, 0x04, 0x00, 0x00, 0x00, 0x04, 0xC5, 0xFF, 0xFF, 0x01, 0x00, 0x00, 0x00, 0x31, 0x00, 0x00, 0x00, 0x02, 0x00, 0x00, 0x00, 0x30, 0x00, 0x00, 0x00, 0x11, 0x00, 0x00, 0x00, 0xB2, 0xFD, 0xFF, 0xFF, 0x14, 0x00, 0x00, 0x00, 0x00, 0x00, 0x00, 0x15, 0x10, 0x00, 0x00, 0x00, 0x14, 0x00, 0x00, 0x00, 0x03, 0x00, 0x00, 0x00, 0x34, 0xC5, 0xFF, 0xFF, 0x01, 0x00, 0x00, 0x00, 0x30, 0x00, 0x00, 0x00, 0x02, 0x00, 0x00, 0x00, 0x2F, 0x00, 0x00, 0x00, 0x10, 0x00, 0x00, 0x00, 0xE2, 0xFD, 0xFF, 0xFF, 0x14, 0x00, 0x00, 0x00, 0x00, 0x00, 0x00, 0x01, 0x20, 0x00, 0x00, 0x00, 0x24, 0x00, 0x00, 0x00, 0x02, 0x00, 0x00, 0x00, 0x84, 0xFE, 0xFF, 0xFF, 0x00, 0x00, 0x00, 0x01, 0x01, 0x00, 0x00, 0x00, 0x01, 0x00, 0x00, 0x00, 0x00, 0x00, 0x00, 0x01, 0x01, 0x00, 0x00, 0x00, 0x2F, 0x00, 0x00, 0x00, 0x03, 0x00, 0x00, 0x00, 0x2E, 0x00, 0x00, 0x00, 0x0E, 0x00, 0x00, 0x00, 0x0F, 0x00, 0x00, 0x00, 0x26, 0xFE, 0xFF, 0xFF, 0x14, 0x00, 0x00, 0x00, 0x00, 0x00, 0x00, 0x02, 0x20, 0x00, 0x00, 0x00, 0x24, 0x00, 0x00, 0x00, 0x01, 0x00, 0x00, 0x00, 0x78, 0xFE, 0xFF, 0xFF, 0x01, 0x00, 0x00, 0x00, 0x01, 0x00, 0x00, 0x00, 0x01, 0x00, 0x00, 0x00, 0x00, 0x00, 0x00, 0x01, 0x01, 0x00, 0x00, 0x00, 0x2E, 0x00, 0x00, 0x00, 0x03, 0x00, 0x00, 0x00, 0x2D, 0x00, 0x00, 0x00, 0x0C, 0x00, 0x00, 0x00, 0x0D, 0x00, 0x00, 0x00, 0x6A, 0xFE, 0xFF, 0xFF, 0x14, 0x00, 0x00, 0x00, 0x00, 0x00, 0x00, 0x02, 0x20, 0x00, 0x00, 0x00, 0x24, 0x00, 0x00, 0x00, 0x01, 0x00, 0x00, 0x00, 0x5A, 0xFE, 0xFF, 0xFF, 0x00, 0x00, 0x00, 0x01, 0x01, 0x00, 0x00, 0x00, 0x01, 0x00, 0x00, 0x00, 0x01, 0x00, 0x00, 0x00, 0x01, 0x00, 0x00, 0x00, 0x2D, 0x00, 0x00, 0x00, 0x03, 0x00, 0x00, 0x00, 0x2C, 0x00, 0x00, 0x00, 0x0A, 0x00, 0x00, 0x00, 0x0B, 0x00, 0x00, 0x00, 0xAE, 0xFE, 0xFF, 0xFF, 0x24, 0x00, 0x00, 0x00, 0x00, 0x00, 0x00, 0x05, 0x34, 0x00, 0x00, 0x00, 0x38, 0x00, 0x00, 0x00, 0x05, 0x00, 0x00, 0x00, 0x00, 0x00, 0x0E, 0x00, 0x18, 0x00, 0x17, 0x00, 0x10, 0x00, 0x0C, 0x00, 0x08, 0x00, 0x04, 0x00, 0x0E, 0x00, 0x00, 0x00, 0x02, 0x00, 0x00, 0x00, 0x02, 0x00, 0x00, 0x00, 0x02, 0x00, 0x00, 0x00, 0x02, 0x00, 0x00, 0x00, 0x00, 0x00, 0x00, 0x01, 0x01, 0x00, 0x00, 0x00, 0x2C, 0x00, 0x00, 0x00, 0x01, 0x00, 0x00, 0x00, 0x2B, 0x00, 0x00, 0x00, 0xFE, 0xFE, 0xFF, 0xFF, 0x14, 0x00, 0x00, 0x00, 0x00, 0x00, 0x00, 0x0B, 0x10, 0x00, 0x00, 0x00, 0x14, 0x00, 0x00, 0x00, 0x04, 0x00, 0x00, 0x00, 0x80, 0xC6, 0xFF, 0xFF, 0x01, 0x00, 0x00, 0x00, 0x2B, 0x00, 0x00, 0x00, 0x02, 0x00, 0x00, 0x00, 0x2A, 0x00, 0x00, 0x00, 0x09, 0x00, 0x00, 0x00, 0x2E, 0xFF, 0xFF, 0xFF, 0x14, 0x00, 0x00, 0x00, 0x00, 0x00, 0x00, 0x15, 0x10, 0x00, 0x00, 0x00, 0x14, 0x00, 0x00, 0x00, 0x03, 0x00, 0x00, 0x00, 0xB0, 0xC6, 0xFF, 0xFF, 0x01, 0x00, 0x00, 0x00, 0x2A, 0x00, 0x00, 0x00, 0x02, 0x00, 0x00, 0x00, 0x29, 0x00, 0x00, 0x00, 0x08, 0x00, 0x00, 0x00, 0x5E, 0xFF, 0xFF, 0xFF, 0x20, 0x00, 0x00, 0x00, 0x00, 0x00, 0x00, 0x01, 0x2C, 0x00, 0x00, 0x00, 0x30, 0x00, 0x00, 0x00, 0x02, 0x00, 0x00, 0x00, 0x0C, 0x00, 0x14, 0x00, 0x13, 0x00, 0x0C, 0x00, 0x08, 0x00, 0x07, 0x00, 0x0C, 0x00, 0x00, 0x00, 0x00, 0x00, 0x00, 0x01, 0x01, 0x00, 0x00, 0x00, 0x01, 0x00, 0x00, 0x00, 0x00, 0x00, 0x00, 0x01, 0x01, 0x00, 0x00, 0x00, 0x29, 0x00, 0x00, 0x00, 0x03, 0x00, 0x00, 0x00, 0x28, 0x00, 0x00, 0x00, 0x06, 0x00, 0x00, 0x00, 0x07, 0x00, 0x00, 0x00, 0xAE, 0xFF, 0xFF, 0xFF, 0x20, 0x00, 0x00, 0x00, 0x00, 0x00, 0x00, 0x02, 0x2C, 0x00, 0x00, 0x00, 0x30, 0x00, 0x00, 0x00, 0x01, 0x00, 0x00, 0x00, 0x0C, 0x00, 0x14, 0x00, 0x13, 0x00, 0x0C, 0x00, 0x08, 0x00, 0x04, 0x00, 0x0C, 0x00, 0x00, 0x00, 0x01, 0x00, 0x00, 0x00, 0x01, 0x00, 0x00, 0x00, 0x01, 0x00, 0x00, 0x00, 0x00, 0x00, 0x00, 0x01, 0x01, 0x00, 0x00, 0x00, 0x28, 0x00, 0x00, 0x00, 0x03, 0x00, 0x00, 0x00, 0x27, 0x00, 0x00, 0x00, 0x04, 0x00, 0x00, 0x00, 0x05, 0x00, 0x00, 0x00, 0x00, 0x00, 0x0E, 0x00, 0x1A, 0x00, 0x14, 0x00, 0x10, 0x00, 0x0C, 0x00, 0x0B, 0x00, 0x04, 0x00, 0x0E, 0x00, 0x00, 0x00, 0x24, 0x00, 0x00, 0x00, 0x00, 0x00, 0x00, 0x02, 0x30, 0x00, 0x00, 0x00, 0x34, 0x00, 0x00, 0x00, 0x01, 0x00, 0x00, 0x00, 0x00, 0x00, 0x0E, 0x00, 0x14, 0x00, 0x00, 0x00, 0x10, 0x00, 0x0C, 0x00, 0x08, 0x00, 0x07, 0x00, 0x0E, 0x00, 0x00, 0x00, 0x00, 0x00, 0x00, 0x01, 0x01, 0x00, 0x00, 0x00, 0x01, 0x00, 0x00, 0x00, 0x01, 0x00, 0x00, 0x00, 0x01, 0x00, 0x00, 0x00, 0x27, 0x00, 0x00, 0x00, 0x03, 0x00, 0x00, 0x00, 0x26, 0x00, 0x00, 0x00, 0x02, 0x00, 0x00, 0x00, 0x03, 0x00, 0x00, 0x00, 0x00, 0x00, 0x0A, 0x00, 0x0C, 0x00, 0x00, 0x00, 0x08, 0x00, 0x04, 0x00, 0x0A, 0x00, 0x00, 0x00, 0x08, 0x00, 0x00, 0x00, 0x0C, 0x00, 0x00, 0x00, 0x01, 0x00, 0x00, 0x00, 0x26, 0x00, 0x00, 0x00, 0x01, 0x00, 0x00, 0x00, 0x00, 0x00, 0x00, 0x00, 0x01, 0x00, 0x00, 0x00, 0x42, 0x00, 0x00, 0x00, 0x01, 0x00, 0x00, 0x00, 0x00, 0x00, 0x00, 0x00, 0x43, 0x00, 0x00, 0x00, 0x68, 0x38, 0x00, 0x00, 0xDC, 0x37, 0x00, 0x00, 0x2C, 0x37, 0x00, 0x00, 0x98, 0x36, 0x00, 0x00, 0xF0, 0x35, 0x00, 0x00, 0x68, 0x35, 0x00, 0x00, 0xBC, 0x34, 0x00, 0x00, 0x08, 0x34, 0x00, 0x00, 0x84, 0x33, 0x00, 0x00, 0x00, 0x33, 0x00, 0x00, 0x50, 0x32, 0x00, 0x00, 0x98, 0x31, 0x00, 0x00, 0xD8, 0x30, 0x00, 0x00, 0x28, 0x30, 0x00, 0x00, 0x4C, 0x2F, 0x00, 0x00, 0x68, 0x2E, 0x00, 0x00, 0xDC, 0x2D, 0x00, 0x00, 0x50, 0x2D, 0x00, 0x00, 0x70, 0x2C, 0x00, 0x00, 0x88, 0x2B, 0x00, 0x00, 0x98, 0x2A, 0x00, 0x00, 0xB8, 0x29, 0x00, 0x00, 0x7C, 0x28, 0x00, 0x00, 0x38, 0x27, 0x00, 0x00, 0xAC, 0x26, 0x00, 0x00, 0x20, 0x26, 0x00, 0x00, 0xE0, 0x24, 0x00, 0x00, 0x98, 0x23, 0x00, 0x00, 0x48, 0x22, 0x00, 0x00, 0x08, 0x21, 0x00, 0x00, 0x0C, 0x1F, 0x00, 0x00, 0x08, 0x1D, 0x00, 0x00, 0x7C, 0x1C, 0x00, 0x00, 0xF0, 0x1B, 0x00, 0x00, 0x7C, 0x1B, 0x00, 0x00, 0xF8, 0x1A, 0x00, 0x00, 0x84, 0x1A, 0x00, 0x00, 0xF8, 0x19, 0x00, 0x00, 0x8C, 0x18, 0x00, 0x00, 0x10, 0x17, 0x00, 0x00, 0x64, 0x16, 0x00, 0x00, 0xF8, 0x14, 0x00, 0x00, 0x4C, 0x14, 0x00, 0x00, 0xA0, 0x13, 0x00, 0x00, 0x04, 0x13, 0x00, 0x00, 0x78, 0x11, 0x00, 0x00, 0xCC, 0x10, 0x00, 0x00, 0x58, 0x0F, 0x00, 0x00, 0xAC, 0x0E, 0x00, 0x00, 0x00, 0x0E, 0x00, 0x00, 0x64, 0x0D, 0x00, 0x00, 0xD8, 0x0B, 0x00, 0x00, 0x2C, 0x0B, 0x00, 0x00, 0xB8, 0x09, 0x00, 0x00, 0x0C, 0x09, 0x00, 0x00, 0x60, 0x08, 0x00, 0x00, 0xC4, 0x07, 0x00, 0x00, 0x38, 0x06, 0x00, 0x00, 0x8C, 0x05, 0x00, 0x00, 0x50, 0x04, 0x00, 0x00, 0xA4, 0x03, 0x00, 0x00, 0xF8, 0x02, 0x00, 0x00, 0x64, 0x02, 0x00, 0x00, 0xA0, 0x01, 0x00, 0x00, 0xF4, 0x00, 0x00, 0x00, 0x70, 0x00, 0x00, 0x00, 0x04, 0x00, 0x00, 0x00, 0xB8, 0xC8, 0xFF, 0xFF, 0x18, 0x00, 0x00, 0x00, 0x20, 0x00, 0x00, 0x00, 0x40, 0x00, 0x00, 0x00, 0x43, 0x00, 0x00, 0x00, 0x00, 0x00, 0x00, 0x03, 0x44, 0x00, 0x00, 0x00, 0x02, 0x00, 0x00, 0x00, 0xFF, 0xFF, 0xFF, 0xFF, 0x05, 0x00, 0x00, 0x00, 0x9C, 0xC8, 0xFF, 0xFF, 0x08, 0x00, 0x00, 0x00, 0x14, 0x00, 0x00, 0x00, 0x01, 0x00, 0x00, 0x00, 0x00, 0x00, 0x00, 0x00, 0x00, 0x00, 0x00, 0x00, 0x00, 0x00, 0x00, 0x00, 0x01, 0x00, 0x00, 0x00, 0x00, 0x00, 0x80, 0x3B, 0x08, 0x00, 0x00, 0x00, 0x49, 0x64, 0x65, 0x6E, 0x74, 0x69, 0x74, 0x79, 0x00, 0x00, 0x00, 0x00, 0x02, 0x00, 0x00, 0x00, 0x01, 0x00, 0x00, 0x00, 0x05, 0x00, 0x00, 0x00, 0x20, 0xC9, 0xFF, 0xFF, 0x18, 0x00, 0x00, 0x00, 0x20, 0x00, 0x00, 0x00, 0x3C, 0x00, 0x00, 0x00, 0x42, 0x00, 0x00, 0x00, 0x00, 0x00, 0x00, 0x09, 0x5C, 0x00, 0x00, 0x00, 0x02, 0x00, 0x00, 0x00, 0xFF, 0xFF, 0xFF, 0xFF, 0x05, 0x00, 0x00, 0x00, 0x04, 0xC9, 0xFF, 0xFF, 0x08, 0x00, 0x00, 0x00, 0x10, 0x00, 0x00, 0x00, 0x01, 0x00, 0x00, 0x00, 0x80, 0xFF, 0xFF, 0xFF, 0xFF, 0xFF, 0xFF, 0xFF, 0x01, 0x00, 0x00, 0x00, 0x00, 0x00, 0x80, 0x3B, 0x25, 0x00, 0x00, 0x00, 0x73, 0x65, 0x71, 0x75, 0x65, 0x6E, 0x74, 0x69, 0x61, 0x6C, 0x2F, 0x71, 0x75, 0x61, 0x6E, 0x74, 0x5F, 0x64, 0x65, 0x6E, 0x73, 0x65, 0x5F, 0x31, 0x5F, 0x6F, 0x72, 0x69, 0x67, 0x2F, 0x53, 0x6F, 0x66, 0x74, 0x6D, 0x61, 0x78, 0x00, 0x00, 0x00, 0x02, 0x00, 0x00, 0x00, 0x01, 0x00, 0x00, 0x00, 0x05, 0x00, 0x00, 0x00, 0xA0, 0xC9, 0xFF, 0xFF, 0x18, 0x00, 0x00, 0x00, 0x20, 0x00, 0x00, 0x00, 0x40, 0x00, 0x00, 0x00, 0x41, 0x00, 0x00, 0x00, 0x00, 0x00, 0x00, 0x09, 0x84, 0x00, 0x00, 0x00, 0x02, 0x00, 0x00, 0x00, 0xFF, 0xFF, 0xFF, 0xFF, 0x05, 0x00, 0x00, 0x00, 0x84, 0xC9, 0xFF, 0xFF, 0x08, 0x00, 0x00, 0x00, 0x14, 0x00, 0x00, 0x00, 0x01, 0x00, 0x00, 0x00, 0x08, 0x00, 0x00, 0x00, 0x00, 0x00, 0x00, 0x00, 0x00, 0x00, 0x00, 0x00, 0x01, 0x00, 0x00, 0x00, 0x65, 0x56, 0xA2, 0x3D, 0x4A, 0x00, 0x00, 0x00, 0x73, 0x65, 0x71, 0x75, 0x65, 0x6E, 0x74, 0x69, 0x61, 0x6C, 0x2F, 0x71, 0x75, 0x61, 0x6E, 0x74, 0x5F, 0x64, 0x65, 0x6E, 0x73, 0x65, 0x5F, 0x31, 0x5F, 0x6F, 0x72, 0x69, 0x67, 0x2F, 0x4D, 0x61, 0x74, 0x4D, 0x75, 0x6C, 0x3B, 0x73, 0x65, 0x71, 0x75, 0x65, 0x6E, 0x74, 0x69, 0x61, 0x6C, 0x2F, 0x71, 0x75, 0x61, 0x6E, 0x74, 0x5F, 0x64, 0x65, 0x6E, 0x73, 0x65, 0x5F, 0x31, 0x5F, 0x6F, 0x72, 0x69, 0x67, 0x2F, 0x42, 0x69, 0x61, 0x73, 0x41, 0x64, 0x64, 0x00, 0x00, 0x02, 0x00, 0x00, 0x00, 0x01, 0x00, 0x00, 0x00, 0x05, 0x00, 0x00, 0x00, 0x48, 0xCA, 0xFF, 0xFF, 0x18, 0x00, 0x00, 0x00, 0x20, 0x00, 0x00, 0x00, 0x3C, 0x00, 0x00, 0x00, 0x40, 0x00, 0x00, 0x00, 0x00, 0x00, 0x00, 0x09, 0x9C, 0x00, 0x00, 0x00, 0x02, 0x00, 0x00, 0x00, 0xFF, 0xFF, 0xFF, 0xFF, 0x20, 0x00, 0x00, 0x00, 0x2C, 0xCA, 0xFF, 0xFF, 0x08, 0x00, 0x00, 0x00, 0x10, 0x00, 0x00, 0x00, 0x01, 0x00, 0x00, 0x00, 0x80, 0xFF, 0xFF, 0xFF, 0xFF, 0xFF, 0xFF, 0xFF, 0x01, 0x00, 0x00, 0x00, 0x8B, 0xB2, 0x36, 0x3C, 0x67, 0x00, 0x00, 0x00, 0x73, 0x65, 0x71, 0x75, 0x65, 0x6E, 0x74, 0x69, 0x61, 0x6C, 0x2F, 0x71, 0x75, 0x61, 0x6E, 0x74, 0x5F, 0x64, 0x65, 0x6E, 0x73, 0x65, 0x5F, 0x6F, 0x72, 0x69, 0x67, 0x2F, 0x4D, 0x61, 0x74, 0x4D, 0x75, 0x6C, 0x3B, 0x73, 0x65, 0x71, 0x75, 0x65, 0x6E, 0x74, 0x69, 0x61, 0x6C, 0x2F, 0x71, 0x75, 0x61, 0x6E, 0x74, 0x5F, 0x64, 0x65, 0x6E, 0x73, 0x65, 0x5F, 0x6F, 0x72, 0x69, 0x67, 0x2F, 0x52, 0x65, 0x6C, 0x75, 0x3B, 0x73, 0x65, 0x71, 0x75, 0x65, 0x6E, 0x74, 0x69, 0x61, 0x6C, 0x2F, 0x71, 0x75, 0x61, 0x6E, 0x74, 0x5F, 0x64, 0x65, 0x6E, 0x73, 0x65, 0x5F, 0x6F, 0x72, 0x69, 0x67, 0x2F, 0x42, 0x69, 0x61, 0x73, 0x41, 0x64, 0x64, 0x00, 0x02, 0x00, 0x00, 0x00, 0x01, 0x00, 0x00, 0x00, 0x20, 0x00, 0x00, 0x00, 0x08, 0xCB, 0xFF, 0xFF, 0x18, 0x00, 0x00, 0x00, 0x20, 0x00, 0x00, 0x00, 0x40, 0x00, 0x00, 0x00, 0x3F, 0x00, 0x00, 0x00, 0x00, 0x00, 0x00, 0x09, 0x6C, 0x00, 0x00, 0x00, 0x02, 0x00, 0x00, 0x00, 0xFF, 0xFF, 0xFF, 0xFF, 0x20, 0x00, 0x00, 0x00, 0xEC, 0xCA, 0xFF, 0xFF, 0x08, 0x00, 0x00, 0x00, 0x14, 0x00, 0x00, 0x00, 0x01, 0x00, 0x00, 0x00, 0xF7, 0xFF, 0xFF, 0xFF, 0xFF, 0xFF, 0xFF, 0xFF, 0x00, 0x00, 0x00, 0x00, 0x01, 0x00, 0x00, 0x00, 0x2A, 0xFA, 0x63, 0x3C, 0x33, 0x00, 0x00, 0x00, 0x73, 0x65, 0x71, 0x75, 0x65, 0x6E, 0x74, 0x69, 0x61, 0x6C, 0x2F, 0x71, 0x75, 0x61, 0x6E, 0x74, 0x5F, 0x67, 0x6C, 0x6F, 0x62, 0x61, 0x6C, 0x5F, 0x61, 0x76, 0x65, 0x72, 0x61, 0x67, 0x65, 0x5F, 0x70, 0x6F, 0x6F, 0x6C, 0x69, 0x6E, 0x67, 0x32, 0x64, 0x5F, 0x6F, 0x72, 0x69, 0x67, 0x2F, 0x4D, 0x65, 0x61, 0x6E, 0x00, 0x02, 0x00, 0x00, 0x00, 0x01, 0x00, 0x00, 0x00, 0x20, 0x00, 0x00, 0x00, 0x98, 0xCB, 0xFF, 0xFF, 0x18, 0x00, 0x00, 0x00, 0x28, 0x00, 0x00, 0x00, 0x44, 0x00, 0x00, 0x00, 0x3E, 0x00, 0x00, 0x00, 0x00, 0x00, 0x00, 0x09, 0x7C, 0x00, 0x00, 0x00, 0x04, 0x00, 0x00, 0x00, 0xFF, 0xFF, 0xFF, 0xFF, 0x10, 0x00, 0x00, 0x00, 0x04, 0x00, 0x00, 0x00, 0x20, 0x00, 0x00, 0x00, 0x84, 0xCB, 0xFF, 0xFF, 0x08, 0x00, 0x00, 0x00, 0x10, 0x00, 0x00, 0x00, 0x01, 0x00, 0x00, 0x00, 0x97, 0xFF, 0xFF, 0xFF, 0xFF, 0xFF, 0xFF, 0xFF, 0x01, 0x00, 0x00, 0x00, 0xFF, 0x2D, 0x33, 0x3E, 0x3D, 0x00, 0x00, 0x00, 0x73, 0x65, 0x71, 0x75, 0x65, 0x6E, 0x74, 0x69, 0x61, 0x6C, 0x2F, 0x71, 0x75, 0x61, 0x6E, 0x74, 0x5F, 0x62, 0x61, 0x74, 0x63, 0x68, 0x5F, 0x6E, 0x6F, 0x72, 0x6D, 0x61, 0x6C, 0x69, 0x7A, 0x61, 0x74, 0x69, 0x6F, 0x6E, 0x5F, 0x33, 0x5F, 0x6F, 0x72, 0x69, 0x67, 0x2F, 0x46, 0x75, 0x73, 0x65, 0x64, 0x42, 0x61, 0x74, 0x63, 0x68, 0x4E, 0x6F, 0x72, 0x6D, 0x56, 0x33, 0x33, 0x00, 0x00, 0x00, 0x04, 0x00, 0x00, 0x00, 0x01, 0x00, 0x00, 0x00, 0x10, 0x00, 0x00, 0x00, 0x04, 0x00, 0x00, 0x00, 0x20, 0x00, 0x00, 0x00, 0x40, 0xCC, 0xFF, 0xFF, 0x18, 0x00, 0x00, 0x00, 0x28, 0x00, 0x00, 0x00, 0x44, 0x00, 0x00, 0x00, 0x3D, 0x00, 0x00, 0x00, 0x00, 0x00, 0x00, 0x09, 0x7C, 0x00, 0x00, 0x00, 0x04, 0x00, 0x00, 0x00, 0xFF, 0xFF, 0xFF, 0xFF, 0x10, 0x00, 0x00, 0x00, 0x04, 0x00, 0x00, 0x00, 0x20, 0x00, 0x00, 0x00, 0x2C, 0xCC, 0xFF, 0xFF, 0x08, 0x00, 0x00, 0x00, 0x10, 0x00, 0x00, 0x00, 0x01, 0x00, 0x00, 0x00, 0x80, 0xFF, 0xFF, 0xFF, 0xFF, 0xFF, 0xFF, 0xFF, 0x01, 0x00, 0x00, 0x00, 0x92, 0x95, 0x23, 0x3E, 0x3D, 0x00, 0x00, 0x00, 0x73, 0x65, 0x71, 0x75, 0x65, 0x6E, 0x74, 0x69, 0x61, 0x6C, 0x2F, 0x71, 0x75, 0x61, 0x6E, 0x74, 0x5F, 0x62, 0x61, 0x74, 0x63, 0x68, 0x5F, 0x6E, 0x6F, 0x72, 0x6D, 0x61, 0x6C, 0x69, 0x7A, 0x61, 0x74, 0x69, 0x6F, 0x6E, 0x5F, 0x33, 0x5F, 0x6F, 0x72, 0x69, 0x67, 0x2F, 0x46, 0x75, 0x73, 0x65, 0x64, 0x42, 0x61, 0x74, 0x63, 0x68, 0x4E, 0x6F, 0x72, 0x6D, 0x56, 0x33, 0x32, 0x00, 0x00, 0x00, 0x04, 0x00, 0x00, 0x00, 0x01, 0x00, 0x00, 0x00, 0x10, 0x00, 0x00, 0x00, 0x04, 0x00, 0x00, 0x00, 0x20, 0x00, 0x00, 0x00, 0xE8, 0xCC, 0xFF, 0xFF, 0x18, 0x00, 0x00, 0x00, 0x28, 0x00, 0x00, 0x00, 0x48, 0x00, 0x00, 0x00, 0x3C, 0x00, 0x00, 0x00, 0x00, 0x00, 0x00, 0x09, 0x0C, 0x01, 0x00, 0x00, 0x04, 0x00, 0x00, 0x00, 0xFF, 0xFF, 0xFF, 0xFF, 0x10, 0x00, 0x00, 0x00, 0x04, 0x00, 0x00, 0x00, 0x20, 0x00, 0x00, 0x00, 0xD4, 0xCC, 0xFF, 0xFF, 0x08, 0x00, 0x00, 0x00, 0x14, 0x00, 0x00, 0x00, 0x01, 0x00, 0x00, 0x00, 0x80, 0xFF, 0xFF, 0xFF, 0xFF, 0xFF, 0xFF, 0xFF, 0x00, 0x00, 0x00, 0x00, 0x01, 0x00, 0x00, 0x00, 0x96, 0xD9, 0x83, 0x3C, 0xC9, 0x00, 0x00, 0x00, 0x73, 0x65, 0x71, 0x75, 0x65, 0x6E, 0x74, 0x69, 0x61, 0x6C, 0x2F, 0x73, 0x65, 0x70, 0x61, 0x72, 0x61, 0x62, 0x6C, 0x65, 0x5F, 0x63, 0x6F, 0x6E, 0x76, 0x32, 0x64, 0x5F, 0x33, 0x5F, 0x6F, 0x72, 0x69, 0x67, 0x2F, 0x52, 0x65, 0x6C, 0x75, 0x3B, 0x73, 0x65, 0x71, 0x75, 0x65, 0x6E, 0x74, 0x69, 0x61, 0x6C, 0x2F, 0x73, 0x65, 0x70, 0x61, 0x72, 0x61, 0x62, 0x6C, 0x65, 0x5F, 0x63, 0x6F, 0x6E, 0x76, 0x32, 0x64, 0x5F, 0x33, 0x5F, 0x6F, 0x72, 0x69, 0x67, 0x2F, 0x42, 0x69, 0x61, 0x73, 0x41, 0x64, 0x64, 0x3B, 0x73, 0x65, 0x71, 0x75, 0x65, 0x6E, 0x74, 0x69, 0x61, 0x6C, 0x2F, 0x73, 0x65, 0x70, 0x61, 0x72, 0x61, 0x62, 0x6C, 0x65, 0x5F, 0x63, 0x6F, 0x6E, 0x76, 0x32, 0x64, 0x5F, 0x33, 0x5F, 0x6F, 0x72, 0x69, 0x67, 0x2F, 0x73, 0x65, 0x70, 0x61, 0x72, 0x61, 0x62, 0x6C, 0x65, 0x5F, 0x63, 0x6F, 0x6E, 0x76, 0x32, 0x64, 0x3B, 0x73, 0x65, 0x71, 0x75, 0x65, 0x6E, 0x74, 0x69, 0x61, 0x6C, 0x2F, 0x73, 0x65, 0x70, 0x61, 0x72, 0x61, 0x62, 0x6C, 0x65, 0x5F, 0x63, 0x6F, 0x6E, 0x76, 0x32, 0x64, 0x5F, 0x33, 0x5F, 0x6F, 0x72, 0x69, 0x67, 0x2F, 0x42, 0x69, 0x61, 0x73, 0x41, 0x64, 0x64, 0x2F, 0x52, 0x65, 0x61, 0x64, 0x56, 0x61, 0x72, 0x69, 0x61, 0x62, 0x6C, 0x65, 0x4F, 0x70, 0x2F, 0x72, 0x65, 0x73, 0x6F, 0x75, 0x72, 0x63, 0x65, 0x00, 0x00, 0x00, 0x04, 0x00, 0x00, 0x00, 0x01, 0x00, 0x00, 0x00, 0x10, 0x00, 0x00, 0x00, 0x04, 0x00, 0x00, 0x00, 0x20, 0x00, 0x00, 0x00, 0x20, 0xCE, 0xFF, 0xFF, 0x18, 0x00, 0x00, 0x00, 0x28, 0x00, 0x00, 0x00, 0x44, 0x00, 0x00, 0x00, 0x3B, 0x00, 0x00, 0x00, 0x00, 0x00, 0x00, 0x09, 0x7C, 0x00, 0x00, 0x00, 0x04, 0x00, 0x00, 0x00, 0xFF, 0xFF, 0xFF, 0xFF, 0x10, 0x00, 0x00, 0x00, 0x04, 0x00, 0x00, 0x00, 0x10, 0x00, 0x00, 0x00, 0x0C, 0xCE, 0xFF, 0xFF, 0x08, 0x00, 0x00, 0x00, 0x10, 0x00, 0x00, 0x00, 0x01, 0x00, 0x00, 0x00, 0x13, 0x00, 0x00, 0x00, 0x00, 0x00, 0x00, 0x00, 0x01, 0x00, 0x00, 0x00, 0x28, 0xE4, 0x79, 0x3D, 0x3E, 0x00, 0x00, 0x00, 0x73, 0x65, 0x71, 0x75, 0x65, 0x6E, 0x74, 0x69, 0x61, 0x6C, 0x2F, 0x73, 0x65, 0x70, 0x61, 0x72, 0x61, 0x62, 0x6C, 0x65, 0x5F, 0x63, 0x6F, 0x6E, 0x76, 0x32, 0x64, 0x5F, 0x33, 0x5F, 0x6F, 0x72, 0x69, 0x67, 0x2F, 0x73, 0x65, 0x70, 0x61, 0x72, 0x61, 0x62, 0x6C, 0x65, 0x5F, 0x63, 0x6F, 0x6E, 0x76, 0x32, 0x64, 0x2F, 0x64, 0x65, 0x70, 0x74, 0x68, 0x77, 0x69, 0x73, 0x65, 0x32, 0x00, 0x00, 0x04, 0x00, 0x00, 0x00, 0x01, 0x00, 0x00, 0x00, 0x10, 0x00, 0x00, 0x00, 0x04, 0x00, 0x00, 0x00, 0x10, 0x00, 0x00, 0x00, 0xC8, 0xCE, 0xFF, 0xFF, 0x18, 0x00, 0x00, 0x00, 0x28, 0x00, 0x00, 0x00, 0x48, 0x00, 0x00, 0x00, 0x3A, 0x00, 0x00, 0x00, 0x00, 0x00, 0x00, 0x09, 0x5C, 0x01, 0x00, 0x00, 0x04, 0x00, 0x00, 0x00, 0xFF, 0xFF, 0xFF, 0xFF, 0x10, 0x00, 0x00, 0x00, 0x04, 0x00, 0x00, 0x00, 0x10, 0x00, 0x00, 0x00, 0xB4, 0xCE, 0xFF, 0xFF, 0x08, 0x00, 0x00, 0x00, 0x14, 0x00, 0x00, 0x00, 0x01, 0x00, 0x00, 0x00, 0x80, 0xFF, 0xFF, 0xFF, 0xFF, 0xFF, 0xFF, 0xFF, 0x00, 0x00, 0x00, 0x00, 0x01, 0x00, 0x00, 0x00, 0x23, 0x2B, 0x7D, 0x3D, 0x18, 0x01, 0x00, 0x00, 0x73, 0x65, 0x71, 0x75, 0x65, 0x6E, 0x74, 0x69, 0x61, 0x6C, 0x2F, 0x71, 0x75, 0x61, 0x6E, 0x74, 0x5F, 0x64, 0x65, 0x70, 0x74, 0x68, 0x77, 0x69, 0x73, 0x65, 0x5F, 0x63, 0x6F, 0x6E, 0x76, 0x32, 0x64, 0x5F, 0x33, 0x5F, 0x6F, 0x72, 0x69, 0x67, 0x2F, 0x52, 0x65, 0x6C, 0x75, 0x3B, 0x73, 0x65, 0x71, 0x75, 0x65, 0x6E, 0x74, 0x69, 0x61, 0x6C, 0x2F, 0x71, 0x75, 0x61, 0x6E, 0x74, 0x5F, 0x64, 0x65, 0x70, 0x74, 0x68, 0x77, 0x69, 0x73, 0x65, 0x5F, 0x63, 0x6F, 0x6E, 0x76, 0x32, 0x64, 0x5F, 0x33, 0x5F, 0x6F, 0x72, 0x69, 0x67, 0x2F, 0x42, 0x69, 0x61, 0x73, 0x41, 0x64, 0x64, 0x3B, 0x73, 0x65, 0x71, 0x75, 0x65, 0x6E, 0x74, 0x69, 0x61, 0x6C, 0x2F, 0x73, 0x65, 0x70, 0x61, 0x72, 0x61, 0x62, 0x6C, 0x65, 0x5F, 0x63, 0x6F, 0x6E, 0x76, 0x32, 0x64, 0x5F, 0x33, 0x5F, 0x6F, 0x72, 0x69, 0x67, 0x2F, 0x73, 0x65, 0x70, 0x61, 0x72, 0x61, 0x62, 0x6C, 0x65, 0x5F, 0x63, 0x6F, 0x6E, 0x76, 0x32, 0x64, 0x2F, 0x64, 0x65, 0x70, 0x74, 0x68, 0x77, 0x69, 0x73, 0x65, 0x3B, 0x73, 0x65, 0x71, 0x75, 0x65, 0x6E, 0x74, 0x69, 0x61, 0x6C, 0x2F, 0x71, 0x75, 0x61, 0x6E, 0x74, 0x5F, 0x64, 0x65, 0x70, 0x74, 0x68, 0x77, 0x69, 0x73, 0x65, 0x5F, 0x63, 0x6F, 0x6E, 0x76, 0x32, 0x64, 0x5F, 0x33, 0x5F, 0x6F, 0x72, 0x69, 0x67, 0x2F, 0x64, 0x65, 0x70, 0x74, 0x68, 0x77, 0x69, 0x73, 0x65, 0x3B, 0x73, 0x65, 0x71, 0x75, 0x65, 0x6E, 0x74, 0x69, 0x61, 0x6C, 0x2F, 0x71, 0x75, 0x61, 0x6E, 0x74, 0x5F, 0x64, 0x65, 0x70, 0x74, 0x68, 0x77, 0x69, 0x73, 0x65, 0x5F, 0x63, 0x6F, 0x6E, 0x76, 0x32, 0x64, 0x5F, 0x33, 0x5F, 0x6F, 0x72, 0x69, 0x67, 0x2F, 0x42, 0x69, 0x61, 0x73, 0x41, 0x64, 0x64, 0x2F, 0x52, 0x65, 0x61, 0x64, 0x56, 0x61, 0x72, 0x69, 0x61, 0x62, 0x6C, 0x65, 0x4F, 0x70, 0x2F, 0x72, 0x65, 0x73, 0x6F, 0x75, 0x72, 0x63, 0x65, 0x00, 0x00, 0x00, 0x00, 0x04, 0x00, 0x00, 0x00, 0x01, 0x00, 0x00, 0x00, 0x10, 0x00, 0x00, 0x00, 0x04, 0x00, 0x00, 0x00, 0x10, 0x00, 0x00, 0x00, 0x50, 0xD0, 0xFF, 0xFF, 0x18, 0x00, 0x00, 0x00, 0x28, 0x00, 0x00, 0x00, 0x44, 0x00, 0x00, 0x00, 0x39, 0x00, 0x00, 0x00, 0x00, 0x00, 0x00, 0x09, 0x6C, 0x00, 0x00, 0x00, 0x04, 0x00, 0x00, 0x00, 0xFF, 0xFF, 0xFF, 0xFF, 0x10, 0x00, 0x00, 0x00, 0x04, 0x00, 0x00, 0x00, 0x10, 0x00, 0x00, 0x00, 0x3C, 0xD0, 0xFF, 0xFF, 0x08, 0x00, 0x00, 0x00, 0x10, 0x00, 0x00, 0x00, 0x01, 0x00, 0x00, 0x00, 0xA5, 0xFF, 0xFF, 0xFF, 0xFF, 0xFF, 0xFF, 0xFF, 0x01, 0x00, 0x00, 0x00, 0xAF, 0xE3, 0x84, 0x3D, 0x2D, 0x00, 0x00, 0x00, 0x73, 0x65, 0x71, 0x75, 0x65, 0x6E, 0x74, 0x69, 0x61, 0x6C, 0x2F, 0x71, 0x75, 0x61, 0x6E, 0x74, 0x5F, 0x6D, 0x61, 0x78, 0x5F, 0x70, 0x6F, 0x6F, 0x6C, 0x69, 0x6E, 0x67, 0x32, 0x64, 0x5F, 0x32, 0x5F, 0x6F, 0x72, 0x69, 0x67, 0x2F, 0x4D, 0x61, 0x78, 0x50, 0x6F, 0x6F, 0x6C, 0x00, 0x00, 0x00, 0x04, 0x00, 0x00, 0x00, 0x01, 0x00, 0x00, 0x00, 0x10, 0x00, 0x00, 0x00, 0x04, 0x00, 0x00, 0x00, 0x10, 0x00, 0x00, 0x00, 0xE8, 0xD0, 0xFF, 0xFF, 0x18, 0x00, 0x00, 0x00, 0x28, 0x00, 0x00, 0x00, 0x44, 0x00, 0x00, 0x00, 0x38, 0x00, 0x00, 0x00, 0x00, 0x00, 0x00, 0x09, 0x7C, 0x00, 0x00, 0x00, 0x04, 0x00, 0x00, 0x00, 0xFF, 0xFF, 0xFF, 0xFF, 0x20, 0x00, 0x00, 0x00, 0x08, 0x00, 0x00, 0x00, 0x10, 0x00, 0x00, 0x00, 0xD4, 0xD0, 0xFF, 0xFF, 0x08, 0x00, 0x00, 0x00, 0x10, 0x00, 0x00, 0x00, 0x01, 0x00, 0x00, 0x00, 0xA5, 0xFF, 0xFF, 0xFF, 0xFF, 0xFF, 0xFF, 0xFF, 0x01, 0x00, 0x00, 0x00, 0xAF, 0xE3, 0x84, 0x3D, 0x3D, 0x00, 0x00, 0x00, 0x73, 0x65, 0x71, 0x75, 0x65, 0x6E, 0x74, 0x69, 0x61, 0x6C, 0x2F, 0x71, 0x75, 0x61, 0x6E, 0x74, 0x5F, 0x62, 0x61, 0x74, 0x63, 0x68, 0x5F, 0x6E, 0x6F, 0x72, 0x6D, 0x61, 0x6C, 0x69, 0x7A, 0x61, 0x74, 0x69, 0x6F, 0x6E, 0x5F, 0x32, 0x5F, 0x6F, 0x72, 0x69, 0x67, 0x2F, 0x46, 0x75, 0x73, 0x65, 0x64, 0x42, 0x61, 0x74, 0x63, 0x68, 0x4E, 0x6F, 0x72, 0x6D, 0x56, 0x33, 0x33, 0x00, 0x00, 0x00, 0x04, 0x00, 0x00, 0x00, 0x01, 0x00, 0x00, 0x00, 0x20, 0x00, 0x00, 0x00, 0x08, 0x00, 0x00, 0x00, 0x10, 0x00, 0x00, 0x00, 0x90, 0xD1, 0xFF, 0xFF, 0x18, 0x00, 0x00, 0x00, 0x28, 0x00, 0x00, 0x00, 0x44, 0x00, 0x00, 0x00, 0x37, 0x00, 0x00, 0x00, 0x00, 0x00, 0x00, 0x09, 0x7C, 0x00, 0x00, 0x00, 0x04, 0x00, 0x00, 0x00, 0xFF, 0xFF, 0xFF, 0xFF, 0x20, 0x00, 0x00, 0x00, 0x08, 0x00, 0x00, 0x00, 0x10, 0x00, 0x00, 0x00, 0x7C, 0xD1, 0xFF, 0xFF, 0x08, 0x00, 0x00, 0x00, 0x10, 0x00, 0x00, 0x00, 0x01, 0x00, 0x00, 0x00, 0x80, 0xFF, 0xFF, 0xFF, 0xFF, 0xFF, 0xFF, 0xFF, 0x01, 0x00, 0x00, 0x00, 0x82, 0x4F, 0x6B, 0x3D, 0x3D, 0x00, 0x00, 0x00, 0x73, 0x65, 0x71, 0x75, 0x65, 0x6E, 0x74, 0x69, 0x61, 0x6C, 0x2F, 0x71, 0x75, 0x61, 0x6E, 0x74, 0x5F, 0x62, 0x61, 0x74, 0x63, 0x68, 0x5F, 0x6E, 0x6F, 0x72, 0x6D, 0x61, 0x6C, 0x69, 0x7A, 0x61, 0x74, 0x69, 0x6F, 0x6E, 0x5F, 0x32, 0x5F, 0x6F, 0x72, 0x69, 0x67, 0x2F, 0x46, 0x75, 0x73, 0x65, 0x64, 0x42, 0x61, 0x74, 0x63, 0x68, 0x4E, 0x6F, 0x72, 0x6D, 0x56, 0x33, 0x32, 0x00, 0x00, 0x00, 0x04, 0x00, 0x00, 0x00, 0x01, 0x00, 0x00, 0x00, 0x20, 0x00, 0x00, 0x00, 0x08, 0x00, 0x00, 0x00, 0x10, 0x00, 0x00, 0x00, 0x38, 0xD2, 0xFF, 0xFF, 0x18, 0x00, 0x00, 0x00, 0x28, 0x00, 0x00, 0x00, 0x44, 0x00, 0x00, 0x00, 0x36, 0x00, 0x00, 0x00, 0x00, 0x00, 0x00, 0x09, 0x44, 0x01, 0x00, 0x00, 0x04, 0x00, 0x00, 0x00, 0xFF, 0xFF, 0xFF, 0xFF, 0x20, 0x00, 0x00, 0x00, 0x08, 0x00, 0x00, 0x00, 0x10, 0x00, 0x00, 0x00, 0x24, 0xD2, 0xFF, 0xFF, 0x08, 0x00, 0x00, 0x00, 0x10, 0x00, 0x00, 0x00, 0x01, 0x00, 0x00, 0x00, 0x80, 0xFF, 0xFF, 0xFF, 0xFF, 0xFF, 0xFF, 0xFF, 0x01, 0x00, 0x00, 0x00, 0xB2, 0x63, 0xD2, 0x3C, 0x07, 0x01, 0x00, 0x00, 0x73, 0x65, 0x71, 0x75, 0x65, 0x6E, 0x74, 0x69, 0x61, 0x6C, 0x2F, 0x73, 0x65, 0x70, 0x61, 0x72, 0x61, 0x62, 0x6C, 0x65, 0x5F, 0x63, 0x6F, 0x6E, 0x76, 0x32, 0x64, 0x5F, 0x32, 0x5F, 0x6F, 0x72, 0x69, 0x67, 0x2F, 0x52, 0x65, 0x6C, 0x75, 0x3B, 0x73, 0x65, 0x71, 0x75, 0x65, 0x6E, 0x74, 0x69, 0x61, 0x6C, 0x2F, 0x73, 0x65, 0x70, 0x61, 0x72, 0x61, 0x62, 0x6C, 0x65, 0x5F, 0x63, 0x6F, 0x6E, 0x76, 0x32, 0x64, 0x5F, 0x32, 0x5F, 0x6F, 0x72, 0x69, 0x67, 0x2F, 0x42, 0x69, 0x61, 0x73, 0x41, 0x64, 0x64, 0x3B, 0x73, 0x65, 0x71, 0x75, 0x65, 0x6E, 0x74, 0x69, 0x61, 0x6C, 0x2F, 0x73, 0x65, 0x70, 0x61, 0x72, 0x61, 0x62, 0x6C, 0x65, 0x5F, 0x63, 0x6F, 0x6E, 0x76, 0x32, 0x64, 0x5F, 0x33, 0x5F, 0x6F, 0x72, 0x69, 0x67, 0x2F, 0x73, 0x65, 0x70, 0x61, 0x72, 0x61, 0x62, 0x6C, 0x65, 0x5F, 0x63, 0x6F, 0x6E, 0x76, 0x32, 0x64, 0x2F, 0x64, 0x65, 0x70, 0x74, 0x68, 0x77, 0x69, 0x73, 0x65, 0x3B, 0x73, 0x65, 0x71, 0x75, 0x65, 0x6E, 0x74, 0x69, 0x61, 0x6C, 0x2F, 0x73, 0x65, 0x70, 0x61, 0x72, 0x61, 0x62, 0x6C, 0x65, 0x5F, 0x63, 0x6F, 0x6E, 0x76, 0x32, 0x64, 0x5F, 0x32, 0x5F, 0x6F, 0x72, 0x69, 0x67, 0x2F, 0x73, 0x65, 0x70, 0x61, 0x72, 0x61, 0x62, 0x6C, 0x65, 0x5F, 0x63, 0x6F, 0x6E, 0x76, 0x32, 0x64, 0x3B, 0x73, 0x65, 0x71, 0x75, 0x65, 0x6E, 0x74, 0x69, 0x61, 0x6C, 0x2F, 0x73, 0x65, 0x70, 0x61, 0x72, 0x61, 0x62, 0x6C, 0x65, 0x5F, 0x63, 0x6F, 0x6E, 0x76, 0x32, 0x64, 0x5F, 0x32, 0x5F, 0x6F, 0x72, 0x69, 0x67, 0x2F, 0x42, 0x69, 0x61, 0x73, 0x41, 0x64, 0x64, 0x2F, 0x52, 0x65, 0x61, 0x64, 0x56, 0x61, 0x72, 0x69, 0x61, 0x62, 0x6C, 0x65, 0x4F, 0x70, 0x2F, 0x72, 0x65, 0x73, 0x6F, 0x75, 0x72, 0x63, 0x65, 0x00, 0x04, 0x00, 0x00, 0x00, 0x01, 0x00, 0x00, 0x00, 0x20, 0x00, 0x00, 0x00, 0x08, 0x00, 0x00, 0x00, 0x10, 0x00, 0x00, 0x00, 0xA8, 0xD3, 0xFF, 0xFF, 0x18, 0x00, 0x00, 0x00, 0x28, 0x00, 0x00, 0x00, 0x44, 0x00, 0x00, 0x00, 0x35, 0x00, 0x00, 0x00, 0x00, 0x00, 0x00, 0x09, 0x7C, 0x00, 0x00, 0x00, 0x04, 0x00, 0x00, 0x00, 0xFF, 0xFF, 0xFF, 0xFF, 0x20, 0x00, 0x00, 0x00, 0x08, 0x00, 0x00, 0x00, 0x08, 0x00, 0x00, 0x00, 0x94, 0xD3, 0xFF, 0xFF, 0x08, 0x00, 0x00, 0x00, 0x10, 0x00, 0x00, 0x00, 0x01, 0x00, 0x00, 0x00, 0xDC, 0xFF, 0xFF, 0xFF, 0xFF, 0xFF, 0xFF, 0xFF, 0x01, 0x00, 0x00, 0x00, 0x54, 0xE8, 0x46, 0x3D, 0x3E, 0x00, 0x00, 0x00, 0x73, 0x65, 0x71, 0x75, 0x65, 0x6E, 0x74, 0x69, 0x61, 0x6C, 0x2F, 0x73, 0x65, 0x70, 0x61, 0x72, 0x61, 0x62, 0x6C, 0x65, 0x5F, 0x63, 0x6F, 0x6E, 0x76, 0x32, 0x64, 0x5F, 0x32, 0x5F, 0x6F, 0x72, 0x69, 0x67, 0x2F, 0x73, 0x65, 0x70, 0x61, 0x72, 0x61, 0x62, 0x6C, 0x65, 0x5F, 0x63, 0x6F, 0x6E, 0x76, 0x32, 0x64, 0x2F, 0x64, 0x65, 0x70, 0x74, 0x68, 0x77, 0x69, 0x73, 0x65, 0x32, 0x00, 0x00, 0x04, 0x00, 0x00, 0x00, 0x01, 0x00, 0x00, 0x00, 0x20, 0x00, 0x00, 0x00, 0x08, 0x00, 0x00, 0x00, 0x08, 0x00, 0x00, 0x00, 0x50, 0xD4, 0xFF, 0xFF, 0x18, 0x00, 0x00, 0x00, 0x28, 0x00, 0x00, 0x00, 0x48, 0x00, 0x00, 0x00, 0x34, 0x00, 0x00, 0x00, 0x00, 0x00, 0x00, 0x09, 0x5C, 0x01, 0x00, 0x00, 0x04, 0x00, 0x00, 0x00, 0xFF, 0xFF, 0xFF, 0xFF, 0x20, 0x00, 0x00, 0x00, 0x08, 0x00, 0x00, 0x00, 0x08, 0x00, 0x00, 0x00, 0x3C, 0xD4, 0xFF, 0xFF, 0x08, 0x00, 0x00, 0x00, 0x14, 0x00, 0x00, 0x00, 0x01, 0x00, 0x00, 0x00, 0x80, 0xFF, 0xFF, 0xFF, 0xFF, 0xFF, 0xFF, 0xFF, 0x00, 0x00, 0x00, 0x00, 0x01, 0x00, 0x00, 0x00, 0xE5, 0xE5, 0xA7, 0x3D, 0x18, 0x01, 0x00, 0x00, 0x73, 0x65, 0x71, 0x75, 0x65, 0x6E, 0x74, 0x69, 0x61, 0x6C, 0x2F, 0x71, 0x75, 0x61, 0x6E, 0x74, 0x5F, 0x64, 0x65, 0x70, 0x74, 0x68, 0x77, 0x69, 0x73, 0x65, 0x5F, 0x63, 0x6F, 0x6E, 0x76, 0x32, 0x64, 0x5F, 0x32, 0x5F, 0x6F, 0x72, 0x69, 0x67, 0x2F, 0x52, 0x65, 0x6C, 0x75, 0x3B, 0x73, 0x65, 0x71, 0x75, 0x65, 0x6E, 0x74, 0x69, 0x61, 0x6C, 0x2F, 0x71, 0x75, 0x61, 0x6E, 0x74, 0x5F, 0x64, 0x65, 0x70, 0x74, 0x68, 0x77, 0x69, 0x73, 0x65, 0x5F, 0x63, 0x6F, 0x6E, 0x76, 0x32, 0x64, 0x5F, 0x32, 0x5F, 0x6F, 0x72, 0x69, 0x67, 0x2F, 0x42, 0x69, 0x61, 0x73, 0x41, 0x64, 0x64, 0x3B, 0x73, 0x65, 0x71, 0x75, 0x65, 0x6E, 0x74, 0x69, 0x61, 0x6C, 0x2F, 0x73, 0x65, 0x70, 0x61, 0x72, 0x61, 0x62, 0x6C, 0x65, 0x5F, 0x63, 0x6F, 0x6E, 0x76, 0x32, 0x64, 0x5F, 0x32, 0x5F, 0x6F, 0x72, 0x69, 0x67, 0x2F, 0x73, 0x65, 0x70, 0x61, 0x72, 0x61, 0x62, 0x6C, 0x65, 0x5F, 0x63, 0x6F, 0x6E, 0x76, 0x32, 0x64, 0x2F, 0x64, 0x65, 0x70, 0x74, 0x68, 0x77, 0x69, 0x73, 0x65, 0x3B, 0x73, 0x65, 0x71, 0x75, 0x65, 0x6E, 0x74, 0x69, 0x61, 0x6C, 0x2F, 0x71, 0x75, 0x61, 0x6E, 0x74, 0x5F, 0x64, 0x65, 0x70, 0x74, 0x68, 0x77, 0x69, 0x73, 0x65, 0x5F, 0x63, 0x6F, 0x6E, 0x76, 0x32, 0x64, 0x5F, 0x32, 0x5F, 0x6F, 0x72, 0x69, 0x67, 0x2F, 0x64, 0x65, 0x70, 0x74, 0x68, 0x77, 0x69, 0x73, 0x65, 0x3B, 0x73, 0x65, 0x71, 0x75, 0x65, 0x6E, 0x74, 0x69, 0x61, 0x6C, 0x2F, 0x71, 0x75, 0x61, 0x6E, 0x74, 0x5F, 0x64, 0x65, 0x70, 0x74, 0x68, 0x77, 0x69, 0x73, 0x65, 0x5F, 0x63, 0x6F, 0x6E, 0x76, 0x32, 0x64, 0x5F, 0x32, 0x5F, 0x6F, 0x72, 0x69, 0x67, 0x2F, 0x42, 0x69, 0x61, 0x73, 0x41, 0x64, 0x64, 0x2F, 0x52, 0x65, 0x61, 0x64, 0x56, 0x61, 0x72, 0x69, 0x61, 0x62, 0x6C, 0x65, 0x4F, 0x70, 0x2F, 0x72, 0x65, 0x73, 0x6F, 0x75, 0x72, 0x63, 0x65, 0x00, 0x00, 0x00, 0x00, 0x04, 0x00, 0x00, 0x00, 0x01, 0x00, 0x00, 0x00, 0x20, 0x00, 0x00, 0x00, 0x08, 0x00, 0x00, 0x00, 0x08, 0x00, 0x00, 0x00, 0xD8, 0xD5, 0xFF, 0xFF, 0x18, 0x00, 0x00, 0x00, 0x28, 0x00, 0x00, 0x00, 0x44, 0x00, 0x00, 0x00, 0x33, 0x00, 0x00, 0x00, 0x00, 0x00, 0x00, 0x09, 0x6C, 0x00, 0x00, 0x00, 0x04, 0x00, 0x00, 0x00, 0xFF, 0xFF, 0xFF, 0xFF, 0x20, 0x00, 0x00, 0x00, 0x08, 0x00, 0x00, 0x00, 0x08, 0x00, 0x00, 0x00, 0xC4, 0xD5, 0xFF, 0xFF, 0x08, 0x00, 0x00, 0x00, 0x10, 0x00, 0x00, 0x00, 0x01, 0x00, 0x00, 0x00, 0xA2, 0xFF, 0xFF, 0xFF, 0xFF, 0xFF, 0xFF, 0xFF, 0x01, 0x00, 0x00, 0x00, 0x3C, 0xF0, 0xD3, 0x3D, 0x2D, 0x00, 0x00, 0x00, 0x73, 0x65, 0x71, 0x75, 0x65, 0x6E, 0x74, 0x69, 0x61, 0x6C, 0x2F, 0x71, 0x75, 0x61, 0x6E, 0x74, 0x5F, 0x6D, 0x61, 0x78, 0x5F, 0x70, 0x6F, 0x6F, 0x6C, 0x69, 0x6E, 0x67, 0x32, 0x64, 0x5F, 0x31, 0x5F, 0x6F, 0x72, 0x69, 0x67, 0x2F, 0x4D, 0x61, 0x78, 0x50, 0x6F, 0x6F, 0x6C, 0x00, 0x00, 0x00, 0x04, 0x00, 0x00, 0x00, 0x01, 0x00, 0x00, 0x00, 0x20, 0x00, 0x00, 0x00, 0x08, 0x00, 0x00, 0x00, 0x08, 0x00, 0x00, 0x00, 0x70, 0xD6, 0xFF, 0xFF, 0x18, 0x00, 0x00, 0x00, 0x28, 0x00, 0x00, 0x00, 0x44, 0x00, 0x00, 0x00, 0x32, 0x00, 0x00, 0x00, 0x00, 0x00, 0x00, 0x09, 0x7C, 0x00, 0x00, 0x00, 0x04, 0x00, 0x00, 0x00, 0xFF, 0xFF, 0xFF, 0xFF, 0x40, 0x00, 0x00, 0x00, 0x10, 0x00, 0x00, 0x00, 0x08, 0x00, 0x00, 0x00, 0x5C, 0xD6, 0xFF, 0xFF, 0x08, 0x00, 0x00, 0x00, 0x10, 0x00, 0x00, 0x00, 0x01, 0x00, 0x00, 0x00, 0xA2, 0xFF, 0xFF, 0xFF, 0xFF, 0xFF, 0xFF, 0xFF, 0x01, 0x00, 0x00, 0x00, 0x3C, 0xF0, 0xD3, 0x3D, 0x3D, 0x00, 0x00, 0x00, 0x73, 0x65, 0x71, 0x75, 0x65, 0x6E, 0x74, 0x69, 0x61, 0x6C, 0x2F, 0x71, 0x75, 0x61, 0x6E, 0x74, 0x5F, 0x62, 0x61, 0x74, 0x63, 0x68, 0x5F, 0x6E, 0x6F, 0x72, 0x6D, 0x61, 0x6C, 0x69, 0x7A, 0x61, 0x74, 0x69, 0x6F, 0x6E, 0x5F, 0x31, 0x5F, 0x6F, 0x72, 0x69, 0x67, 0x2F, 0x46, 0x75, 0x73, 0x65, 0x64, 0x42, 0x61, 0x74, 0x63, 0x68, 0x4E, 0x6F, 0x72, 0x6D, 0x56, 0x33, 0x33, 0x00, 0x00, 0x00, 0x04, 0x00, 0x00, 0x00, 0x01, 0x00, 0x00, 0x00, 0x40, 0x00, 0x00, 0x00, 0x10, 0x00, 0x00, 0x00, 0x08, 0x00, 0x00, 0x00, 0x18, 0xD7, 0xFF, 0xFF, 0x18, 0x00, 0x00, 0x00, 0x28, 0x00, 0x00, 0x00, 0x44, 0x00, 0x00, 0x00, 0x31, 0x00, 0x00, 0x00, 0x00, 0x00, 0x00, 0x09, 0x7C, 0x00, 0x00, 0x00, 0x04, 0x00, 0x00, 0x00, 0xFF, 0xFF, 0xFF, 0xFF, 0x40, 0x00, 0x00, 0x00, 0x10, 0x00, 0x00, 0x00, 0x08, 0x00, 0x00, 0x00, 0x04, 0xD7, 0xFF, 0xFF, 0x08, 0x00, 0x00, 0x00, 0x10, 0x00, 0x00, 0x00, 0x01, 0x00, 0x00, 0x00, 0x80, 0xFF, 0xFF, 0xFF, 0xFF, 0xFF, 0xFF, 0xFF, 0x01, 0x00, 0x00, 0x00, 0xFA, 0xD4, 0xB8, 0x3D, 0x3D, 0x00, 0x00, 0x00, 0x73, 0x65, 0x71, 0x75, 0x65, 0x6E, 0x74, 0x69, 0x61, 0x6C, 0x2F, 0x71, 0x75, 0x61, 0x6E, 0x74, 0x5F, 0x62, 0x61, 0x74, 0x63, 0x68, 0x5F, 0x6E, 0x6F, 0x72, 0x6D, 0x61, 0x6C, 0x69, 0x7A, 0x61, 0x74, 0x69, 0x6F, 0x6E, 0x5F, 0x31, 0x5F, 0x6F, 0x72, 0x69, 0x67, 0x2F, 0x46, 0x75, 0x73, 0x65, 0x64, 0x42, 0x61, 0x74, 0x63, 0x68, 0x4E, 0x6F, 0x72, 0x6D, 0x56, 0x33, 0x32, 0x00, 0x00, 0x00, 0x04, 0x00, 0x00, 0x00, 0x01, 0x00, 0x00, 0x00, 0x40, 0x00, 0x00, 0x00, 0x10, 0x00, 0x00, 0x00, 0x08, 0x00, 0x00, 0x00, 0xC0, 0xD7, 0xFF, 0xFF, 0x18, 0x00, 0x00, 0x00, 0x28, 0x00, 0x00, 0x00, 0x44, 0x00, 0x00, 0x00, 0x30, 0x00, 0x00, 0x00, 0x00, 0x00, 0x00, 0x09, 0x44, 0x01, 0x00, 0x00, 0x04, 0x00, 0x00, 0x00, 0xFF, 0xFF, 0xFF, 0xFF, 0x40, 0x00, 0x00, 0x00, 0x10, 0x00, 0x00, 0x00, 0x08, 0x00, 0x00, 0x00, 0xAC, 0xD7, 0xFF, 0xFF, 0x08, 0x00, 0x00, 0x00, 0x10, 0x00, 0x00, 0x00, 0x01, 0x00, 0x00, 0x00, 0x80, 0xFF, 0xFF, 0xFF, 0xFF, 0xFF, 0xFF, 0xFF, 0x01, 0x00, 0x00, 0x00, 0xD0, 0xA9, 0x5F, 0x3C, 0x07, 0x01, 0x00, 0x00, 0x73, 0x65, 0x71, 0x75, 0x65, 0x6E, 0x74, 0x69, 0x61, 0x6C, 0x2F, 0x73, 0x65, 0x70, 0x61, 0x72, 0x61, 0x62, 0x6C, 0x65, 0x5F, 0x63, 0x6F, 0x6E, 0x76, 0x32, 0x64, 0x5F, 0x31, 0x5F, 0x6F, 0x72, 0x69, 0x67, 0x2F, 0x52, 0x65, 0x6C, 0x75, 0x3B, 0x73, 0x65, 0x71, 0x75, 0x65, 0x6E, 0x74, 0x69, 0x61, 0x6C, 0x2F, 0x73, 0x65, 0x70, 0x61, 0x72, 0x61, 0x62, 0x6C, 0x65, 0x5F, 0x63, 0x6F, 0x6E, 0x76, 0x32, 0x64, 0x5F, 0x31, 0x5F, 0x6F, 0x72, 0x69, 0x67, 0x2F, 0x42, 0x69, 0x61, 0x73, 0x41, 0x64, 0x64, 0x3B, 0x73, 0x65, 0x71, 0x75, 0x65, 0x6E, 0x74, 0x69, 0x61, 0x6C, 0x2F, 0x73, 0x65, 0x70, 0x61, 0x72, 0x61, 0x62, 0x6C, 0x65, 0x5F, 0x63, 0x6F, 0x6E, 0x76, 0x32, 0x64, 0x5F, 0x32, 0x5F, 0x6F, 0x72, 0x69, 0x67, 0x2F, 0x73, 0x65, 0x70, 0x61, 0x72, 0x61, 0x62, 0x6C, 0x65, 0x5F, 0x63, 0x6F, 0x6E, 0x76, 0x32, 0x64, 0x2F, 0x64, 0x65, 0x70, 0x74, 0x68, 0x77, 0x69, 0x73, 0x65, 0x3B, 0x73, 0x65, 0x71, 0x75, 0x65, 0x6E, 0x74, 0x69, 0x61, 0x6C, 0x2F, 0x73, 0x65, 0x70, 0x61, 0x72, 0x61, 0x62, 0x6C, 0x65, 0x5F, 0x63, 0x6F, 0x6E, 0x76, 0x32, 0x64, 0x5F, 0x31, 0x5F, 0x6F, 0x72, 0x69, 0x67, 0x2F, 0x73, 0x65, 0x70, 0x61, 0x72, 0x61, 0x62, 0x6C, 0x65, 0x5F, 0x63, 0x6F, 0x6E, 0x76, 0x32, 0x64, 0x3B, 0x73, 0x65, 0x71, 0x75, 0x65, 0x6E, 0x74, 0x69, 0x61, 0x6C, 0x2F, 0x73, 0x65, 0x70, 0x61, 0x72, 0x61, 0x62, 0x6C, 0x65, 0x5F, 0x63, 0x6F, 0x6E, 0x76, 0x32, 0x64, 0x5F, 0x31, 0x5F, 0x6F, 0x72, 0x69, 0x67, 0x2F, 0x42, 0x69, 0x61, 0x73, 0x41, 0x64, 0x64, 0x2F, 0x52, 0x65, 0x61, 0x64, 0x56, 0x61, 0x72, 0x69, 0x61, 0x62, 0x6C, 0x65, 0x4F, 0x70, 0x2F, 0x72, 0x65, 0x73, 0x6F, 0x75, 0x72, 0x63, 0x65, 0x00, 0x04, 0x00, 0x00, 0x00, 0x01, 0x00, 0x00, 0x00, 0x40, 0x00, 0x00, 0x00, 0x10, 0x00, 0x00, 0x00, 0x08, 0x00, 0x00, 0x00, 0x30, 0xD9, 0xFF, 0xFF, 0x18, 0x00, 0x00, 0x00, 0x28, 0x00, 0x00, 0x00, 0x44, 0x00, 0x00, 0x00, 0x2F, 0x00, 0x00, 0x00, 0x00, 0x00, 0x00, 0x09, 0x7C, 0x00, 0x00, 0x00, 0x04, 0x00, 0x00, 0x00, 0xFF, 0xFF, 0xFF, 0xFF, 0x40, 0x00, 0x00, 0x00, 0x10, 0x00, 0x00, 0x00, 0x04, 0x00, 0x00, 0x00, 0x1C, 0xD9, 0xFF, 0xFF, 0x08, 0x00, 0x00, 0x00, 0x10, 0x00, 0x00, 0x00, 0x01, 0x00, 0x00, 0x00, 0xFD, 0xFF, 0xFF, 0xFF, 0xFF, 0xFF, 0xFF, 0xFF, 0x01, 0x00, 0x00, 0x00, 0x7A, 0x22, 0x0D, 0x3D, 0x3E, 0x00, 0x00, 0x00, 0x73, 0x65, 0x71, 0x75, 0x65, 0x6E, 0x74, 0x69, 0x61, 0x6C, 0x2F, 0x73, 0x65, 0x70, 0x61, 0x72, 0x61, 0x62, 0x6C, 0x65, 0x5F, 0x63, 0x6F, 0x6E, 0x76, 0x32, 0x64, 0x5F, 0x31, 0x5F, 0x6F, 0x72, 0x69, 0x67, 0x2F, 0x73, 0x65, 0x70, 0x61, 0x72, 0x61, 0x62, 0x6C, 0x65, 0x5F, 0x63, 0x6F, 0x6E, 0x76, 0x32, 0x64, 0x2F, 0x64, 0x65, 0x70, 0x74, 0x68, 0x77, 0x69, 0x73, 0x65, 0x32, 0x00, 0x00, 0x04, 0x00, 0x00, 0x00, 0x01, 0x00, 0x00, 0x00, 0x40, 0x00, 0x00, 0x00, 0x10, 0x00, 0x00, 0x00, 0x04, 0x00, 0x00, 0x00, 0xD8, 0xD9, 0xFF, 0xFF, 0x18, 0x00, 0x00, 0x00, 0x28, 0x00, 0x00, 0x00, 0x48, 0x00, 0x00, 0x00, 0x2E, 0x00, 0x00, 0x00, 0x00, 0x00, 0x00, 0x09, 0x5C, 0x01, 0x00, 0x00, 0x04, 0x00, 0x00, 0x00, 0xFF, 0xFF, 0xFF, 0xFF, 0x40, 0x00, 0x00, 0x00, 0x10, 0x00, 0x00, 0x00, 0x04, 0x00, 0x00, 0x00, 0xC4, 0xD9, 0xFF, 0xFF, 0x08, 0x00, 0x00, 0x00, 0x14, 0x00, 0x00, 0x00, 0x01, 0x00, 0x00, 0x00, 0x80, 0xFF, 0xFF, 0xFF, 0xFF, 0xFF, 0xFF, 0xFF, 0x00, 0x00, 0x00, 0x00, 0x01, 0x00, 0x00, 0x00, 0xC0, 0x87, 0x94, 0x3C, 0x18, 0x01, 0x00, 0x00, 0x73, 0x65, 0x71, 0x75, 0x65, 0x6E, 0x74, 0x69, 0x61, 0x6C, 0x2F, 0x71, 0x75, 0x61, 0x6E, 0x74, 0x5F, 0x64, 0x65, 0x70, 0x74, 0x68, 0x77, 0x69, 0x73, 0x65, 0x5F, 0x63, 0x6F, 0x6E, 0x76, 0x32, 0x64, 0x5F, 0x31, 0x5F, 0x6F, 0x72, 0x69, 0x67, 0x2F, 0x52, 0x65, 0x6C, 0x75, 0x3B, 0x73, 0x65, 0x71, 0x75, 0x65, 0x6E, 0x74, 0x69, 0x61, 0x6C, 0x2F, 0x71, 0x75, 0x61, 0x6E, 0x74, 0x5F, 0x64, 0x65, 0x70, 0x74, 0x68, 0x77, 0x69, 0x73, 0x65, 0x5F, 0x63, 0x6F, 0x6E, 0x76, 0x32, 0x64, 0x5F, 0x31, 0x5F, 0x6F, 0x72, 0x69, 0x67, 0x2F, 0x42, 0x69, 0x61, 0x73, 0x41, 0x64, 0x64, 0x3B, 0x73, 0x65, 0x71, 0x75, 0x65, 0x6E, 0x74, 0x69, 0x61, 0x6C, 0x2F, 0x73, 0x65, 0x70, 0x61, 0x72, 0x61, 0x62, 0x6C, 0x65, 0x5F, 0x63, 0x6F, 0x6E, 0x76, 0x32, 0x64, 0x5F, 0x31, 0x5F, 0x6F, 0x72, 0x69, 0x67, 0x2F, 0x73, 0x65, 0x70, 0x61, 0x72, 0x61, 0x62, 0x6C, 0x65, 0x5F, 0x63, 0x6F, 0x6E, 0x76, 0x32, 0x64, 0x2F, 0x64, 0x65, 0x70, 0x74, 0x68, 0x77, 0x69, 0x73, 0x65, 0x3B, 0x73, 0x65, 0x71, 0x75, 0x65, 0x6E, 0x74, 0x69, 0x61, 0x6C, 0x2F, 0x71, 0x75, 0x61, 0x6E, 0x74, 0x5F, 0x64, 0x65, 0x70, 0x74, 0x68, 0x77, 0x69, 0x73, 0x65, 0x5F, 0x63, 0x6F, 0x6E, 0x76, 0x32, 0x64, 0x5F, 0x31, 0x5F, 0x6F, 0x72, 0x69, 0x67, 0x2F, 0x64, 0x65, 0x70, 0x74, 0x68, 0x77, 0x69, 0x73, 0x65, 0x3B, 0x73, 0x65, 0x71, 0x75, 0x65, 0x6E, 0x74, 0x69, 0x61, 0x6C, 0x2F, 0x71, 0x75, 0x61, 0x6E, 0x74, 0x5F, 0x64, 0x65, 0x70, 0x74, 0x68, 0x77, 0x69, 0x73, 0x65, 0x5F, 0x63, 0x6F, 0x6E, 0x76, 0x32, 0x64, 0x5F, 0x31, 0x5F, 0x6F, 0x72, 0x69, 0x67, 0x2F, 0x42, 0x69, 0x61, 0x73, 0x41, 0x64, 0x64, 0x2F, 0x52, 0x65, 0x61, 0x64, 0x56, 0x61, 0x72, 0x69, 0x61, 0x62, 0x6C, 0x65, 0x4F, 0x70, 0x2F, 0x72, 0x65, 0x73, 0x6F, 0x75, 0x72, 0x63, 0x65, 0x00, 0x00, 0x00, 0x00, 0x04, 0x00, 0x00, 0x00, 0x01, 0x00, 0x00, 0x00, 0x40, 0x00, 0x00, 0x00, 0x10, 0x00, 0x00, 0x00, 0x04, 0x00, 0x00, 0x00, 0x60, 0xDB, 0xFF, 0xFF, 0x18, 0x00, 0x00, 0x00, 0x28, 0x00, 0x00, 0x00, 0x48, 0x00, 0x00, 0x00, 0x2D, 0x00, 0x00, 0x00, 0x00, 0x00, 0x00, 0x09, 0x6C, 0x00, 0x00, 0x00, 0x04, 0x00, 0x00, 0x00, 0xFF, 0xFF, 0xFF, 0xFF, 0x40, 0x00, 0x00, 0x00, 0x10, 0x00, 0x00, 0x00, 0x04, 0x00, 0x00, 0x00, 0x4C, 0xDB, 0xFF, 0xFF, 0x08, 0x00, 0x00, 0x00, 0x14, 0x00, 0x00, 0x00, 0x01, 0x00, 0x00, 0x00, 0xAF, 0xFF, 0xFF, 0xFF, 0xFF, 0xFF, 0xFF, 0xFF, 0x00, 0x00, 0x00, 0x00, 0x01, 0x00, 0x00, 0x00, 0x3B, 0xC3, 0x13, 0x3D, 0x2B, 0x00, 0x00, 0x00, 0x73, 0x65, 0x71, 0x75, 0x65, 0x6E, 0x74, 0x69, 0x61, 0x6C, 0x2F, 0x71, 0x75, 0x61, 0x6E, 0x74, 0x5F, 0x6D, 0x61, 0x78, 0x5F, 0x70, 0x6F, 0x6F, 0x6C, 0x69, 0x6E, 0x67, 0x32, 0x64, 0x5F, 0x6F, 0x72, 0x69, 0x67, 0x2F, 0x4D, 0x61, 0x78, 0x50, 0x6F, 0x6F, 0x6C, 0x00, 0x04, 0x00, 0x00, 0x00, 0x01, 0x00, 0x00, 0x00, 0x40, 0x00, 0x00, 0x00, 0x10, 0x00, 0x00, 0x00, 0x04, 0x00, 0x00, 0x00, 0xF8, 0xDB, 0xFF, 0xFF, 0x18, 0x00, 0x00, 0x00, 0x28, 0x00, 0x00, 0x00, 0x48, 0x00, 0x00, 0x00, 0x2C, 0x00, 0x00, 0x00, 0x00, 0x00, 0x00, 0x09, 0x7C, 0x00, 0x00, 0x00, 0x04, 0x00, 0x00, 0x00, 0xFF, 0xFF, 0xFF, 0xFF, 0x80, 0x00, 0x00, 0x00, 0x20, 0x00, 0x00, 0x00, 0x04, 0x00, 0x00, 0x00, 0xE4, 0xDB, 0xFF, 0xFF, 0x08, 0x00, 0x00, 0x00, 0x14, 0x00, 0x00, 0x00, 0x01, 0x00, 0x00, 0x00, 0xAF, 0xFF, 0xFF, 0xFF, 0xFF, 0xFF, 0xFF, 0xFF, 0x00, 0x00, 0x00, 0x00, 0x01, 0x00, 0x00, 0x00, 0x3B, 0xC3, 0x13, 0x3D, 0x3B, 0x00, 0x00, 0x00, 0x73, 0x65, 0x71, 0x75, 0x65, 0x6E, 0x74, 0x69, 0x61, 0x6C, 0x2F, 0x71, 0x75, 0x61, 0x6E, 0x74, 0x5F, 0x62, 0x61, 0x74, 0x63, 0x68, 0x5F, 0x6E, 0x6F, 0x72, 0x6D, 0x61, 0x6C, 0x69, 0x7A, 0x61, 0x74, 0x69, 0x6F, 0x6E, 0x5F, 0x6F, 0x72, 0x69, 0x67, 0x2F, 0x46, 0x75, 0x73, 0x65, 0x64, 0x42, 0x61, 0x74, 0x63, 0x68, 0x4E, 0x6F, 0x72, 0x6D, 0x56, 0x33, 0x33, 0x00, 0x04, 0x00, 0x00, 0x00, 0x01, 0x00, 0x00, 0x00, 0x80, 0x00, 0x00, 0x00, 0x20, 0x00, 0x00, 0x00, 0x04, 0x00, 0x00, 0x00, 0xA0, 0xDC, 0xFF, 0xFF, 0x18, 0x00, 0x00, 0x00, 0x28, 0x00, 0x00, 0x00, 0x48, 0x00, 0x00, 0x00, 0x2B, 0x00, 0x00, 0x00, 0x00, 0x00, 0x00, 0x09, 0x7C, 0x00, 0x00, 0x00, 0x04, 0x00, 0x00, 0x00, 0xFF, 0xFF, 0xFF, 0xFF, 0x80, 0x00, 0x00, 0x00, 0x20, 0x00, 0x00, 0x00, 0x04, 0x00, 0x00, 0x00, 0x8C, 0xDC, 0xFF, 0xFF, 0x08, 0x00, 0x00, 0x00, 0x14, 0x00, 0x00, 0x00, 0x01, 0x00, 0x00, 0x00, 0x80, 0xFF, 0xFF, 0xFF, 0xFF, 0xFF, 0xFF, 0xFF, 0x00, 0x00, 0x00, 0x00, 0x01, 0x00, 0x00, 0x00, 0xE2, 0x05, 0x0D, 0x3D, 0x3B, 0x00, 0x00, 0x00, 0x73, 0x65, 0x71, 0x75, 0x65, 0x6E, 0x74, 0x69, 0x61, 0x6C, 0x2F, 0x71, 0x75, 0x61, 0x6E, 0x74, 0x5F, 0x62, 0x61, 0x74, 0x63, 0x68, 0x5F, 0x6E, 0x6F, 0x72, 0x6D, 0x61, 0x6C, 0x69, 0x7A, 0x61, 0x74, 0x69, 0x6F, 0x6E, 0x5F, 0x6F, 0x72, 0x69, 0x67, 0x2F, 0x46, 0x75, 0x73, 0x65, 0x64, 0x42, 0x61, 0x74, 0x63, 0x68, 0x4E, 0x6F, 0x72, 0x6D, 0x56, 0x33, 0x32, 0x00, 0x04, 0x00, 0x00, 0x00, 0x01, 0x00, 0x00, 0x00, 0x80, 0x00, 0x00, 0x00, 0x20, 0x00, 0x00, 0x00, 0x04, 0x00, 0x00, 0x00, 0x48, 0xDD, 0xFF, 0xFF, 0x18, 0x00, 0x00, 0x00, 0x28, 0x00, 0x00, 0x00, 0x44, 0x00, 0x00, 0x00, 0x2A, 0x00, 0x00, 0x00, 0x00, 0x00, 0x00, 0x09, 0x3C, 0x01, 0x00, 0x00, 0x04, 0x00, 0x00, 0x00, 0xFF, 0xFF, 0xFF, 0xFF, 0x80, 0x00, 0x00, 0x00, 0x20, 0x00, 0x00, 0x00, 0x04, 0x00, 0x00, 0x00, 0x34, 0xDD, 0xFF, 0xFF, 0x08, 0x00, 0x00, 0x00, 0x10, 0x00, 0x00, 0x00, 0x01, 0x00, 0x00, 0x00, 0x80, 0xFF, 0xFF, 0xFF, 0xFF, 0xFF, 0xFF, 0xFF, 0x01, 0x00, 0x00, 0x00, 0x85, 0x44, 0xD9, 0x3C, 0xFF, 0x00, 0x00, 0x00, 0x73, 0x65, 0x71, 0x75, 0x65, 0x6E, 0x74, 0x69, 0x61, 0x6C, 0x2F, 0x73, 0x65, 0x70, 0x61, 0x72, 0x61, 0x62, 0x6C, 0x65, 0x5F, 0x63, 0x6F, 0x6E, 0x76, 0x32, 0x64, 0x5F, 0x6F, 0x72, 0x69, 0x67, 0x2F, 0x52, 0x65, 0x6C, 0x75, 0x3B, 0x73, 0x65, 0x71, 0x75, 0x65, 0x6E, 0x74, 0x69, 0x61, 0x6C, 0x2F, 0x73, 0x65, 0x70, 0x61, 0x72, 0x61, 0x62, 0x6C, 0x65, 0x5F, 0x63, 0x6F, 0x6E, 0x76, 0x32, 0x64, 0x5F, 0x6F, 0x72, 0x69, 0x67, 0x2F, 0x42, 0x69, 0x61, 0x73, 0x41, 0x64, 0x64, 0x3B, 0x73, 0x65, 0x71, 0x75, 0x65, 0x6E, 0x74, 0x69, 0x61, 0x6C, 0x2F, 0x73, 0x65, 0x70, 0x61, 0x72, 0x61, 0x62, 0x6C, 0x65, 0x5F, 0x63, 0x6F, 0x6E, 0x76, 0x32, 0x64, 0x5F, 0x31, 0x5F, 0x6F, 0x72, 0x69, 0x67, 0x2F, 0x73, 0x65, 0x70, 0x61, 0x72, 0x61, 0x62, 0x6C, 0x65, 0x5F, 0x63, 0x6F, 0x6E, 0x76, 0x32, 0x64, 0x2F, 0x64, 0x65, 0x70, 0x74, 0x68, 0x77, 0x69, 0x73, 0x65, 0x3B, 0x73, 0x65, 0x71, 0x75, 0x65, 0x6E, 0x74, 0x69, 0x61, 0x6C, 0x2F, 0x73, 0x65, 0x70, 0x61, 0x72, 0x61, 0x62, 0x6C, 0x65, 0x5F, 0x63, 0x6F, 0x6E, 0x76, 0x32, 0x64, 0x5F, 0x6F, 0x72, 0x69, 0x67, 0x2F, 0x73, 0x65, 0x70, 0x61, 0x72, 0x61, 0x62, 0x6C, 0x65, 0x5F, 0x63, 0x6F, 0x6E, 0x76, 0x32, 0x64, 0x3B, 0x73, 0x65, 0x71, 0x75, 0x65, 0x6E, 0x74, 0x69, 0x61, 0x6C, 0x2F, 0x73, 0x65, 0x70, 0x61, 0x72, 0x61, 0x62, 0x6C, 0x65, 0x5F, 0x63, 0x6F, 0x6E, 0x76, 0x32, 0x64, 0x5F, 0x6F, 0x72, 0x69, 0x67, 0x2F, 0x42, 0x69, 0x61, 0x73, 0x41, 0x64, 0x64, 0x2F, 0x52, 0x65, 0x61, 0x64, 0x56, 0x61, 0x72, 0x69, 0x61, 0x62, 0x6C, 0x65, 0x4F, 0x70, 0x2F, 0x72, 0x65, 0x73, 0x6F, 0x75, 0x72, 0x63, 0x65, 0x00, 0x04, 0x00, 0x00, 0x00, 0x01, 0x00, 0x00, 0x00, 0x80, 0x00, 0x00, 0x00, 0x20, 0x00, 0x00, 0x00, 0x04, 0x00, 0x00, 0x00, 0xB0, 0xDE, 0xFF, 0xFF, 0x18, 0x00, 0x00, 0x00, 0x28, 0x00, 0x00, 0x00, 0x44, 0x00, 0x00, 0x00, 0x29, 0x00, 0x00, 0x00, 0x00, 0x00, 0x00, 0x09, 0x7C, 0x00, 0x00, 0x00, 0x04, 0x00, 0x00, 0x00, 0xFF, 0xFF, 0xFF, 0xFF, 0x80, 0x00, 0x00, 0x00, 0x20, 0x00, 0x00, 0x00, 0x01, 0x00, 0x00, 0x00, 0x9C, 0xDE, 0xFF, 0xFF, 0x08, 0x00, 0x00, 0x00, 0x10, 0x00, 0x00, 0x00, 0x01, 0x00, 0x00, 0x00, 0x7F, 0x00, 0x00, 0x00, 0x00, 0x00, 0x00, 0x00, 0x01, 0x00, 0x00, 0x00, 0x16, 0x8A, 0x8E, 0x3D, 0x3C, 0x00, 0x00, 0x00, 0x73, 0x65, 0x71, 0x75, 0x65, 0x6E, 0x74, 0x69, 0x61, 0x6C, 0x2F, 0x73, 0x65, 0x70, 0x61, 0x72, 0x61, 0x62, 0x6C, 0x65, 0x5F, 0x63, 0x6F, 0x6E, 0x76, 0x32, 0x64, 0x5F, 0x6F, 0x72, 0x69, 0x67, 0x2F, 0x73, 0x65, 0x70, 0x61, 0x72, 0x61, 0x62, 0x6C, 0x65, 0x5F, 0x63, 0x6F, 0x6E, 0x76, 0x32, 0x64, 0x2F, 0x64, 0x65, 0x70, 0x74, 0x68, 0x77, 0x69, 0x73, 0x65, 0x31, 0x00, 0x00, 0x00, 0x00, 0x04, 0x00, 0x00, 0x00, 0x01, 0x00, 0x00, 0x00, 0x80, 0x00, 0x00, 0x00, 0x20, 0x00, 0x00, 0x00, 0x01, 0x00, 0x00, 0x00, 0x58, 0xDF, 0xFF, 0xFF, 0x18, 0x00, 0x00, 0x00, 0x28, 0x00, 0x00, 0x00, 0x44, 0x00, 0x00, 0x00, 0x28, 0x00, 0x00, 0x00, 0x00, 0x00, 0x00, 0x09, 0x4C, 0x01, 0x00, 0x00, 0x04, 0x00, 0x00, 0x00, 0xFF, 0xFF, 0xFF, 0xFF, 0x80, 0x00, 0x00, 0x00, 0x20, 0x00, 0x00, 0x00, 0x01, 0x00, 0x00, 0x00, 0x44, 0xDF, 0xFF, 0xFF, 0x08, 0x00, 0x00, 0x00, 0x10, 0x00, 0x00, 0x00, 0x01, 0x00, 0x00, 0x00, 0x80, 0xFF, 0xFF, 0xFF, 0xFF, 0xFF, 0xFF, 0xFF, 0x01, 0x00, 0x00, 0x00, 0x28, 0xE1, 0x0C, 0x3E, 0x0E, 0x01, 0x00, 0x00, 0x73, 0x65, 0x71, 0x75, 0x65, 0x6E, 0x74, 0x69, 0x61, 0x6C, 0x2F, 0x71, 0x75, 0x61, 0x6E, 0x74, 0x5F, 0x64, 0x65, 0x70, 0x74, 0x68, 0x77, 0x69, 0x73, 0x65, 0x5F, 0x63, 0x6F, 0x6E, 0x76, 0x32, 0x64, 0x5F, 0x6F, 0x72, 0x69, 0x67, 0x2F, 0x52, 0x65, 0x6C, 0x75, 0x3B, 0x73, 0x65, 0x71, 0x75, 0x65, 0x6E, 0x74, 0x69, 0x61, 0x6C, 0x2F, 0x71, 0x75, 0x61, 0x6E, 0x74, 0x5F, 0x64, 0x65, 0x70, 0x74, 0x68, 0x77, 0x69, 0x73, 0x65, 0x5F, 0x63, 0x6F, 0x6E, 0x76, 0x32, 0x64, 0x5F, 0x6F, 0x72, 0x69, 0x67, 0x2F, 0x42, 0x69, 0x61, 0x73, 0x41, 0x64, 0x64, 0x3B, 0x73, 0x65, 0x71, 0x75, 0x65, 0x6E, 0x74, 0x69, 0x61, 0x6C, 0x2F, 0x73, 0x65, 0x70, 0x61, 0x72, 0x61, 0x62, 0x6C, 0x65, 0x5F, 0x63, 0x6F, 0x6E, 0x76, 0x32, 0x64, 0x5F, 0x6F, 0x72, 0x69, 0x67, 0x2F, 0x73, 0x65, 0x70, 0x61, 0x72, 0x61, 0x62, 0x6C, 0x65, 0x5F, 0x63, 0x6F, 0x6E, 0x76, 0x32, 0x64, 0x2F, 0x64, 0x65, 0x70, 0x74, 0x68, 0x77, 0x69, 0x73, 0x65, 0x3B, 0x73, 0x65, 0x71, 0x75, 0x65, 0x6E, 0x74, 0x69, 0x61, 0x6C, 0x2F, 0x71, 0x75, 0x61, 0x6E, 0x74, 0x5F, 0x64, 0x65, 0x70, 0x74, 0x68, 0x77, 0x69, 0x73, 0x65, 0x5F, 0x63, 0x6F, 0x6E, 0x76, 0x32, 0x64, 0x5F, 0x6F, 0x72, 0x69, 0x67, 0x2F, 0x64, 0x65, 0x70, 0x74, 0x68, 0x77, 0x69, 0x73, 0x65, 0x3B, 0x73, 0x65, 0x71, 0x75, 0x65, 0x6E, 0x74, 0x69, 0x61, 0x6C, 0x2F, 0x71, 0x75, 0x61, 0x6E, 0x74, 0x5F, 0x64, 0x65, 0x70, 0x74, 0x68, 0x77, 0x69, 0x73, 0x65, 0x5F, 0x63, 0x6F, 0x6E, 0x76, 0x32, 0x64, 0x5F, 0x6F, 0x72, 0x69, 0x67, 0x2F, 0x42, 0x69, 0x61, 0x73, 0x41, 0x64, 0x64, 0x2F, 0x52, 0x65, 0x61, 0x64, 0x56, 0x61, 0x72, 0x69, 0x61, 0x62, 0x6C, 0x65, 0x4F, 0x70, 0x2F, 0x72, 0x65, 0x73, 0x6F, 0x75, 0x72, 0x63, 0x65, 0x00, 0x00, 0x04, 0x00, 0x00, 0x00, 0x01, 0x00, 0x00, 0x00, 0x80, 0x00, 0x00, 0x00, 0x20, 0x00, 0x00, 0x00, 0x01, 0x00, 0x00, 0x00, 0xD0, 0xE0, 0xFF, 0xFF, 0x18, 0x00, 0x00, 0x00, 0x28, 0x00, 0x00, 0x00, 0x44, 0x00, 0x00, 0x00, 0x27, 0x00, 0x00, 0x00, 0x00, 0x00, 0x00, 0x09, 0x3C, 0x01, 0x00, 0x00, 0x04, 0x00, 0x00, 0x00, 0xFF, 0xFF, 0xFF, 0xFF, 0x80, 0x00, 0x00, 0x00, 0x20, 0x00, 0x00, 0x00, 0x01, 0x00, 0x00, 0x00, 0xBC, 0xE0, 0xFF, 0xFF, 0x08, 0x00, 0x00, 0x00, 0x10, 0x00, 0x00, 0x00, 0x01, 0x00, 0x00, 0x00, 0x80, 0xFF, 0xFF, 0xFF, 0xFF, 0xFF, 0xFF, 0xFF, 0x01, 0x00, 0x00, 0x00, 0x8F, 0x8E, 0x0E, 0x3F, 0xFD, 0x00, 0x00, 0x00, 0x73, 0x65, 0x71, 0x75, 0x65, 0x6E, 0x74, 0x69, 0x61, 0x6C, 0x2F, 0x71, 0x75, 0x61, 0x6E, 0x74, 0x69, 0x7A, 0x65, 0x5F, 0x6C, 0x61, 0x79, 0x65, 0x72, 0x2F, 0x41, 0x6C, 0x6C, 0x56, 0x61, 0x6C, 0x75, 0x65, 0x73, 0x51, 0x75, 0x61, 0x6E, 0x74, 0x69, 0x7A, 0x65, 0x2F, 0x46, 0x61, 0x6B, 0x65, 0x51, 0x75, 0x61, 0x6E, 0x74, 0x57, 0x69, 0x74, 0x68, 0x4D, 0x69, 0x6E, 0x4D, 0x61, 0x78, 0x56, 0x61, 0x72, 0x73, 0x3B, 0x73, 0x65, 0x71, 0x75, 0x65, 0x6E, 0x74, 0x69, 0x61, 0x6C, 0x2F, 0x71, 0x75, 0x61, 0x6E, 0x74, 0x69, 0x7A, 0x65, 0x5F, 0x6C, 0x61, 0x79, 0x65, 0x72, 0x2F, 0x41, 0x6C, 0x6C, 0x56, 0x61, 0x6C, 0x75, 0x65, 0x73, 0x51, 0x75, 0x61, 0x6E, 0x74, 0x69, 0x7A, 0x65, 0x2F, 0x46, 0x61, 0x6B, 0x65, 0x51, 0x75, 0x61, 0x6E, 0x74, 0x57, 0x69, 0x74, 0x68, 0x4D, 0x69, 0x6E, 0x4D, 0x61, 0x78, 0x56, 0x61, 0x72, 0x73, 0x2F, 0x52, 0x65, 0x61, 0x64, 0x56, 0x61, 0x72, 0x69, 0x61, 0x62, 0x6C, 0x65, 0x4F, 0x70, 0x2F, 0x72, 0x65, 0x73, 0x6F, 0x75, 0x72, 0x63, 0x65, 0x3B, 0x73, 0x65, 0x71, 0x75, 0x65, 0x6E, 0x74, 0x69, 0x61, 0x6C, 0x2F, 0x71, 0x75, 0x61, 0x6E, 0x74, 0x69, 0x7A, 0x65, 0x5F, 0x6C, 0x61, 0x79, 0x65, 0x72, 0x2F, 0x41, 0x6C, 0x6C, 0x56, 0x61, 0x6C, 0x75, 0x65, 0x73, 0x51, 0x75, 0x61, 0x6E, 0x74, 0x69, 0x7A, 0x65, 0x2F, 0x46, 0x61, 0x6B, 0x65, 0x51, 0x75, 0x61, 0x6E, 0x74, 0x57, 0x69, 0x74, 0x68, 0x4D, 0x69, 0x6E, 0x4D, 0x61, 0x78, 0x56, 0x61, 0x72, 0x73, 0x2F, 0x52, 0x65, 0x61, 0x64, 0x56, 0x61, 0x72, 0x69, 0x61, 0x62, 0x6C, 0x65, 0x4F, 0x70, 0x5F, 0x31, 0x2F, 0x72, 0x65, 0x73, 0x6F, 0x75, 0x72, 0x63, 0x65, 0x00, 0x00, 0x00, 0x04, 0x00, 0x00, 0x00, 0x01, 0x00, 0x00, 0x00, 0x80, 0x00, 0x00, 0x00, 0x20, 0x00, 0x00, 0x00, 0x01, 0x00, 0x00, 0x00, 0xBA, 0xE2, 0xFF, 0xFF, 0x14, 0x00, 0x00, 0x00, 0x34, 0x00, 0x00, 0x00, 0x26, 0x00, 0x00, 0x00, 0x00, 0x00, 0x00, 0x02, 0x6C, 0x00, 0x00, 0x00, 0x0C, 0xE2, 0xFF, 0xFF, 0x08, 0x00, 0x00, 0x00, 0x14, 0x00, 0x00, 0x00, 0x01, 0x00, 0x00, 0x00, 0x00, 0x00, 0x00, 0x00, 0x00, 0x00, 0x00, 0x00, 0x00, 0x00, 0x00, 0x00, 0x01, 0x00, 0x00, 0x00, 0x18, 0x44, 0xFE, 0x38, 0x3D, 0x00, 0x00, 0x00, 0x73, 0x65, 0x71, 0x75, 0x65, 0x6E, 0x74, 0x69, 0x61, 0x6C, 0x2F, 0x71, 0x75, 0x61, 0x6E, 0x74, 0x5F, 0x64, 0x65, 0x6E, 0x73, 0x65, 0x5F, 0x31, 0x5F, 0x6F, 0x72, 0x69, 0x67, 0x2F, 0x42, 0x69, 0x61, 0x73, 0x41, 0x64, 0x64, 0x2F, 0x52, 0x65, 0x61, 0x64, 0x56, 0x61, 0x72, 0x69, 0x61, 0x62, 0x6C, 0x65, 0x4F, 0x70, 0x2F, 0x72, 0x65, 0x73, 0x6F, 0x75, 0x72, 0x63, 0x65, 0x00, 0x00, 0x00, 0x01, 0x00, 0x00, 0x00, 0x05, 0x00, 0x00, 0x00, 0x42, 0xE3, 0xFF, 0xFF, 0x14, 0x00, 0x00, 0x00, 0x30, 0x00, 0x00, 0x00, 0x25, 0x00, 0x00, 0x00, 0x00, 0x00, 0x00, 0x09, 0x50, 0x00, 0x00, 0x00, 0x94, 0xE2, 0xFF, 0xFF, 0x08, 0x00, 0x00, 0x00, 0x10, 0x00, 0x00, 0x00, 0x01, 0x00, 0x00, 0x00, 0x00, 0x00, 0x00, 0x00, 0x00, 0x00, 0x00, 0x00, 0x01, 0x00, 0x00, 0x00, 0x4C, 0x24, 0x32, 0x3C, 0x24, 0x00, 0x00, 0x00, 0x73, 0x65, 0x71, 0x75, 0x65, 0x6E, 0x74, 0x69, 0x61, 0x6C, 0x2F, 0x71, 0x75, 0x61, 0x6E, 0x74, 0x5F, 0x64, 0x65, 0x6E, 0x73, 0x65, 0x5F, 0x31, 0x5F, 0x6F, 0x72, 0x69, 0x67, 0x2F, 0x4D, 0x61, 0x74, 0x4D, 0x75, 0x6C, 0x00, 0x00, 0x00, 0x00, 0x02, 0x00, 0x00, 0x00, 0x05, 0x00, 0x00, 0x00, 0x20, 0x00, 0x00, 0x00, 0xB2, 0xE3, 0xFF, 0xFF, 0x14, 0x00, 0x00, 0x00, 0x30, 0x00, 0x00, 0x00, 0x24, 0x00, 0x00, 0x00, 0x00, 0x00, 0x00, 0x02, 0x64, 0x00, 0x00, 0x00, 0x04, 0xE3, 0xFF, 0xFF, 0x08, 0x00, 0x00, 0x00, 0x10, 0x00, 0x00, 0x00, 0x01, 0x00, 0x00, 0x00, 0x00, 0x00, 0x00, 0x00, 0x00, 0x00, 0x00, 0x00, 0x01, 0x00, 0x00, 0x00, 0xD8, 0x58, 0x20, 0x39, 0x3B, 0x00, 0x00, 0x00, 0x73, 0x65, 0x71, 0x75, 0x65, 0x6E, 0x74, 0x69, 0x61, 0x6C, 0x2F, 0x71, 0x75, 0x61, 0x6E, 0x74, 0x5F, 0x64, 0x65, 0x6E, 0x73, 0x65, 0x5F, 0x6F, 0x72, 0x69, 0x67, 0x2F, 0x42, 0x69, 0x61, 0x73, 0x41, 0x64, 0x64, 0x2F, 0x52, 0x65, 0x61, 0x64, 0x56, 0x61, 0x72, 0x69, 0x61, 0x62, 0x6C, 0x65, 0x4F, 0x70, 0x2F, 0x72, 0x65, 0x73, 0x6F, 0x75, 0x72, 0x63, 0x65, 0x00, 0x01, 0x00, 0x00, 0x00, 0x20, 0x00, 0x00, 0x00, 0x32, 0xE4, 0xFF, 0xFF, 0x14, 0x00, 0x00, 0x00, 0x34, 0x00, 0x00, 0x00, 0x23, 0x00, 0x00, 0x00, 0x00, 0x00, 0x00, 0x09, 0x50, 0x00, 0x00, 0x00, 0x84, 0xE3, 0xFF, 0xFF, 0x08, 0x00, 0x00, 0x00, 0x14, 0x00, 0x00, 0x00, 0x01, 0x00, 0x00, 0x00, 0x00, 0x00, 0x00, 0x00, 0x00, 0x00, 0x00, 0x00, 0x00, 0x00, 0x00, 0x00, 0x01, 0x00, 0x00, 0x00, 0xD9, 0x39, 0x74, 0x3C, 0x22, 0x00, 0x00, 0x00, 0x73, 0x65, 0x71, 0x75, 0x65, 0x6E, 0x74, 0x69, 0x61, 0x6C, 0x2F, 0x71, 0x75, 0x61, 0x6E, 0x74, 0x5F, 0x64, 0x65, 0x6E, 0x73, 0x65, 0x5F, 0x6F, 0x72, 0x69, 0x67, 0x2F, 0x4D, 0x61, 0x74, 0x4D, 0x75, 0x6C, 0x00, 0x00, 0x02, 0x00, 0x00, 0x00, 0x20, 0x00, 0x00, 0x00, 0x20, 0x00, 0x00, 0x00, 0xA2, 0xE4, 0xFF, 0xFF, 0x14, 0x00, 0x00, 0x00, 0x34, 0x00, 0x00, 0x00, 0x22, 0x00, 0x00, 0x00, 0x00, 0x00, 0x00, 0x09, 0x6C, 0x00, 0x00, 0x00, 0xF4, 0xE3, 0xFF, 0xFF, 0x08, 0x00, 0x00, 0x00, 0x14, 0x00, 0x00, 0x00, 0x01, 0x00, 0x00, 0x00, 0x7F, 0x00, 0x00, 0x00, 0x00, 0x00, 0x00, 0x00, 0x00, 0x00, 0x00, 0x00, 0x01, 0x00, 0x00, 0x00, 0x6C, 0x4B, 0x83, 0x3C, 0x3C, 0x00, 0x00, 0x00, 0x73, 0x65, 0x71, 0x75, 0x65, 0x6E, 0x74, 0x69, 0x61, 0x6C, 0x2F, 0x71, 0x75, 0x61, 0x6E, 0x74, 0x5F, 0x62, 0x61, 0x74, 0x63, 0x68, 0x5F, 0x6E, 0x6F, 0x72, 0x6D, 0x61, 0x6C, 0x69, 0x7A, 0x61, 0x74, 0x69, 0x6F, 0x6E, 0x5F, 0x33, 0x5F, 0x6F, 0x72, 0x69, 0x67, 0x2F, 0x46, 0x75, 0x73, 0x65, 0x64, 0x42, 0x61, 0x74, 0x63, 0x68, 0x4E, 0x6F, 0x72, 0x6D, 0x56, 0x33, 0x00, 0x00, 0x00, 0x00, 0x01, 0x00, 0x00, 0x00, 0x20, 0x00, 0x00, 0x00, 0x2A, 0xE5, 0xFF, 0xFF, 0x14, 0x00, 0x00, 0x00, 0x34, 0x00, 0x00, 0x00, 0x21, 0x00, 0x00, 0x00, 0x00, 0x00, 0x00, 0x09, 0x6C, 0x00, 0x00, 0x00, 0x7C, 0xE4, 0xFF, 0xFF, 0x08, 0x00, 0x00, 0x00, 0x14, 0x00, 0x00, 0x00, 0x01, 0x00, 0x00, 0x00, 0x80, 0xFF, 0xFF, 0xFF, 0xFF, 0xFF, 0xFF, 0xFF, 0x00, 0x00, 0x00, 0x00, 0x01, 0x00, 0x00, 0x00, 0x12, 0x7F, 0x42, 0x3E, 0x3D, 0x00, 0x00, 0x00, 0x73, 0x65, 0x71, 0x75, 0x65, 0x6E, 0x74, 0x69, 0x61, 0x6C, 0x2F, 0x71, 0x75, 0x61, 0x6E, 0x74, 0x5F, 0x62, 0x61, 0x74, 0x63, 0x68, 0x5F, 0x6E, 0x6F, 0x72, 0x6D, 0x61, 0x6C, 0x69, 0x7A, 0x61, 0x74, 0x69, 0x6F, 0x6E, 0x5F, 0x33, 0x5F, 0x6F, 0x72, 0x69, 0x67, 0x2F, 0x46, 0x75, 0x73, 0x65, 0x64, 0x42, 0x61, 0x74, 0x63, 0x68, 0x4E, 0x6F, 0x72, 0x6D, 0x56, 0x33, 0x31, 0x00, 0x00, 0x00, 0x01, 0x00, 0x00, 0x00, 0x20, 0x00, 0x00, 0x00, 0xB2, 0xE5, 0xFF, 0xFF, 0x14, 0x00, 0x00, 0x00, 0xA8, 0x01, 0x00, 0x00, 0x20, 0x00, 0x00, 0x00, 0x00, 0x00, 0x00, 0x02, 0xE4, 0x01, 0x00, 0x00, 0x04, 0xE5, 0xFF, 0xFF, 0x08, 0x00, 0x00, 0x00, 0x0C, 0x01, 0x00, 0x00, 0x20, 0x00, 0x00, 0x00, 0x00, 0x00, 0x00, 0x00, 0x00, 0x00, 0x00, 0x00, 0x00, 0x00, 0x00, 0x00, 0x00, 0x00, 0x00, 0x00, 0x00, 0x00, 0x00, 0x00, 0x00, 0x00, 0x00, 0x00, 0x00, 0x00, 0x00, 0x00, 0x00, 0x00, 0x00, 0x00, 0x00, 0x00, 0x00, 0x00, 0x00, 0x00, 0x00, 0x00, 0x00, 0x00, 0x00, 0x00, 0x00, 0x00, 0x00, 0x00, 0x00, 0x00, 0x00, 0x00, 0x00, 0x00, 0x00, 0x00, 0x00, 0x00, 0x00, 0x00, 0x00, 0x00, 0x00, 0x00, 0x00, 0x00, 0x00, 0x00, 0x00, 0x00, 0x00, 0x00, 0x00, 0x00, 0x00, 0x00, 0x00, 0x00, 0x00, 0x00, 0x00, 0x00, 0x00, 0x00, 0x00, 0x00, 0x00, 0x00, 0x00, 0x00, 0x00, 0x00, 0x00, 0x00, 0x00, 0x00, 0x00, 0x00, 0x00, 0x00, 0x00, 0x00, 0x00, 0x00, 0x00, 0x00, 0x00, 0x00, 0x00, 0x00, 0x00, 0x00, 0x00, 0x00, 0x00, 0x00, 0x00, 0x00, 0x00, 0x00, 0x00, 0x00, 0x00, 0x00, 0x00, 0x00, 0x00, 0x00, 0x00, 0x00, 0x00, 0x00, 0x00, 0x00, 0x00, 0x00, 0x00, 0x00, 0x00, 0x00, 0x00, 0x00, 0x00, 0x00, 0x00, 0x00, 0x00, 0x00, 0x00, 0x00, 0x00, 0x00, 0x00, 0x00, 0x00, 0x00, 0x00, 0x00, 0x00, 0x00, 0x00, 0x00, 0x00, 0x00, 0x00, 0x00, 0x00, 0x00, 0x00, 0x00, 0x00, 0x00, 0x00, 0x00, 0x00, 0x00, 0x00, 0x00, 0x00, 0x00, 0x00, 0x00, 0x00, 0x00, 0x00, 0x00, 0x00, 0x00, 0x00, 0x00, 0x00, 0x00, 0x00, 0x00, 0x00, 0x00, 0x00, 0x00, 0x00, 0x00, 0x00, 0x00, 0x00, 0x00, 0x00, 0x00, 0x00, 0x00, 0x00, 0x00, 0x00, 0x00, 0x00, 0x00, 0x00, 0x00, 0x00, 0x00, 0x00, 0x00, 0x00, 0x00, 0x00, 0x00, 0x00, 0x00, 0x00, 0x00, 0x00, 0x00, 0x00, 0x00, 0x00, 0x00, 0x00, 0x00, 0x00, 0x00, 0x00, 0x00, 0x00, 0x00, 0x00, 0x00, 0x00, 0x00, 0x00, 0x00, 0x00, 0x00, 0x00, 0x00, 0x00, 0x00, 0x00, 0x00, 0x00, 0x00, 0x00, 0x00, 0x20, 0x00, 0x00, 0x00, 0x4E, 0x9E, 0xD9, 0x39, 0x6B, 0x15, 0xB0, 0x39, 0x69, 0xAC, 0x91, 0x39, 0xBE, 0xC7, 0x03, 0x3A, 0xE0, 0x07, 0x20, 0x3A, 0x1B, 0x52, 0x13, 0x3A, 0x0D, 0x5E, 0x38, 0x3A, 0xC3, 0x14, 0x01, 0x3A, 0x8A, 0xB0, 0x19, 0x3A, 0xD6, 0x7D, 0x93, 0x39, 0x36, 0xEF, 0x31, 0x3A, 0x58, 0xF2, 0x2D, 0x3A, 0x43, 0x5B, 0xEB, 0x39, 0x29, 0x49, 0xD3, 0x39, 0x12, 0xA7, 0xAF, 0x39, 0x82, 0x4A, 0xD3, 0x39, 0x4D, 0xEA, 0xFD, 0x39, 0xE4, 0xBF, 0xAD, 0x3A, 0x5F, 0x7A, 0x22, 0x3A, 0x9C, 0xA5, 0x2C, 0x3A, 0x4A, 0x81, 0xBE, 0x39, 0x1D, 0xA3, 0xF5, 0x39, 0xC4, 0x49, 0x16, 0x3A, 0x62, 0x07, 0xCC, 0x39, 0x5C, 0x9B, 0x69, 0x3A, 0x31, 0xB6, 0x44, 0x3A, 0x60, 0x92, 0x3A, 0x3A, 0xB2, 0x41, 0xC8, 0x39, 0x40, 0x2D, 0xD5, 0x39, 0xB2, 0x6D, 0xC0, 0x39, 0x60, 0x6E, 0xC3, 0x39, 0x98, 0x62, 0x50, 0x3A, 0x42, 0x00, 0x00, 0x00, 0x73, 0x65, 0x71, 0x75, 0x65, 0x6E, 0x74, 0x69, 0x61, 0x6C, 0x2F, 0x73, 0x65, 0x70, 0x61, 0x72, 0x61, 0x62, 0x6C, 0x65, 0x5F, 0x63, 0x6F, 0x6E, 0x76, 0x32, 0x64, 0x5F, 0x33, 0x5F, 0x6F, 0x72, 0x69, 0x67, 0x2F, 0x42, 0x69, 0x61, 0x73, 0x41, 0x64, 0x64, 0x2F, 0x52, 0x65, 0x61, 0x64, 0x56, 0x61, 0x72, 0x69, 0x61, 0x62, 0x6C, 0x65, 0x4F, 0x70, 0x2F, 0x72, 0x65, 0x73, 0x6F, 0x75, 0x72, 0x63, 0x65, 0x00, 0x00, 0x01, 0x00, 0x00, 0x00, 0x20, 0x00, 0x00, 0x00, 0xB2, 0xE7, 0xFF, 0xFF, 0x14, 0x00, 0x00, 0x00, 0xA4, 0x01, 0x00, 0x00, 0x1F, 0x00, 0x00, 0x00, 0x00, 0x00, 0x00, 0x09, 0xD0, 0x01, 0x00, 0x00, 0x04, 0xE7, 0xFF, 0xFF, 0x08, 0x00, 0x00, 0x00, 0x08, 0x01, 0x00, 0x00, 0x20, 0x00, 0x00, 0x00, 0x00, 0x00, 0x00, 0x00, 0x00, 0x00, 0x00, 0x00, 0x00, 0x00, 0x00, 0x00, 0x00, 0x00, 0x00, 0x00, 0x00, 0x00, 0x00, 0x00, 0x00, 0x00, 0x00, 0x00, 0x00, 0x00, 0x00, 0x00, 0x00, 0x00, 0x00, 0x00, 0x00, 0x00, 0x00, 0x00, 0x00, 0x00, 0x00, 0x00, 0x00, 0x00, 0x00, 0x00, 0x00, 0x00, 0x00, 0x00, 0x00, 0x00, 0x00, 0x00, 0x00, 0x00, 0x00, 0x00, 0x00, 0x00, 0x00, 0x00, 0x00, 0x00, 0x00, 0x00, 0x00, 0x00, 0x00, 0x00, 0x00, 0x00, 0x00, 0x00, 0x00, 0x00, 0x00, 0x00, 0x00, 0x00, 0x00, 0x00, 0x00, 0x00, 0x00, 0x00, 0x00, 0x00, 0x00, 0x00, 0x00, 0x00, 0x00, 0x00, 0x00, 0x00, 0x00, 0x00, 0x00, 0x00, 0x00, 0x00, 0x00, 0x00, 0x00, 0x00, 0x00, 0x00, 0x00, 0x00, 0x00, 0x00, 0x00, 0x00, 0x00, 0x00, 0x00, 0x00, 0x00, 0x00, 0x00, 0x00, 0x00, 0x00, 0x00, 0x00, 0x00, 0x00, 0x00, 0x00, 0x00, 0x00, 0x00, 0x00, 0x00, 0x00, 0x00, 0x00, 0x00, 0x00, 0x00, 0x00, 0x00, 0x00, 0x00, 0x00, 0x00, 0x00, 0x00, 0x00, 0x00, 0x00, 0x00, 0x00, 0x00, 0x00, 0x00, 0x00, 0x00, 0x00, 0x00, 0x00, 0x00, 0x00, 0x00, 0x00, 0x00, 0x00, 0x00, 0x00, 0x00, 0x00, 0x00, 0x00, 0x00, 0x00, 0x00, 0x00, 0x00, 0x00, 0x00, 0x00, 0x00, 0x00, 0x00, 0x00, 0x00, 0x00, 0x00, 0x00, 0x00, 0x00, 0x00, 0x00, 0x00, 0x00, 0x00, 0x00, 0x00, 0x00, 0x00, 0x00, 0x00, 0x00, 0x00, 0x00, 0x00, 0x00, 0x00, 0x00, 0x00, 0x00, 0x00, 0x00, 0x00, 0x00, 0x00, 0x00, 0x00, 0x00, 0x00, 0x00, 0x00, 0x00, 0x00, 0x00, 0x00, 0x00, 0x00, 0x00, 0x00, 0x00, 0x00, 0x00, 0x00, 0x00, 0x00, 0x00, 0x00, 0x00, 0x00, 0x00, 0x00, 0x00, 0x00, 0x00, 0x00, 0x00, 0x00, 0x00, 0x00, 0x00, 0x00, 0x00, 0x00, 0x00, 0x00, 0x00, 0x20, 0x00, 0x00, 0x00, 0x2F, 0xF0, 0xDE, 0x3B, 0x5E, 0x63, 0xB4, 0x3B, 0x0D, 0x3C, 0x95, 0x3B, 0x70, 0x00, 0x07, 0x3C, 0x5D, 0xF1, 0x23, 0x3C, 0x0E, 0xEC, 0x16, 0x3C, 0xD7, 0xDF, 0x3C, 0x3C, 0x90, 0x3C, 0x04, 0x3C, 0x58, 0x72, 0x1D, 0x3C, 0xDA, 0x18, 0x97, 0x3B, 0xBE, 0x48, 0x36, 0x3C, 0xEB, 0x32, 0x32, 0x3C, 0x25, 0x1C, 0xF1, 0x3B, 0x68, 0x73, 0xD8, 0x3B, 0x52, 0xF2, 0xB3, 0x3B, 0xCA, 0x74, 0xD8, 0x3B, 0xAA, 0x0F, 0x02, 0x3C, 0x3B, 0xFF, 0xB1, 0x3C, 0x2D, 0x73, 0x26, 0x3C, 0x0D, 0xDE, 0x30, 0x3C, 0x7D, 0x29, 0xC3, 0x3B, 0x56, 0xA4, 0xFB, 0x3B, 0x49, 0xF6, 0x19, 0x3C, 0x37, 0x04, 0xD1, 0x3B, 0x4B, 0x51, 0x6F, 0x3C, 0x3B, 0x85, 0x49, 0x3C, 0xF6, 0x21, 0x3F, 0x3C, 0xEC, 0x26, 0xCD, 0x3B, 0x55, 0x63, 0xDA, 0x3B, 0xEE, 0x21, 0xC5, 0x3B, 0x67, 0x35, 0xC8, 0x3B, 0xB0, 0x7A, 0x55, 0x3C, 0x33, 0x00, 0x00, 0x00, 0x73, 0x65, 0x71, 0x75, 0x65, 0x6E, 0x74, 0x69, 0x61, 0x6C, 0x2F, 0x73, 0x65, 0x70, 0x61, 0x72, 0x61, 0x62, 0x6C, 0x65, 0x5F, 0x63, 0x6F, 0x6E, 0x76, 0x32, 0x64, 0x5F, 0x33, 0x5F, 0x6F, 0x72, 0x69, 0x67, 0x2F, 0x73, 0x65, 0x70, 0x61, 0x72, 0x61, 0x62, 0x6C, 0x65, 0x5F, 0x63, 0x6F, 0x6E, 0x76, 0x32, 0x64, 0x00, 0x04, 0x00, 0x00, 0x00, 0x20, 0x00, 0x00, 0x00, 0x01, 0x00, 0x00, 0x00, 0x01, 0x00, 0x00, 0x00, 0x10, 0x00, 0x00, 0x00, 0xAA, 0xE9, 0xFF, 0xFF, 0x14, 0x00, 0x00, 0x00, 0xE8, 0x00, 0x00, 0x00, 0x1E, 0x00, 0x00, 0x00, 0x00, 0x00, 0x00, 0x02, 0x20, 0x01, 0x00, 0x00, 0xFC, 0xE8, 0xFF, 0xFF, 0x08, 0x00, 0x00, 0x00, 0x8C, 0x00, 0x00, 0x00, 0x10, 0x00, 0x00, 0x00, 0x00, 0x00, 0x00, 0x00, 0x00, 0x00, 0x00, 0x00, 0x00, 0x00, 0x00, 0x00, 0x00, 0x00, 0x00, 0x00, 0x00, 0x00, 0x00, 0x00, 0x00, 0x00, 0x00, 0x00, 0x00, 0x00, 0x00, 0x00, 0x00, 0x00, 0x00, 0x00, 0x00, 0x00, 0x00, 0x00, 0x00, 0x00, 0x00, 0x00, 0x00, 0x00, 0x00, 0x00, 0x00, 0x00, 0x00, 0x00, 0x00, 0x00, 0x00, 0x00, 0x00, 0x00, 0x00, 0x00, 0x00, 0x00, 0x00, 0x00, 0x00, 0x00, 0x00, 0x00, 0x00, 0x00, 0x00, 0x00, 0x00, 0x00, 0x00, 0x00, 0x00, 0x00, 0x00, 0x00, 0x00, 0x00, 0x00, 0x00, 0x00, 0x00, 0x00, 0x00, 0x00, 0x00, 0x00, 0x00, 0x00, 0x00, 0x00, 0x00, 0x00, 0x00, 0x00, 0x00, 0x00, 0x00, 0x00, 0x00, 0x00, 0x00, 0x00, 0x00, 0x00, 0x00, 0x00, 0x00, 0x00, 0x00, 0x00, 0x00, 0x00, 0x00, 0x00, 0x00, 0x00, 0x00, 0x00, 0x00, 0x00, 0x00, 0x00, 0x00, 0x00, 0x00, 0x00, 0x00, 0x00, 0x00, 0x00, 0x00, 0x10, 0x00, 0x00, 0x00, 0xDC, 0x8E, 0x82, 0x39, 0xD8, 0x30, 0x5E, 0x39, 0xD1, 0x20, 0x54, 0x39, 0xD1, 0xC1, 0x24, 0x39, 0x9E, 0xE9, 0x53, 0x39, 0xA4, 0x9E, 0x48, 0x39, 0xC3, 0xE8, 0x46, 0x39, 0xC9, 0xCB, 0xDB, 0x39, 0xF4, 0x3E, 0xC3, 0x39, 0xDB, 0xA4, 0x85, 0x39, 0x9F, 0xF9, 0x3E, 0x39, 0xE5, 0xD2, 0x51, 0x39, 0x96, 0xD0, 0x66, 0x39, 0xB8, 0x32, 0x7C, 0x39, 0x58, 0xB6, 0x6A, 0x39, 0xFA, 0x5A, 0xBA, 0x39, 0x3D, 0x00, 0x00, 0x00, 0x73, 0x65, 0x71, 0x75, 0x65, 0x6E, 0x74, 0x69, 0x61, 0x6C, 0x2F, 0x73, 0x65, 0x70, 0x61, 0x72, 0x61, 0x62, 0x6C, 0x65, 0x5F, 0x63, 0x6F, 0x6E, 0x76, 0x32, 0x64, 0x5F, 0x33, 0x5F, 0x6F, 0x72, 0x69, 0x67, 0x2F, 0x73, 0x65, 0x70, 0x61, 0x72, 0x61, 0x62, 0x6C, 0x65, 0x5F, 0x63, 0x6F, 0x6E, 0x76, 0x32, 0x64, 0x2F, 0x64, 0x65, 0x70, 0x74, 0x68, 0x77, 0x69, 0x73, 0x65, 0x00, 0x00, 0x00, 0x01, 0x00, 0x00, 0x00, 0x10, 0x00, 0x00, 0x00, 0xE6, 0xEA, 0xFF, 0xFF, 0x14, 0x00, 0x00, 0x00, 0xEC, 0x00, 0x00, 0x00, 0x1D, 0x00, 0x00, 0x00, 0x00, 0x00, 0x00, 0x09, 0x24, 0x01, 0x00, 0x00, 0x82, 0xEB, 0xFF, 0xFF, 0x03, 0x00, 0x00, 0x00, 0x08, 0x00, 0x00, 0x00, 0x8C, 0x00, 0x00, 0x00, 0x10, 0x00, 0x00, 0x00, 0x00, 0x00, 0x00, 0x00, 0x00, 0x00, 0x00, 0x00, 0x00, 0x00, 0x00, 0x00, 0x00, 0x00, 0x00, 0x00, 0x00, 0x00, 0x00, 0x00, 0x00, 0x00, 0x00, 0x00, 0x00, 0x00, 0x00, 0x00, 0x00, 0x00, 0x00, 0x00, 0x00, 0x00, 0x00, 0x00, 0x00, 0x00, 0x00, 0x00, 0x00, 0x00, 0x00, 0x00, 0x00, 0x00, 0x00, 0x00, 0x00, 0x00, 0x00, 0x00, 0x00, 0x00, 0x00, 0x00, 0x00, 0x00, 0x00, 0x00, 0x00, 0x00, 0x00, 0x00, 0x00, 0x00, 0x00, 0x00, 0x00, 0x00, 0x00, 0x00, 0x00, 0x00, 0x00, 0x00, 0x00, 0x00, 0x00, 0x00, 0x00, 0x00, 0x00, 0x00, 0x00, 0x00, 0x00, 0x00, 0x00, 0x00, 0x00, 0x00, 0x00, 0x00, 0x00, 0x00, 0x00, 0x00, 0x00, 0x00, 0x00, 0x00, 0x00, 0x00, 0x00, 0x00, 0x00, 0x00, 0x00, 0x00, 0x00, 0x00, 0x00, 0x00, 0x00, 0x00, 0x00, 0x00, 0x00, 0x00, 0x00, 0x00, 0x00, 0x00, 0x00, 0x00, 0x00, 0x00, 0x00, 0x00, 0x00, 0x00, 0x10, 0x00, 0x00, 0x00, 0xAB, 0x04, 0x84, 0x3B, 0x03, 0xAD, 0x60, 0x3B, 0x2D, 0x80, 0x56, 0x3B, 0x8B, 0x99, 0x26, 0x3B, 0x5C, 0x48, 0x56, 0x3B, 0x0C, 0xDD, 0x4A, 0x3B, 0x46, 0x22, 0x49, 0x3B, 0x19, 0x41, 0xDE, 0x3B, 0xF9, 0x6D, 0xC5, 0x3B, 0x80, 0x23, 0x87, 0x3B, 0x6A, 0x1C, 0x41, 0x3B, 0xA8, 0x2B, 0x54, 0x3B, 0x72, 0x65, 0x69, 0x3B, 0xCE, 0x04, 0x7F, 0x3B, 0x5D, 0x56, 0x6D, 0x3B, 0x8B, 0x70, 0xBC, 0x3B, 0x3E, 0x00, 0x00, 0x00, 0x73, 0x65, 0x71, 0x75, 0x65, 0x6E, 0x74, 0x69, 0x61, 0x6C, 0x2F, 0x73, 0x65, 0x70, 0x61, 0x72, 0x61, 0x62, 0x6C, 0x65, 0x5F, 0x63, 0x6F, 0x6E, 0x76, 0x32, 0x64, 0x5F, 0x33, 0x5F, 0x6F, 0x72, 0x69, 0x67, 0x2F, 0x73, 0x65, 0x70, 0x61, 0x72, 0x61, 0x62, 0x6C, 0x65, 0x5F, 0x63, 0x6F, 0x6E, 0x76, 0x32, 0x64, 0x2F, 0x64, 0x65, 0x70, 0x74, 0x68, 0x77, 0x69, 0x73, 0x65, 0x31, 0x00, 0x00, 0x04, 0x00, 0x00, 0x00, 0x01, 0x00, 0x00, 0x00, 0x01, 0x00, 0x00, 0x00, 0x01, 0x00, 0x00, 0x00, 0x10, 0x00, 0x00, 0x00, 0x32, 0xEC, 0xFF, 0xFF, 0x14, 0x00, 0x00, 0x00, 0xE4, 0x00, 0x00, 0x00, 0x1C, 0x00, 0x00, 0x00, 0x00, 0x00, 0x00, 0x02, 0x28, 0x01, 0x00, 0x00, 0x84, 0xEB, 0xFF, 0xFF, 0x08, 0x00, 0x00, 0x00, 0x88, 0x00, 0x00, 0x00, 0x10, 0x00, 0x00, 0x00, 0x00, 0x00, 0x00, 0x00, 0x00, 0x00, 0x00, 0x00, 0x00, 0x00, 0x00, 0x00, 0x00, 0x00, 0x00, 0x00, 0x00, 0x00, 0x00, 0x00, 0x00, 0x00, 0x00, 0x00, 0x00, 0x00, 0x00, 0x00, 0x00, 0x00, 0x00, 0x00, 0x00, 0x00, 0x00, 0x00, 0x00, 0x00, 0x00, 0x00, 0x00, 0x00, 0x00, 0x00, 0x00, 0x00, 0x00, 0x00, 0x00, 0x00, 0x00, 0x00, 0x00, 0x00, 0x00, 0x00, 0x00, 0x00, 0x00, 0x00, 0x00, 0x00, 0x00, 0x00, 0x00, 0x00, 0x00, 0x00, 0x00, 0x00, 0x00, 0x00, 0x00, 0x00, 0x00, 0x00, 0x00, 0x00, 0x00, 0x00, 0x00, 0x00, 0x00, 0x00, 0x00, 0x00, 0x00, 0x00, 0x00, 0x00, 0x00, 0x00, 0x00, 0x00, 0x00, 0x00, 0x00, 0x00, 0x00, 0x00, 0x00, 0x00, 0x00, 0x00, 0x00, 0x00, 0x00, 0x00, 0x00, 0x00, 0x00, 0x00, 0x00, 0x00, 0x00, 0x00, 0x00, 0x00, 0x00, 0x00, 0x00, 0x00, 0x00, 0x00, 0x00, 0x00, 0x00, 0x00, 0x10, 0x00, 0x00, 0x00, 0xB1, 0xDA, 0xA8, 0x39, 0x15, 0x5A, 0x40, 0x39, 0xD3, 0x5A, 0xA7, 0x39, 0x7A, 0xB1, 0x9B, 0x39, 0x57, 0x3B, 0x9D, 0x39, 0xD3, 0x87, 0xB1, 0x39, 0x7D, 0x55, 0x9F, 0x39, 0x0E, 0x0F, 0xEF, 0x39, 0x82, 0x0C, 0xDF, 0x39, 0x66, 0xE5, 0xE6, 0x39, 0x59, 0x1B, 0xC2, 0x39, 0xD8, 0x29, 0x97, 0x39, 0x0C, 0x96, 0x0E, 0x3A, 0x72, 0x85, 0x70, 0x39, 0x50, 0xE3, 0x4C, 0x39, 0x31, 0x46, 0x07, 0x3A, 0x48, 0x00, 0x00, 0x00, 0x73, 0x65, 0x71, 0x75, 0x65, 0x6E, 0x74, 0x69, 0x61, 0x6C, 0x2F, 0x71, 0x75, 0x61, 0x6E, 0x74, 0x5F, 0x64, 0x65, 0x70, 0x74, 0x68, 0x77, 0x69, 0x73, 0x65, 0x5F, 0x63, 0x6F, 0x6E, 0x76, 0x32, 0x64, 0x5F, 0x33, 0x5F, 0x6F, 0x72, 0x69, 0x67, 0x2F, 0x42, 0x69, 0x61, 0x73, 0x41, 0x64, 0x64, 0x2F, 0x52, 0x65, 0x61, 0x64, 0x56, 0x61, 0x72, 0x69, 0x61, 0x62, 0x6C, 0x65, 0x4F, 0x70, 0x2F, 0x72, 0x65, 0x73, 0x6F, 0x75, 0x72, 0x63, 0x65, 0x00, 0x00, 0x00, 0x00, 0x01, 0x00, 0x00, 0x00, 0x10, 0x00, 0x00, 0x00, 0x76, 0xED, 0xFF, 0xFF, 0x14, 0x00, 0x00, 0x00, 0xE8, 0x00, 0x00, 0x00, 0x1B, 0x00, 0x00, 0x00, 0x00, 0x00, 0x00, 0x09, 0x14, 0x01, 0x00, 0x00, 0x12, 0xEE, 0xFF, 0xFF, 0x03, 0x00, 0x00, 0x00, 0x08, 0x00, 0x00, 0x00, 0x88, 0x00, 0x00, 0x00, 0x10, 0x00, 0x00, 0x00, 0x00, 0x00, 0x00, 0x00, 0x00, 0x00, 0x00, 0x00, 0x00, 0x00, 0x00, 0x00, 0x00, 0x00, 0x00, 0x00, 0x00, 0x00, 0x00, 0x00, 0x00, 0x00, 0x00, 0x00, 0x00, 0x00, 0x00, 0x00, 0x00, 0x00, 0x00, 0x00, 0x00, 0x00, 0x00, 0x00, 0x00, 0x00, 0x00, 0x00, 0x00, 0x00, 0x00, 0x00, 0x00, 0x00, 0x00, 0x00, 0x00, 0x00, 0x00, 0x00, 0x00, 0x00, 0x00, 0x00, 0x00, 0x00, 0x00, 0x00, 0x00, 0x00, 0x00, 0x00, 0x00, 0x00, 0x00, 0x00, 0x00, 0x00, 0x00, 0x00, 0x00, 0x00, 0x00, 0x00, 0x00, 0x00, 0x00, 0x00, 0x00, 0x00, 0x00, 0x00, 0x00, 0x00, 0x00, 0x00, 0x00, 0x00, 0x00, 0x00, 0x00, 0x00, 0x00, 0x00, 0x00, 0x00, 0x00, 0x00, 0x00, 0x00, 0x00, 0x00, 0x00, 0x00, 0x00, 0x00, 0x00, 0x00, 0x00, 0x00, 0x00, 0x00, 0x00, 0x00, 0x00, 0x00, 0x00, 0x00, 0x00, 0x00, 0x00, 0x00, 0x00, 0x00, 0x00, 0x00, 0x10, 0x00, 0x00, 0x00, 0x41, 0xA4, 0xA2, 0x3B, 0x52, 0x46, 0x39, 0x3B, 0x83, 0x32, 0xA1, 0x3B, 0x01, 0xF7, 0x95, 0x3B, 0x60, 0x72, 0x97, 0x3B, 0xAA, 0xFF, 0xAA, 0x3B, 0xB9, 0x78, 0x99, 0x3B, 0x5D, 0x43, 0xE6, 0x3B, 0x9D, 0xD7, 0xD6, 0x3B, 0x97, 0x66, 0xDE, 0x3B, 0x0F, 0xF7, 0xBA, 0x3B, 0x09, 0x9A, 0x91, 0x3B, 0x08, 0x57, 0x09, 0x3C, 0xFA, 0xAB, 0x67, 0x3B, 0x7A, 0x59, 0x45, 0x3B, 0x0C, 0x4C, 0x02, 0x3C, 0x32, 0x00, 0x00, 0x00, 0x73, 0x65, 0x71, 0x75, 0x65, 0x6E, 0x74, 0x69, 0x61, 0x6C, 0x2F, 0x71, 0x75, 0x61, 0x6E, 0x74, 0x5F, 0x64, 0x65, 0x70, 0x74, 0x68, 0x77, 0x69, 0x73, 0x65, 0x5F, 0x63, 0x6F, 0x6E, 0x76, 0x32, 0x64, 0x5F, 0x33, 0x5F, 0x6F, 0x72, 0x69, 0x67, 0x2F, 0x64, 0x65, 0x70, 0x74, 0x68, 0x77, 0x69, 0x73, 0x65, 0x00, 0x00, 0x04, 0x00, 0x00, 0x00, 0x01, 0x00, 0x00, 0x00, 0x03, 0x00, 0x00, 0x00, 0x03, 0x00, 0x00, 0x00, 0x10, 0x00, 0x00, 0x00, 0xB2, 0xEE, 0xFF, 0xFF, 0x14, 0x00, 0x00, 0x00, 0x34, 0x00, 0x00, 0x00, 0x1A, 0x00, 0x00, 0x00, 0x00, 0x00, 0x00, 0x09, 0x6C, 0x00, 0x00, 0x00, 0x04, 0xEE, 0xFF, 0xFF, 0x08, 0x00, 0x00, 0x00, 0x14, 0x00, 0x00, 0x00, 0x01, 0x00, 0x00, 0x00, 0x42, 0x00, 0x00, 0x00, 0x00, 0x00, 0x00, 0x00, 0x00, 0x00, 0x00, 0x00, 0x01, 0x00, 0x00, 0x00, 0x33, 0x3B, 0x52, 0x3C, 0x3C, 0x00, 0x00, 0x00, 0x73, 0x65, 0x71, 0x75, 0x65, 0x6E, 0x74, 0x69, 0x61, 0x6C, 0x2F, 0x71, 0x75, 0x61, 0x6E, 0x74, 0x5F, 0x62, 0x61, 0x74, 0x63, 0x68, 0x5F, 0x6E, 0x6F, 0x72, 0x6D, 0x61, 0x6C, 0x69, 0x7A, 0x61, 0x74, 0x69, 0x6F, 0x6E, 0x5F, 0x32, 0x5F, 0x6F, 0x72, 0x69, 0x67, 0x2F, 0x46, 0x75, 0x73, 0x65, 0x64, 0x42, 0x61, 0x74, 0x63, 0x68, 0x4E, 0x6F, 0x72, 0x6D, 0x56, 0x33, 0x00, 0x00, 0x00, 0x00, 0x01, 0x00, 0x00, 0x00, 0x10, 0x00, 0x00, 0x00, 0x3A, 0xEF, 0xFF, 0xFF, 0x14, 0x00, 0x00, 0x00, 0x34, 0x00, 0x00, 0x00, 0x19, 0x00, 0x00, 0x00, 0x00, 0x00, 0x00, 0x09, 0x6C, 0x00, 0x00, 0x00, 0x8C, 0xEE, 0xFF, 0xFF, 0x08, 0x00, 0x00, 0x00, 0x14, 0x00, 0x00, 0x00, 0x01, 0x00, 0x00, 0x00, 0x80, 0xFF, 0xFF, 0xFF, 0xFF, 0xFF, 0xFF, 0xFF, 0x00, 0x00, 0x00, 0x00, 0x01, 0x00, 0x00, 0x00, 0xCB, 0x8D, 0x0F, 0x3D, 0x3D, 0x00, 0x00, 0x00, 0x73, 0x65, 0x71, 0x75, 0x65, 0x6E, 0x74, 0x69, 0x61, 0x6C, 0x2F, 0x71, 0x75, 0x61, 0x6E, 0x74, 0x5F, 0x62, 0x61, 0x74, 0x63, 0x68, 0x5F, 0x6E, 0x6F, 0x72, 0x6D, 0x61, 0x6C, 0x69, 0x7A, 0x61, 0x74, 0x69, 0x6F, 0x6E, 0x5F, 0x32, 0x5F, 0x6F, 0x72, 0x69, 0x67, 0x2F, 0x46, 0x75, 0x73, 0x65, 0x64, 0x42, 0x61, 0x74, 0x63, 0x68, 0x4E, 0x6F, 0x72, 0x6D, 0x56, 0x33, 0x31, 0x00, 0x00, 0x00, 0x01, 0x00, 0x00, 0x00, 0x10, 0x00, 0x00, 0x00, 0xC2, 0xEF, 0xFF, 0xFF, 0x14, 0x00, 0x00, 0x00, 0xE8, 0x00, 0x00, 0x00, 0x18, 0x00, 0x00, 0x00, 0x00, 0x00, 0x00, 0x02, 0x24, 0x01, 0x00, 0x00, 0x14, 0xEF, 0xFF, 0xFF, 0x08, 0x00, 0x00, 0x00, 0x8C, 0x00, 0x00, 0x00, 0x10, 0x00, 0x00, 0x00, 0x00, 0x00, 0x00, 0x00, 0x00, 0x00, 0x00, 0x00, 0x00, 0x00, 0x00, 0x00, 0x00, 0x00, 0x00, 0x00, 0x00, 0x00, 0x00, 0x00, 0x00, 0x00, 0x00, 0x00, 0x00, 0x00, 0x00, 0x00, 0x00, 0x00, 0x00, 0x00, 0x00, 0x00, 0x00, 0x00, 0x00, 0x00, 0x00, 0x00, 0x00, 0x00, 0x00, 0x00, 0x00, 0x00, 0x00, 0x00, 0x00, 0x00, 0x00, 0x00, 0x00, 0x00, 0x00, 0x00, 0x00, 0x00, 0x00, 0x00, 0x00, 0x00, 0x00, 0x00, 0x00, 0x00, 0x00, 0x00, 0x00, 0x00, 0x00, 0x00, 0x00, 0x00, 0x00, 0x00, 0x00, 0x00, 0x00, 0x00, 0x00, 0x00, 0x00, 0x00, 0x00, 0x00, 0x00, 0x00, 0x00, 0x00, 0x00, 0x00, 0x00, 0x00, 0x00, 0x00, 0x00, 0x00, 0x00, 0x00, 0x00, 0x00, 0x00, 0x00, 0x00, 0x00, 0x00, 0x00, 0x00, 0x00, 0x00, 0x00, 0x00, 0x00, 0x00, 0x00, 0x00, 0x00, 0x00, 0x00, 0x00, 0x00, 0x00, 0x00, 0x00, 0x00, 0x00, 0x00, 0x00, 0x00, 0x00, 0x00, 0x10, 0x00, 0x00, 0x00, 0xF0, 0x18, 0xA4, 0x39, 0x1F, 0x79, 0xB1, 0x39, 0x6A, 0xAA, 0x48, 0x39, 0xD5, 0xEC, 0x9F, 0x39, 0x3A, 0x69, 0xA7, 0x39, 0xC8, 0xD1, 0xB9, 0x39, 0x77, 0xB9, 0x94, 0x39, 0x55, 0x16, 0x83, 0x39, 0x70, 0xDB, 0xCD, 0x39, 0x67, 0xAA, 0xE3, 0x39, 0x1D, 0x47, 0xCE, 0x39, 0x6D, 0x4D, 0x60, 0x39, 0x9A, 0x72, 0xA6, 0x39, 0x30, 0x7C, 0x63, 0x39, 0xCA, 0xC5, 0x81, 0x39, 0x4D, 0x86, 0x53, 0x39, 0x42, 0x00, 0x00, 0x00, 0x73, 0x65, 0x71, 0x75, 0x65, 0x6E, 0x74, 0x69, 0x61, 0x6C, 0x2F, 0x73, 0x65, 0x70, 0x61, 0x72, 0x61, 0x62, 0x6C, 0x65, 0x5F, 0x63, 0x6F, 0x6E, 0x76, 0x32, 0x64, 0x5F, 0x32, 0x5F, 0x6F, 0x72, 0x69, 0x67, 0x2F, 0x42, 0x69, 0x61, 0x73, 0x41, 0x64, 0x64, 0x2F, 0x52, 0x65, 0x61, 0x64, 0x56, 0x61, 0x72, 0x69, 0x61, 0x62, 0x6C, 0x65, 0x4F, 0x70, 0x2F, 0x72, 0x65, 0x73, 0x6F, 0x75, 0x72, 0x63, 0x65, 0x00, 0x00, 0x01, 0x00, 0x00, 0x00, 0x10, 0x00, 0x00, 0x00, 0x02, 0xF1, 0xFF, 0xFF, 0x14, 0x00, 0x00, 0x00, 0xE4, 0x00, 0x00, 0x00, 0x17, 0x00, 0x00, 0x00, 0x00, 0x00, 0x00, 0x09, 0x10, 0x01, 0x00, 0x00, 0x54, 0xF0, 0xFF, 0xFF, 0x08, 0x00, 0x00, 0x00, 0x88, 0x00, 0x00, 0x00, 0x10, 0x00, 0x00, 0x00, 0x00, 0x00, 0x00, 0x00, 0x00, 0x00, 0x00, 0x00, 0x00, 0x00, 0x00, 0x00, 0x00, 0x00, 0x00, 0x00, 0x00, 0x00, 0x00, 0x00, 0x00, 0x00, 0x00, 0x00, 0x00, 0x00, 0x00, 0x00, 0x00, 0x00, 0x00, 0x00, 0x00, 0x00, 0x00, 0x00, 0x00, 0x00, 0x00, 0x00, 0x00, 0x00, 0x00, 0x00, 0x00, 0x00, 0x00, 0x00, 0x00, 0x00, 0x00, 0x00, 0x00, 0x00, 0x00, 0x00, 0x00, 0x00, 0x00, 0x00, 0x00, 0x00, 0x00, 0x00, 0x00, 0x00, 0x00, 0x00, 0x00, 0x00, 0x00, 0x00, 0x00, 0x00, 0x00, 0x00, 0x00, 0x00, 0x00, 0x00, 0x00, 0x00, 0x00, 0x00, 0x00, 0x00, 0x00, 0x00, 0x00, 0x00, 0x00, 0x00, 0x00, 0x00, 0x00, 0x00, 0x00, 0x00, 0x00, 0x00, 0x00, 0x00, 0x00, 0x00, 0x00, 0x00, 0x00, 0x00, 0x00, 0x00, 0x00, 0x00, 0x00, 0x00, 0x00, 0x00, 0x00, 0x00, 0x00, 0x00, 0x00, 0x00, 0x00, 0x00, 0x00, 0x00, 0x00, 0x00, 0x10, 0x00, 0x00, 0x00, 0xC6, 0x32, 0xD3, 0x3B, 0xCD, 0x69, 0xE4, 0x3B, 0xA3, 0x21, 0x81, 0x3B, 0x16, 0xD4, 0xCD, 0x3B, 0x8C, 0x76, 0xD7, 0x3B, 0xBF, 0x27, 0xEF, 0x3B, 0xB3, 0x69, 0xBF, 0x3B, 0x96, 0xB6, 0xA8, 0x3B, 0xE2, 0x78, 0x04, 0x3C, 0x9B, 0x81, 0x12, 0x3C, 0x2D, 0xBE, 0x04, 0x3C, 0x8E, 0x57, 0x90, 0x3B, 0x22, 0x39, 0xD6, 0x3B, 0xDE, 0x63, 0x92, 0x3B, 0x72, 0x05, 0xA7, 0x3B, 0x89, 0x1E, 0x88, 0x3B, 0x33, 0x00, 0x00, 0x00, 0x73, 